<pad>	0
<unk>	0
<s>	0
</s>	0
<START>	0
<END>	0
▁ह	-0
▁क	-1
▁है	-2
▁म	-3
▁स	-4
▁ब	-5
▁प	-6
ें	-7
▁द	-8
ार	-9
▁में	-10
▁हैं	-11
▁की	-12
ान	-13
▁ग	-14
▁अ	-15
▁कर	-16
▁त	-17
▁र	-18
▁को	-19
▁च	-20
ौं	-21
ाव	-22
▁आ	-23
▁ज	-24
▁ल	-25
▁ख	-26
्य	-27
▁भ	-28
▁न	-29
▁हौं	-30
हि	-31
्र	-32
ैं	-33
ड़	-34
▁के	-35
ात	-36
ाल	-37
▁हो	-38
यो	-39
▁सु	-40
च्	-41
▁चा	-42
पन	-43
▁करत	-44
वा	-45
▁अपन	-46
▁सा	-47
ंग	-48
ाई	-49
▁हम	-50
ावत	-51
▁फ	-52
▁उ	-53
ंद	-54
▁मि	-55
ाम	-56
हिए	-57
▁चाहिए	-58
री	-59
▁बह	-60
▁व	-61
ुत	-62
नो	-63
नी	-64
▁दे	-65
▁बहुत	-66
▁होत	-67
र्	-68
▁ध	-69
▁बन	-70
ित	-71
ों	-72
▁घ	-73
ां	-74
ेल	-75
स्	-76
च्च	-77
्यो	-78
▁से	-79
▁प्र	-80
▁मैं	-81
▁बच्च	-82
ूर	-83
ारी	-84
▁तैं	-85
ने	-86
ानी	-87
▁सम	-88
ूल	-89
ाद	-90
च्छ	-91
▁रा	-92
ाय	-93
िक	-94
▁पर	-95
▁काम	-96
▁अच्छ	-97
िय	-98
▁सों	-99
▁अपने	-100
ुर	-101
ीत	-102
▁श	-103
्ट	-104
▁मो	-105
िल	-106
ंध	-107
▁आज	-108
रे	-109
ज़	-110
ुल	-111
▁लग	-112
ति	-113
ाग	-114
्ह	-115
ली	-116
ना	-117
▁ड	-118
▁घर	-119
▁खान	-120
▁जात	-121
ढ़	-122
▁सब	-123
िर	-124
▁पै	-125
▁बच्चे	-126
क्	-127
▁बु	-128
▁राख	-129
▁उस	-130
ही	-131
▁छ	-132
▁बाल	-133
▁रो	-134
ास	-135
▁जल	-136
▁कौं	-137
▁इ	-138
▁ट	-139
▁य	-140
▁स्	-141
जी	-142
▁मे	-143
▁मिल	-144
जन	-145
▁जर	-146
▁मन	-147
▁लि	-148
▁कू	-149
के	-150
ड्	-151
▁पानी	-152
▁खु	-153
ारे	-154
ती	-155
▁दि	-156
▁सुन	-157
▁अपनी	-158
▁बालक	-159
▁रह	-160
▁कै	-161
▁आवा	-162
▁बि	-163
कै	-164
▁भो	-165
▁खेल	-166
की	-167
ाह	-168
ाइ	-169
ड़ी	-170
त्	-171
सी	-172
ाब	-173
गंध	-174
्यौ	-175
▁कौ	-176
ता	-177
▁दु	-178
▁देत	-179
▁माई	-180
▁देख	-181
ैय	-182
ड़े	-183
▁आव	-184
▁लाग	-185
मी	-186
ंदर	-187
ड्ढ	-188
▁साफ	-189
ेम	-190
▁बुड्ढ	-191
▁सुगंध	-192
त्र	-193
▁सी	-194
ुम	-195
▁पहि	-196
▁सुंदर	-197
▁लिए	-198
टी	-199
▁फूल	-200
▁यो	-201
▁गयो	-202
रो	-203
ावन	-204
▁मु	-205
▁साथ	-206
▁करनो	-207
रु	-208
ारो	-209
▁कों	-210
▁बज	-211
▁ले	-212
▁पो	-213
▁मिठ	-214
▁तें	-215
▁खात	-216
हीं	-217
ावै	-218
▁सं	-219
दी	-220
▁करन	-221
ंड	-222
▁दी	-223
▁दू	-224
गी	-225
रस	-226
ले	-227
▁लागत	-228
▁कम	-229
ाप	-230
मान	-231
▁बनावत	-232
ूं	-233
ुरु	-234
▁ते	-235
▁सो	-236
▁सें	-237
▁कप	-238
▁बे	-239
▁यह	-240
▁बाद	-241
कार	-242
क्ष	-243
▁लो	-244
हिनी	-245
▁अरु	-246
▁सां	-247
▁खाना	-248
▁ए	-249
▁तेल	-250
▁अच्छो	-251
▁आवाज़	-252
▁सफ	-253
▁सीख	-254
वाद	-255
▁धो	-256
तो	-257
रत	-258
ट्ट	-259
▁आवत	-260
▁नहीं	-261
▁भोजन	-262
ूरी	-263
▁गई	-264
▁चल	-265
▁जी	-266
▁ना	-267
▁करो	-268
▁हवा	-269
जा	-270
▁गर	-271
▁पस	-272
▁मौ	-273
▁दूध	-274
▁रात	-275
▁संग	-276
ुन	-277
▁समय	-278
▁खेलत	-279
▁हमारे	-280
कत	-281
वन	-282
ूल्ह	-283
▁खुश	-284
▁पढ़	-285
▁गुरु	-286
▁अच्छी	-287
रा	-288
▁बै	-289
▁मह	-290
▁हमें	-291
टर	-292
▁ठ	-293
▁कु	-294
▁पसंद	-295
यौ	-296
लो	-297
▁कपड़े	-298
▁पी	-299
▁करनी	-300
▁सुगंधित	-301
िस	-302
▁संगीत	-303
ेद	-304
▁गा	-305
▁ने	-306
▁मेह	-307
▁मोक	-308
▁दो	-309
▁रंग	-310
कान	-311
वार	-312
ार्	-313
▁सि	-314
ूल्हे	-315
▁मोहि	-316
ड़त	-317
▁भर	-318
▁तुम	-319
▁प्रेम	-320
कर	-321
िन	-322
ंगा	-323
ाना	-324
▁का	-325
▁गए	-326
▁चम	-327
कारी	-328
▁काल	-329
▁उसकी	-330
▁बालकन	-331
▁ती	-332
▁फूलन	-333
▁दिन	-334
▁गंगा	-335
मा	-336
िंग	-337
▁तैय	-338
न्	-339
ड़क	-340
ष्ट	-341
स्त	-342
ाने	-343
ैया	-344
▁रख	-345
▁कूं	-346
▁चाय	-347
▁बुड्ढावै	-348
▁बरस	-349
▁समै	-350
▁सूर	-351
हत	-352
ाए	-353
▁आग	-354
▁पे	-355
▁दुल	-356
▁बैठ	-357
▁अपनौ	-358
▁आवाज	-359
▁तुम्ह	-360
गो	-361
ोल	-362
▁मी	-363
ेश	-364
िया	-365
्याह	-366
▁आजु	-367
▁बढ़	-368
▁ब्याह	-369
ला	-370
▁ठंड	-371
▁सूरज	-372
ंब	-373
ाओ	-374
ंगे	-375
▁दिख	-376
को	-377
ायो	-378
ियन	-379
▁तर	-380
▁डार	-381
▁दुकान	-382
▁हमारी	-383
▁दुलहिनी	-384
ंख	-385
ंच	-386
सल	-387
से	-388
▁उप	-389
▁रस	-390
▁हर	-391
▁कूप	-392
▁पूर	-393
▁बिज	-394
▁मिठाई	-395
योग	-396
▁व्य	-397
खर	-398
वर	-399
▁झ	-400
हार	-401
ादी	-402
▁नी	-403
▁पू	-404
▁तेज	-405
▁पोखर	-406
ल्	-407
्रा	-408
▁वि	-409
्यान	-410
▁फसल	-411
▁भयो	-412
▁राखो	-413
टे	-414
ावो	-415
▁ची	-416
▁छो	-417
▁बात	-418
▁सैं	-419
ड़ो	-420
र्म	-421
ानो	-422
▁भी	-423
▁कार	-424
▁गरम	-425
▁मीठ	-426
▁सौं	-427
▁खानो	-428
ंत	-429
ूप	-430
▁नि	-431
▁दूल्हे	-432
ते	-433
पक	-434
त्य	-435
▁मा	-436
▁वह	-437
▁बां	-438
▁सिख	-439
▁खट्ट	-440
▁जरूरी	-441
▁बच्चौ	-442
बू	-443
्हि	-444
▁निक	-445
▁लेत	-446
▁हूं	-447
▁काल्हि	-448
▁गुरुजी	-449
ाजी	-450
▁गु	-451
▁चाव	-452
▁ध्यान	-453
ियो	-454
▁अन	-455
▁बद	-456
▁सू	-457
▁बार	-458
▁शां	-459
▁करनौ	-460
का	-461
ाथ	-462
स्थ	-463
▁कह	-464
▁पह	-465
▁भग	-466
▁गयौ	-467
▁पास	-468
▁भोर	-469
▁तैयार	-470
▁सुनाई	-471
्म	-472
ुरी	-473
▁उठ	-474
▁बच	-475
▁गुल	-476
▁दाल	-477
▁मिलत	-478
▁मोकों	-479
▁ढ	-480
▁एक	-481
▁तक	-482
▁पक	-483
▁पा	-484
▁बस	-485
ावना	-486
▁रहत	-487
▁स्वाद	-488
द्	-489
वै	-490
▁थ	-491
क्र	-492
▁धूप	-493
▁प्रस	-494
सम	-495
ृष	-496
ड़न	-497
▁सभ	-498
▁आगि	-499
▁दूर	-500
▁सुर	-501
▁दीपक	-502
▁गुलाब	-503
▁सामान	-504
रन	-505
िश	-506
ेत	-507
्ल	-508
ाली	-509
ेरे	-510
त्ती	-511
▁कैं	-512
▁बाब	-513
▁पहिर	-514
▁भैया	-515
▁अच्छे	-516
▁तरकारी	-517
ाकै	-518
ियम	-519
▁नई	-520
▁आयो	-521
▁कृष	-522
▁पीत	-523
▁हाथ	-524
▁पूजा	-525
▁राखत	-526
▁रोज़	-527
चा	-528
ाज	-529
्ब	-530
ांच	-531
▁आर	-532
▁सह	-533
▁दुख	-534
▁बंद	-535
▁खुशी	-536
▁देखत	-537
▁गाड़ी	-538
ुप	-539
ैस	-540
वान	-541
ायद	-542
▁करौ	-543
▁तीख	-544
▁अपनो	-545
▁फायद	-546
▁मौसम	-547
▁सफाई	-548
▁सिखावत	-549
ोस	-550
▁बो	-551
▁मध	-552
▁क्र	-553
▁खुस	-554
▁मंद	-555
▁लाल	-556
▁उसके	-557
▁गावत	-558
▁सड़क	-559
▁बच्चन	-560
तन	-561
ूब	-562
िता	-563
▁आई	-564
▁सर	-565
▁सव	-566
▁कुट	-567
▁दवा	-568
▁धोत	-569
▁रेल	-570
▁जराय	-571
थी	-572
ेस	-573
्व	-574
▁अभ	-575
▁आद	-576
ावनो	-577
▁मौत	-578
स्त्र	-579
▁जीवन	-580
▁दादी	-581
▁संस्	-582
▁सांझ	-583
▁बरसात	-584
▁जरायके	-585
▁बुड्ढन	-586
नौ	-587
ेह	-588
▁अं	-589
▁बी	-590
▁मस	-591
▁कित	-592
▁भजन	-593
▁महक	-594
▁मात	-595
▁रोज	-596
▁सूख	-597
▁खुसी	-598
▁भावत	-599
▁होवै	-600
▁मंदिर	-601
ची	-602
टा	-603
्त	-604
ाला	-605
क्षा	-606
▁अंध	-607
▁गीत	-608
▁नाच	-609
▁प्य	-610
▁मान	-611
▁तेज़	-612
▁व्यव	-613
▁बुड्ढे	-614
कृ	-615
टो	-616
ुक	-617
ंगो	-618
चार	-619
न्न	-620
▁आए	-621
▁उग	-622
▁गह	-623
▁जग	-624
िवार	-625
ृत्य	-626
ेदार	-627
▁आंख	-628
▁गर्	-629
▁सुख	-630
▁स्ट	-631
▁कृषि	-632
▁घड़ी	-633
▁पड़त	-634
▁पूरो	-635
▁मेरी	-636
▁बहिनी	-637
▁भगवान	-638
▁मोकौं	-639
▁राखनो	-640
ीर	-641
ोन	-642
ौल	-643
द्ध	-644
वाह	-645
ांव	-646
▁आम	-647
्मान	-648
▁किर	-649
▁खिल	-650
▁खेत	-651
▁पत्	-652
▁मिर	-653
▁मुए	-654
▁सोग	-655
▁हल्	-656
▁चावल	-657
▁पूरी	-658
▁होगी	-659
▁बिजुरी	-660
▁सम्मान	-661
नत	-662
ैद	-663
▁ओ	-664
ड्ड	-665
दार	-666
ानौ	-667
्दी	-668
▁चू	-669
▁फु	-670
▁उसे	-671
▁कान	-672
▁गैस	-673
▁ट्र	-674
▁माम	-675
▁म्ह	-676
▁रसो	-677
▁रोस	-678
▁हरी	-679
▁कियो	-680
▁चीनी	-681
▁परोस	-682
▁भाजी	-683
▁सफेद	-684
▁खट्टो	-685
▁जल्दी	-686
▁रह्यो	-687
टत	-688
ोर	-689
किल	-690
तिम	-691
▁पि	-692
▁भई	-693
▁लह	-694
ट्टी	-695
ियां	-696
▁किस	-697
▁दिल	-698
▁पड़	-699
▁पाठ	-700
▁माह	-701
▁करकै	-702
▁जांच	-703
▁मिले	-704
▁रसोई	-705
▁अंतिम	-706
▁बनावन	-707
▁संस्कार	-708
गत	-709
गन	-710
गे	-711
जत	-712
पी	-713
ाभ	-714
ून	-715
ंगी	-716
काश	-717
भाल	-718
ादा	-719
ालो	-720
िक्	-721
ेशा	-722
▁डि	-723
▁नह	-724
▁फै	-725
ूंगे	-726
▁बजे	-727
▁बेच	-728
▁साम	-729
बत्ती	-730
▁इत्र	-731
▁उसको	-732
▁उसने	-733
▁खाने	-734
▁मिठो	-735
▁मीठी	-736
▁होगो	-737
▁बारात	-738
▁माहौल	-739
▁हमेशा	-740
▁प्रसन्न	-741
ंह	-742
रम	-743
ाऊ	-744
▁खो	-745
▁तै	-746
ित्र	-747
▁अनु	-748
▁गाय	-749
▁जगह	-750
▁बैं	-751
▁भलो	-752
▁रही	-753
▁लोक	-754
▁हित	-755
▁गांव	-756
▁पेड़	-757
▁पैसे	-758
▁मुंह	-759
▁यहां	-760
▁कर्यो	-761
▁किसान	-762
▁पढ़ाई	-763
▁तुम्हारी	-764
तर	-765
दर	-766
बौ	-767
वल	-768
शन	-769
ीन	-770
्यू	-771
▁कल	-772
▁घी	-773
▁जू	-774
▁जो	-775
▁पु	-776
▁वृ	-777
क्रम	-778
ेमंद	-779
▁फूर	-780
▁भली	-781
▁भाग	-782
▁याद	-783
▁रहो	-784
▁हतो	-785
▁द्यौ	-786
▁पढ़त	-787
▁पोथी	-788
▁मीठो	-789
▁सीखत	-790
▁स्वा	-791
▁अच्छौ	-792
▁कार्य	-793
▁पहिले	-794
▁विवाह	-795
▁वृक्ष	-796
▁शांति	-797
▁देखभाल	-798
▁वस्त्र	-799
▁व्यवस्थ	-800
▁फायदेमंद	-801
ंप	-802
जे	-803
रण	-804
िट	-805
क्ट	-806
ूरत	-807
ेंट	-808
्री	-809
▁आस	-810
▁उब	-811
▁बा	-812
▁रे	-813
▁ही	-814
▁गिर	-815
▁चमक	-816
▁चलत	-817
▁ढोल	-818
▁देर	-819
▁पंख	-820
▁सभै	-821
▁स्व	-822
▁हार	-823
▁आकाश	-824
▁नानी	-825
▁बड़ो	-826
▁मेरे	-827
▁शांत	-828
▁सच्च	-829
▁रोसनी	-830
डर	-831
फी	-832
श्	-833
िम	-834
ूट	-835
थना	-836
र्च	-837
र्ण	-838
वास	-839
्या	-840
▁जन	-841
▁धी	-842
▁बर	-843
▁मद	-844
▁रु	-845
▁वो	-846
▁सै	-847
▁जान	-848
▁डूब	-849
▁नाम	-850
▁पवन	-851
▁बहू	-852
▁मोम	-853
▁रखत	-854
▁संत	-855
▁सबस	-856
▁सही	-857
▁आराम	-858
▁गर्म	-859
▁चाहत	-860
▁ठंडी	-861
▁बाबू	-862
▁मिरत	-863
▁हमने	-864
▁कहानी	-865
▁नृत्य	-866
▁मित्र	-867
▁चूल्हे	-868
▁तैयारी	-869
▁तुम्हारे	-870
जर	-871
सर	-872
सु	-873
्प	-874
▁ई	-875
▁ऊ	-876
सीस	-877
ांत	-878
ाएं	-879
▁अर	-880
▁रग	-881
योगी	-882
ुम्ब	-883
ैद्य	-884
▁आवै	-885
▁न्ह	-886
▁पार	-887
▁लोन	-888
▁आसीस	-889
▁चांद	-890
▁डारो	-891
▁बैठे	-892
▁मधुर	-893
▁रोटी	-894
▁गर्मी	-895
▁पहिरै	-896
▁प्रति	-897
▁लगावत	-898
▁वैद्य	-899
▁उपयोगी	-900
▁बाबूजी	-901
कन	-902
वत	-903
ॉल	-904
तिक	-905
त्स	-906
ावध	-907
ूंद	-908
▁अध	-909
▁धन	-910
▁नम	-911
▁फल	-912
स्तो	-913
िष्ट	-914
▁कमी	-915
▁नदी	-916
▁मदद	-917
▁सकत	-918
▁साइ	-919
▁सिर	-920
▁चमकत	-921
▁चाचा	-922
▁तीखो	-923
▁नाना	-924
▁बनाए	-925
▁बनाओ	-926
▁बिना	-927
▁बूंद	-928
▁मसाल	-929
▁सांस	-930
▁सावध	-931
▁उपयोग	-932
▁चलावत	-933
▁जरूरत	-934
▁नाहीं	-935
▁बिजली	-936
▁म्हें	-937
▁सबसों	-938
▁सांति	-939
▁सुवाद	-940
▁हमारो	-941
▁कुटुम्ब	-942
▁मोमबत्ती	-943
▁कार्यक्रम	-944
ंट	-945
कु	-946
बल	-947
भव	-948
वी	-949
वे	-950
कूल	-951
बुन	-952
भात	-953
र्ष	-954
स्ट	-955
हिन	-956
ायम	-957
्रि	-958
▁आत	-959
▁इं	-960
▁छु	-961
▁डर	-962
▁दौ	-963
▁सग	-964
▁सद	-965
क्ति	-966
ायाम	-967
ेंगे	-968
▁इंत	-969
▁कां	-970
▁जाग	-971
▁नार	-972
▁पात	-973
▁पिल	-974
▁पेट	-975
▁बजत	-976
▁बदल	-977
▁बाप	-978
▁भती	-979
▁माल	-980
▁मुख	-981
▁मुल	-982
▁योग	-983
▁लिख	-984
▁करने	-985
▁चावर	-986
▁जावै	-987
▁दुर्	-988
▁बाबा	-989
▁बेटी	-990
▁माटी	-991
▁मिठी	-992
▁मिलै	-993
▁सत्य	-994
▁सुनि	-995
▁साबुन	-996
▁मुलायम	-997
ंस	-998
ठो	-999
वि	-1000
हल	-1001
ाँ	-1002
ौध	-1003
्स	-1004
क्स	-1005
बिर	-1006
हरी	-1007
▁अम	-1008
▁कछ	-1009
▁कॉ	-1010
▁चि	-1011
▁बग	-1012
▁मं	-1013
▁मज	-1014
▁रि	-1015
▁शह	-1016
▁करै	-1017
▁गंध	-1018
▁गूं	-1019
▁चेह	-1020
▁तिल	-1021
▁बास	-1022
▁बिर	-1023
▁बुर	-1024
▁लोग	-1025
▁हरे	-1026
▁गुड़	-1027
▁ठंडो	-1028
▁दीयो	-1029
▁नियम	-1030
▁मिली	-1031
▁सेवा	-1032
ार्थना	-1033
▁उगावत	-1034
▁खातिर	-1035
▁बगिया	-1036
▁मेहनत	-1037
▁स्कूल	-1038
▁अंधेरे	-1039
▁वृक्षन	-1040
▁सीख्यो	-1041
▁सुनावत	-1042
▁व्यवस्था	-1043
जु	-1044
धी	-1045
पस	-1046
रौ	-1047
ीं	-1048
ूँ	-1049
ूम	-1050
ूस	-1051
ौक	-1052
क्ख	-1053
गीत	-1054
दरक	-1055
र्ट	-1056
र्ड	-1057
ाइन	-1058
ायौ	-1059
▁अग	-1060
▁खि	-1061
▁छत	-1062
▁यौ	-1063
▁सल	-1064
▁हु	-1065
कृति	-1066
ात्म	-1067
▁कछु	-1068
▁कहत	-1069
▁खाद	-1070
▁गुन	-1071
▁दही	-1072
▁धवल	-1073
▁बनत	-1074
▁बिल	-1075
▁बीज	-1076
▁भाई	-1077
▁रखो	-1078
▁रीत	-1079
▁लंब	-1080
▁लाभ	-1081
▁समझ	-1082
▁सरस	-1083
▁अदरक	-1084
▁आदमी	-1085
▁इंतज	-1086
▁करना	-1087
▁खातो	-1088
▁छोटी	-1089
▁तीरे	-1090
▁दादा	-1091
▁देनो	-1092
▁धर्म	-1093
▁नाचत	-1094
▁पत्र	-1095
▁पाठश	-1096
▁पावन	-1097
▁बदरा	-1098
▁बहिन	-1099
▁माता	-1100
▁लगात	-1101
▁लियो	-1102
▁किताब	-1103
▁दुखाव	-1104
▁पहिरी	-1105
▁सबेरे	-1106
▁प्रभात	-1107
▁मिलेगी	-1108
▁लोकगीत	-1109
▁प्रार्थना	-1110
गा	-1111
दे	-1112
पो	-1113
मु	-1114
रि	-1115
नंद	-1116
र्य	-1117
ारत	-1118
ूरो	-1119
▁इस	-1120
▁जै	-1121
▁ज्	-1122
▁तब	-1123
▁नव	-1124
▁वा	-1125
▁सज	-1126
ायता	-1127
▁चढ़	-1128
▁टिक	-1129
▁दूस	-1130
▁नीम	-1131
▁बाज	-1132
▁रहै	-1133
▁लगत	-1134
▁सर्	-1135
▁सिल	-1136
ाऊंगे	-1137
▁अड्ड	-1138
▁आनंद	-1139
▁करें	-1140
▁चमकी	-1141
▁छोटे	-1142
▁जाने	-1143
▁डारि	-1144
▁दांत	-1145
▁दियो	-1146
▁प्रा	-1147
▁बढ़त	-1148
▁बांस	-1149
▁बिस्	-1150
▁बेटे	-1151
▁मिरच	-1152
▁चित्र	-1153
▁सच्चे	-1154
▁करूंगे	-1155
▁खेल्यो	-1156
▁देख्यो	-1157
▁परिवार	-1158
▁बनावतो	-1159
▁रास्तो	-1160
▁सहायता	-1161
▁प्रभाते	-1162
▁स्वादिष्ट	-1163
था	-1164
नल	-1165
बर	-1166
बह	-1167
सै	-1168
ेन	-1169
ंदी	-1170
केट	-1171
ढ़ी	-1172
दाय	-1173
बाइ	-1174
बाप	-1175
ाइट	-1176
ुंब	-1177
▁कट	-1178
▁खर	-1179
▁गो	-1180
▁टी	-1181
▁भि	-1182
▁मै	-1183
▁वी	-1184
ावने	-1185
▁अंग	-1186
▁अभी	-1187
▁कथा	-1188
▁कुछ	-1189
▁छाय	-1190
▁छुप	-1191
▁तरह	-1192
▁ब्र	-1193
▁भयौ	-1194
▁मां	-1195
▁लगे	-1196
▁सबक	-1197
▁सभा	-1198
▁समस	-1199
▁आरती	-1200
▁कमरे	-1201
▁तीखी	-1202
▁परेश	-1203
▁पोते	-1204
▁बनाई	-1205
▁मामा	-1206
▁लड़क	-1207
▁वारे	-1208
▁शादी	-1209
▁साफ़	-1210
▁सुनत	-1211
▁आंखें	-1212
▁खट्टी	-1213
▁खुशबू	-1214
▁खुसबू	-1215
▁बजावत	-1216
▁बनाने	-1217
▁मालिश	-1218
▁मिलकै	-1219
▁साड़ी	-1220
▁कुटुंब	-1221
▁नियमित	-1222
▁मात्रा	-1223
▁साइकिल	-1224
▁स्वागत	-1225
एं	-1226
गौ	-1227
हर	-1228
ॉक	-1229
्ण	-1230
नुम	-1231
ुरू	-1232
▁अल	-1233
▁उज	-1234
▁जम	-1235
▁ता	-1236
▁तो	-1237
▁दई	-1238
कड़ी	-1239
र्तन	-1240
स्सी	-1241
ार्ड	-1242
▁उड़	-1243
▁करि	-1244
▁कसै	-1245
▁काट	-1246
▁केश	-1247
▁गेम	-1248
▁टहल	-1249
▁ताल	-1250
▁दान	-1251
▁पहु	-1252
▁पाप	-1253
▁पुर	-1254
▁पुल	-1255
▁पौध	-1256
▁फोन	-1257
▁बरत	-1258
▁सजा	-1259
▁सफल	-1260
▁हिल	-1261
क्षित	-1262
▁आंखन	-1263
▁कारी	-1264
▁गरमी	-1265
▁गायो	-1266
▁ट्रै	-1267
▁डारत	-1268
▁त्यौ	-1269
▁दिखत	-1270
▁पीरो	-1271
▁मिलि	-1272
▁मैया	-1273
▁वारो	-1274
▁शुरू	-1275
▁सबके	-1276
▁समान	-1277
▁सुरू	-1278
▁हरदी	-1279
▁अनुभव	-1280
▁कक्षा	-1281
▁गूंजत	-1282
▁पहिरे	-1283
▁बनावो	-1284
▁रह्यौ	-1285
▁लगायो	-1286
▁लगावै	-1287
▁सीखनो	-1288
▁छुट्टी	-1289
▁प्रयोग	-1290
▁बढ़ावत	-1291
▁जानकारी	-1292
▁पाठशाला	-1293
▁तुम्हारो	-1294
▁बारातियन	-1295
▁सुरक्षित	-1296
छा	-1297
जल	-1298
टक	-1299
णा	-1300
पा	-1301
फ़	-1302
फा	-1303
बो	-1304
लत	-1305
लर	-1306
लू	-1307
शा	-1308
ीक	-1309
्ठ	-1310
कति	-1311
कुल	-1312
चान	-1313
धार	-1314
प्र	-1315
मोन	-1316
व्य	-1317
सुर	-1318
▁अक	-1319
▁ओर	-1320
▁कव	-1321
▁कि	-1322
▁ति	-1323
▁फो	-1324
▁लै	-1325
▁हल	-1326
ड़की	-1327
डियो	-1328
त्ता	-1329
दारी	-1330
ार्क	-1331
ार्म	-1332
ावरण	-1333
▁आगे	-1334
▁उठत	-1335
▁करी	-1336
▁कला	-1337
▁कुर	-1338
▁ग्र	-1339
▁जमी	-1340
▁ठीक	-1341
▁तान	-1342
▁तुर	-1343
▁निभ	-1344
▁निर	-1345
▁पहा	-1346
▁मंग	-1347
▁मार	-1348
▁राम	-1349
▁रुख	-1350
▁रोग	-1351
▁लें	-1352
▁सास	-1353
▁सुभ	-1354
▁सोच	-1355
▁आसान	-1356
▁उत्स	-1357
▁उबाल	-1358
▁कानन	-1359
▁चाची	-1360
▁छाया	-1361
▁पूरे	-1362
▁बजाइ	-1363
▁बरसा	-1364
▁बासन	-1365
▁मामी	-1366
▁माला	-1367
▁लगाई	-1368
मोनियम	-1369
▁कसैली	-1370
▁चूर्ण	-1371
▁चेहरो	-1372
▁जरावन	-1373
▁पार्क	-1374
▁प्यार	-1375
▁मिर्च	-1376
▁मोबाइ	-1377
▁जात्रा	-1378
▁पड़्यो	-1379
▁लाग्यो	-1380
▁त्यौहार	-1381
▁लाभकारी	-1382
▁हारमोनियम	-1383
ग्	-1384
चन	-1385
डी	-1386
मि	-1387
मे	-1388
यर	-1389
वो	-1390
षा	-1391
सन	-1392
सा	-1393
ेक	-1394
ेट	-1395
ंबू	-1396
जात	-1397
दर्	-1398
पूर	-1399
बॉल	-1400
ारा	-1401
ालन	-1402
▁अव	-1403
▁कई	-1404
▁कठ	-1405
▁खत	-1406
▁चर	-1407
▁धै	-1408
▁नए	-1409
▁भए	-1410
▁भल	-1411
▁लौ	-1412
▁शु	-1413
ज़ार	-1414
माटर	-1415
मारी	-1416
रसाइ	-1417
रीके	-1418
िसाब	-1419
▁आत्	-1420
▁कोऊ	-1421
▁खुल	-1422
▁जीत	-1423
▁दर्	-1424
▁नयो	-1425
▁पुन	-1426
▁फें	-1427
▁बनी	-1428
▁मास	-1429
▁रहे	-1430
▁राग	-1431
▁लेन	-1432
▁सबन	-1433
▁सब्	-1434
▁हती	-1435
▁हरो	-1436
कृतिक	-1437
स्थ्य	-1438
ात्मक	-1439
▁अचार	-1440
▁उड़त	-1441
▁कारन	-1442
▁किरण	-1443
▁गाना	-1444
▁ज्वर	-1445
▁तैरत	-1446
▁देखि	-1447
▁देवर	-1448
▁पूरौ	-1449
▁बेचौ	-1450
▁भीड़	-1451
▁भूरो	-1452
▁मधुम	-1453
▁मेरो	-1454
▁रगाव	-1455
▁रिक्	-1456
▁सगरे	-1457
▁सबको	-1458
▁सबसे	-1459
▁सलाह	-1460
▁सुबह	-1461
योगिता	-1462
▁उठावत	-1463
▁चाहतौ	-1464
▁टमाटर	-1465
▁तरीके	-1466
▁तिहार	-1467
▁दूसरन	-1468
▁नवजात	-1469
▁नारिय	-1470
▁नींबू	-1471
▁न्हीं	-1472
▁पत्ती	-1473
▁पहिरत	-1474
▁पहुंच	-1475
▁फायदो	-1476
▁बन्यो	-1477
▁बाजार	-1478
▁बोर्ड	-1479
▁मनावत	-1480
▁मैंने	-1481
▁शक्ति	-1482
▁हिसाब	-1483
▁कीर्तन	-1484
▁दिख्यो	-1485
▁परेशान	-1486
▁मिल्यो	-1487
▁मोबाइल	-1488
▁सुनहरी	-1489
कारात्मक	-1490
▁बांसुरी	-1491
▁व्यायाम	-1492
▁मसालेदार	-1493
▁लड़कियां	-1494
▁प्रतियोगिता	-1495
कट	-1496
खत	-1497
चर	-1498
छत	-1499
दत	-1500
नि	-1501
बी	-1502
बे	-1503
मल	-1504
यन	-1505
सफ	-1506
ृह	-1507
ॉप	-1508
ोध	-1509
ंटी	-1510
गनी	-1511
जना	-1512
जिन	-1513
ड़ा	-1514
ढ़ो	-1515
तार	-1516
त्व	-1517
नाई	-1518
ब्ब	-1519
लेट	-1520
वर्	-1521
शनी	-1522
शीन	-1523
ाईं	-1524
ालू	-1525
ाले	-1526
ावट	-1527
ाहट	-1528
िकै	-1529
ृति	-1530
ेली	-1531
▁कं	-1532
▁कब	-1533
▁जा	-1534
▁टो	-1535
▁तन	-1536
▁दस	-1537
▁फे	-1538
▁भू	-1539
▁मू	-1540
▁रै	-1541
▁शि	-1542
ंद्र	-1543
दायक	-1544
ुलसी	-1545
ौकरी	-1546
्यार	-1547
्यास	-1548
्वचा	-1549
▁आटा	-1550
▁आलू	-1551
▁आवन	-1552
▁खीर	-1553
▁गईं	-1554
▁जनम	-1555
▁जाम	-1556
▁टूट	-1557
▁थाप	-1558
▁दीव	-1559
▁दुप	-1560
▁बीत	-1561
▁बुआ	-1562
▁मेल	-1563
▁रार	-1564
▁राह	-1565
▁लहर	-1566
▁लेप	-1567
▁वात	-1568
▁वाद	-1569
▁स्म	-1570
▁हिम	-1571
▁हूँ	-1572
दर्शन	-1573
वत्ता	-1574
स्तेम	-1575
स्वाद	-1576
▁कठिन	-1577
▁कर्म	-1578
▁जूते	-1579
▁टिकट	-1580
▁ठंडक	-1581
▁धीमी	-1582
▁पड़ो	-1583
▁पीली	-1584
▁बड़े	-1585
▁बनाव	-1586
▁बांट	-1587
▁बेटा	-1588
▁मक्ख	-1589
▁मशीन	-1590
▁मानत	-1591
▁ससुर	-1592
▁सेहत	-1593
▁स्वर	-1594
▁होनो	-1595
स्त्री	-1596
ावेंगे	-1597
▁तुलसी	-1598
▁त्वचा	-1599
▁धैर्य	-1600
▁निकार	-1601
▁नौकरी	-1602
▁परोसन	-1603
▁पुस्त	-1604
▁प्याज	-1605
▁राखनी	-1606
▁लकड़ी	-1607
▁लगाकै	-1608
▁सब्जी	-1609
▁सरसों	-1610
▁सर्दी	-1611
▁सामिल	-1612
▁इस्तेम	-1613
▁दुखावा	-1614
▁बूंदें	-1615
▁बैंगनी	-1616
▁मिरचाई	-1617
▁सावधान	-1618
▁प्रकृति	-1619
▁सावधानी	-1620
▁स्वास्थ्य	-1621
चि	-1622
चे	-1623
छो	-1624
ज्	-1625
दल	-1626
नट	-1627
पत	-1628
पू	-1629
ब्	-1630
म्	-1631
हा	-1632
ेज	-1633
ेड	-1634
ंबर	-1635
दिन	-1636
निक	-1637
फली	-1638
बूत	-1639
भाव	-1640
रान	-1641
लाय	-1642
ल्ब	-1643
श्य	-1644
सार	-1645
सुन	-1646
स्म	-1647
स्व	-1648
ाभी	-1649
्ते	-1650
▁अख	-1651
▁अस	-1652
▁आध	-1653
▁क्	-1654
▁गण	-1655
▁चट	-1656
▁चो	-1657
▁थो	-1658
▁बत	-1659
▁भय	-1660
▁भै	-1661
▁ली	-1662
क्कर	-1663
क्टर	-1664
ग्री	-1665
द्रा	-1666
र्जा	-1667
वावत	-1668
श्यक	-1669
ष्टि	-1670
ेंडर	-1671
ेहूं	-1672
▁आदर	-1673
▁कमर	-1674
▁गुण	-1675
▁जरत	-1676
▁जाप	-1677
▁झूल	-1678
▁डिज	-1679
▁तित	-1680
▁तीन	-1681
▁नाक	-1682
▁नून	-1683
▁पंच	-1684
▁परी	-1685
▁फैन	-1686
▁बुक	-1687
▁बुझ	-1688
▁बोत	-1689
▁भरन	-1690
▁मजा	-1691
▁मौन	-1692
▁रहि	-1693
▁रुक	-1694
▁लगै	-1695
▁लड़	-1696
▁विक	-1697
▁समु	-1698
▁हिर	-1699
▁होि	-1700
नुमान	-1701
लायची	-1702
ात्रा	-1703
ृत्यु	-1704
▁अधिक	-1705
▁इंटर	-1706
▁ईमान	-1707
▁एक्स	-1708
▁कहाँ	-1709
▁काटत	-1710
▁गहने	-1711
▁गिरत	-1712
▁चालू	-1713
▁तबला	-1714
▁त्यो	-1715
▁देखन	-1716
▁पालन	-1717
▁पैदल	-1718
▁पौधे	-1719
▁फोटो	-1720
▁बल्ब	-1721
▁बैंक	-1722
▁भाभी	-1723
▁भिगो	-1724
▁मार्	-1725
▁मिनट	-1726
▁मेरौ	-1727
▁रखनी	-1728
▁रहनो	-1729
▁लेनो	-1730
▁वालो	-1731
▁वीणा	-1732
▁शिक्	-1733
▁सांत	-1734
▁सासु	-1735
▁सीखन	-1736
▁सूखे	-1737
बिरंगे	-1738
स्वादु	-1739
▁अड्डे	-1740
▁ऊर्जा	-1741
▁कार्ड	-1742
▁कृष्ण	-1743
▁गेहूं	-1744
▁जातरा	-1745
▁दीवार	-1746
▁निकाल	-1747
▁पढ़नो	-1748
▁पत्रन	-1749
▁पहिनत	-1750
▁बनानो	-1751
▁बांटत	-1752
▁भतीजे	-1753
▁भर्यो	-1754
▁मंत्र	-1755
▁महत्व	-1756
▁रंगीन	-1757
▁रोशनी	-1758
▁लहसुन	-1759
▁सुननो	-1760
▁हल्ला	-1761
▁अभ्यास	-1762
▁आवश्यक	-1763
▁इंतजार	-1764
▁इलायची	-1765
▁जरावना	-1766
▁नारियल	-1767
▁निद्रा	-1768
▁बाज़ार	-1769
▁मिट्टी	-1770
▁मिलावो	-1771
▁मृत्यु	-1772
▁रिक्शा	-1773
▁समस्या	-1774
▁स्वच्छ	-1775
▁हनुमान	-1776
▁त्योहार	-1777
▁रोज़ाना	-1778
▁वातावरण	-1779
▁सुंदरता	-1780
▁इस्तेमाल	-1781
▁सुस्वादु	-1782
ँव	-1783
ँह	-1784
ंक	-1785
खी	-1786
गर	-1787
घर	-1788
छी	-1789
छे	-1790
टु	-1791
दन	-1792
दय	-1793
नर	-1794
पर	-1795
बत	-1796
भा	-1797
भी	-1798
मर	-1799
मो	-1800
शे	-1801
सत	-1802
ंसी	-1803
क्त	-1804
ड़ौ	-1805
तें	-1806
नीक	-1807
पने	-1808
प्त	-1809
प्प	-1810
वरी	-1811
ाती	-1812
ायर	-1813
ालय	-1814
ीरज	-1815
ेबल	-1816
ेशन	-1817
▁आइ	-1818
▁आक	-1819
▁खी	-1820
▁गि	-1821
▁चह	-1822
▁चौ	-1823
▁छह	-1824
▁छि	-1825
▁जु	-1826
▁टै	-1827
▁तल	-1828
▁दर	-1829
▁दै	-1830
▁पत	-1831
▁मछ	-1832
▁रव	-1833
ंदगी	-1834
द्धि	-1835
धीरे	-1836
पिता	-1837
लावत	-1838
वरात	-1839
स्ती	-1840
ांसी	-1841
ाइबौ	-1842
ूंगो	-1843
ैदान	-1844
▁आपस	-1845
▁आयौ	-1846
▁इकट	-1847
▁ऊंच	-1848
▁कड़	-1849
▁कीम	-1850
▁खतम	-1851
▁खरी	-1852
▁खुद	-1853
▁गले	-1854
▁गिल	-1855
▁गृह	-1856
▁चली	-1857
▁चार	-1858
▁चीज	-1859
▁जनन	-1860
▁जिम	-1861
▁तली	-1862
▁ताज	-1863
▁तार	-1864
▁दार	-1865
▁धरम	-1866
▁नगा	-1867
▁नयौ	-1868
▁पाउ	-1869
▁पिक	-1870
▁पों	-1871
▁फिल	-1872
▁बखत	-1873
▁बनो	-1874
▁बरफ	-1875
▁बर्	-1876
▁बिक	-1877
▁बुल	-1878
▁बोल	-1879
▁भरत	-1880
▁भरि	-1881
▁भलौ	-1882
▁भां	-1883
▁भीत	-1884
▁भूख	-1885
▁मुस	-1886
▁मोट	-1887
▁रोत	-1888
▁लगी	-1889
▁समा	-1890
▁सार	-1891
▁हुई	-1892
नलाइन	-1893
ष्टिक	-1894
ुष्टि	-1895
ूल्हो	-1896
▁करतौ	-1897
▁कारो	-1898
▁खड़े	-1899
▁गहरी	-1900
▁चटनी	-1901
▁छोड़	-1902
▁जमाई	-1903
▁जमीन	-1904
▁ताजी	-1905
▁तारे	-1906
▁तेजी	-1907
▁देनौ	-1908
▁धीरज	-1909
▁धीरे	-1910
▁धोकै	-1911
▁नाश्	-1912
▁निकर	-1913
▁नींद	-1914
▁पांच	-1915
▁फुफा	-1916
▁बांध	-1917
▁बुरे	-1918
▁मिरि	-1919
▁मीटर	-1920
▁मोती	-1921
▁लंबी	-1922
▁लावत	-1923
▁लावो	-1924
▁लेनी	-1925
▁वारी	-1926
▁सजाओ	-1927
▁सारो	-1928
▁हरिय	-1929
▁हर्ष	-1930
▁हवाई	-1931
▁हाथन	-1932
▁हिलत	-1933
▁होरी	-1934
बिरंगी	-1935
▁काढ़ो	-1936
▁क्रोध	-1937
▁खट्टे	-1938
▁खांसी	-1939
▁गिरने	-1940
▁जरावत	-1941
▁जामुन	-1942
▁तकनीक	-1943
▁तितली	-1944
▁तुरंत	-1945
▁दिखाव	-1946
▁दोस्त	-1947
▁दौड़त	-1948
▁धनिया	-1949
▁प्रिय	-1950
▁बातें	-1951
▁बादाम	-1952
▁बिचार	-1953
▁मक्खन	-1954
▁मजबूत	-1955
▁मसाले	-1956
▁मैदान	-1957
▁योजना	-1958
▁शक्कर	-1959
▁शहनाई	-1960
▁समृति	-1961
▁सुद्ध	-1962
▁हल्दी	-1963
रसाइकिल	-1964
▁अपनानी	-1965
▁इंतजाम	-1966
▁खिड़की	-1967
▁खिलावत	-1968
▁गुलाबी	-1969
▁दिखावत	-1970
▁नगाड़े	-1971
▁पड़ोसी	-1972
▁पहाड़न	-1973
▁पहिचान	-1974
▁पुस्तक	-1975
▁प्रसाद	-1976
▁मित्रन	-1977
▁मिलेगो	-1978
▁यात्रा	-1979
▁रविवार	-1980
▁सामानु	-1981
▁सुरक्षा	-1982
▁प्राकृतिक	-1983
▁मोटरसाइकिल	-1984
आं	-1985
आत	-1986
कौ	-1987
चक	-1988
दो	-1989
धन	-1990
पु	-1991
भू	-1992
ाट	-1993
ीम	-1994
ुं	-1995
ूठ	-1996
ृद	-1997
ेर	-1998
ैन	-1999
ंगन	-2000
ंटन	-2001
ंडी	-2002
ंदन	-2003
करी	-2004
कीन	-2005
कुट	-2006
खार	-2007
गुल	-2008
ठरी	-2009
द्र	-2010
न्द	-2011
बंध	-2012
बार	-2013
म्प	-2014
म्र	-2015
याल	-2016
रसन	-2017
र्न	-2018
र्स	-2019
ष्य	-2020
सिस	-2021
सूस	-2022
स्क	-2023
ापी	-2024
ावर	-2025
िका	-2026
ियौ	-2027
ेजत	-2028
ैबो	-2029
ौंक	-2030
्बै	-2031
्ली	-2032
▁अह	-2033
▁आप	-2034
▁आय	-2035
▁खज	-2036
▁गू	-2037
▁छू	-2038
▁जि	-2039
▁टप	-2040
▁डे	-2041
▁धु	-2042
▁पव	-2043
▁प्	-2044
▁फर	-2045
▁फी	-2046
▁या	-2047
▁वॉ	-2048
▁सत	-2049
ंत्र	-2050
च्छा	-2051
जुर्	-2052
टबॉल	-2053
ड्डी	-2054
ढ़ाई	-2055
नायो	-2056
न्ने	-2057
रेटर	-2058
स्तु	-2059
ारोह	-2060
ृदंग	-2061
्यूज	-2062
▁आटे	-2063
▁उत्	-2064
▁काग	-2065
▁किन	-2066
▁कुत	-2067
▁क्ल	-2068
▁खोल	-2069
▁गति	-2070
▁गरब	-2071
▁गाए	-2072
▁घास	-2073
▁चिं	-2074
▁चुन	-2075
▁जन्	-2076
▁जमा	-2077
▁जीव	-2078
▁जैस	-2079
▁डाल	-2080
▁दीप	-2081
▁देव	-2082
▁नाव	-2083
▁नेम	-2084
▁पतो	-2085
▁पीस	-2086
▁पेम	-2087
▁प्ल	-2088
▁बगी	-2089
▁बचत	-2090
▁बना	-2091
▁बहत	-2092
▁बाग	-2093
▁बित	-2094
▁बेर	-2095
▁बेल	-2096
▁भंड	-2097
▁भरी	-2098
▁भले	-2099
▁भाव	-2100
▁मज़	-2101
▁मति	-2102
▁महि	-2103
▁मूल	-2104
▁रसी	-2105
▁रिश	-2106
▁रेत	-2107
▁रोम	-2108
▁लगन	-2109
▁व्ह	-2110
▁शहद	-2111
▁शौक	-2112
▁संर	-2113
▁सफ़	-2114
▁सीट	-2115
▁सुह	-2116
▁सूं	-2117
▁स्न	-2118
▁हंस	-2119
▁होन	-2120
ंद्रा	-2121
कार्य	-2122
णायाम	-2123
त्संग	-2124
पोर्ट	-2125
ुपयोग	-2126
्तव्य	-2127
्यादा	-2128
▁अंधे	-2129
▁आतमा	-2130
▁इंजन	-2131
▁करके	-2132
▁काले	-2133
▁केसर	-2134
▁कॉफी	-2135
▁कोमल	-2136
▁खराब	-2137
▁खिलौ	-2138
▁गहरो	-2139
▁गानो	-2140
▁घंटी	-2141
▁चंदन	-2142
▁छोटो	-2143
▁जीरा	-2144
▁टहलन	-2145
▁टीवी	-2146
▁टेबल	-2147
▁ठंडे	-2148
▁डूबन	-2149
▁ढफली	-2150
▁तन्द	-2151
▁ताज़	-2152
▁थारी	-2153
▁दरसन	-2154
▁दाने	-2155
▁नंबर	-2156
▁नहान	-2157
▁नाईं	-2158
▁नाटक	-2159
▁पकान	-2160
▁पड़े	-2161
▁पहिन	-2162
▁फुफी	-2163
▁बनाइ	-2164
▁बेचत	-2165
▁बेहत	-2166
▁भस्म	-2167
▁भेजत	-2168
▁महकत	-2169
▁मांग	-2170
▁मानस	-2171
▁मारु	-2172
▁मुँह	-2173
▁राखन	-2174
▁राखी	-2175
▁राखौ	-2176
▁राहत	-2177
▁रोवत	-2178
▁लगैं	-2179
▁सकति	-2180
▁सरदी	-2181
▁सुनन	-2182
▁सूजन	-2183
▁सोने	-2184
▁हंसी	-2185
▁होली	-2186
जुर्गन	-2187
त्रियन	-2188
ार्मिक	-2189
▁अंगूर	-2190
▁अड्डा	-2191
▁आयोजन	-2192
▁इकट्ठ	-2193
▁इच्छा	-2194
▁उत्सव	-2195
▁कपड़न	-2196
▁कराएं	-2197
▁कविता	-2198
▁किरपा	-2199
▁कुरतो	-2200
▁कोठरी	-2201
▁कोसिस	-2202
▁खेलनो	-2203
▁ग्राह	-2204
▁चीजें	-2205
▁तोड़त	-2206
▁नमकीन	-2207
▁पाउडर	-2208
▁पेड़न	-2209
▁बच्चो	-2210
▁बजावन	-2211
▁बदरान	-2212
▁बनानौ	-2213
▁बुखार	-2214
▁बूंदन	-2215
▁भावना	-2216
▁महंगो	-2217
▁महसूस	-2218
▁मिठास	-2219
▁मिष्ट	-2220
▁मृदंग	-2221
▁मौनता	-2222
▁रस्सी	-2223
▁लगावो	-2224
▁लस्सी	-2225
▁लागति	-2226
▁लोनतो	-2227
▁वस्तु	-2228
▁सजावट	-2229
▁सफलता	-2230
▁सबकों	-2231
▁सब्बै	-2232
▁सुधार	-2233
▁हिरदय	-2234
ुरुस्ती	-2235
▁अलमारी	-2236
▁किरणें	-2237
▁चमकीलो	-2238
▁जाऊंगे	-2239
▁दुखावे	-2240
▁नारंगी	-2241
▁नाश्तो	-2242
▁पढ़ावत	-2243
▁पवित्र	-2244
▁पिकनिक	-2245
▁पेमेंट	-2246
▁फुटबॉल	-2247
▁बजावना	-2248
▁बिलकुल	-2249
▁बैठ्यो	-2250
▁मजेदार	-2251
▁राख्यो	-2252
▁रेडियो	-2253
▁लिख्यो	-2254
▁शिक्षा	-2255
▁सत्संग	-2256
▁समारोह	-2257
▁कर्तव्य	-2258
▁गुड़िया	-2259
▁धार्मिक	-2260
▁निंद्रा	-2261
▁व्यवहार	-2262
▁सदुपयोग	-2263
▁सामग्री	-2264
▁हरियाली	-2265
▁आरामदायक	-2266
▁गृहकार्य	-2267
▁बुजुर्गन	-2268
▁संतुष्टि	-2269
▁संस्कृति	-2270
▁स्त्रियन	-2271
▁प्राणायाम	-2272
▁व्यवस्थित	-2273
▁तन्दुरुस्ती	-2274
कू	-2275
गु	-2276
जो	-2277
ठे	-2278
डो	-2279
णु	-2280
तु	-2281
दू	-2282
पण	-2283
बन	-2284
रव	-2285
षक	-2286
षण	-2287
सथ	-2288
सव	-2289
ेव	-2290
्न	-2291
ंचन	-2292
ंतर	-2293
ंसू	-2294
कित	-2295
चित	-2296
टीए	-2297
ड़ू	-2298
नेस	-2299
न्ह	-2300
बाद	-2301
बुक	-2302
ब्ध	-2303
मली	-2304
माग	-2305
रीर	-2306
र्व	-2307
लाज	-2308
वाव	-2309
विक	-2310
शिश	-2311
सान	-2312
सास	-2313
स्य	-2314
ांस	-2315
ामी	-2316
ायण	-2317
ारन	-2318
ाहर	-2319
ीति	-2320
ेगो	-2321
ेटर	-2322
ेसा	-2323
्टर	-2324
्पी	-2325
्मी	-2326
्रो	-2327
▁अप	-2328
▁उन	-2329
▁एड	-2330
▁एल	-2331
▁कच	-2332
▁गल	-2333
▁चै	-2334
▁जे	-2335
▁झा	-2336
▁पं	-2337
▁फू	-2338
▁मत	-2339
▁यू	-2340
▁री	-2341
▁लू	-2342
▁शो	-2343
▁हट	-2344
ंचाई	-2345
ंपरा	-2346
क्का	-2347
क्सी	-2348
जीरे	-2349
ड़का	-2350
ताका	-2351
द्यो	-2352
पूरा	-2353
प्पल	-2354
फ़िक	-2355
बलता	-2356
राकी	-2357
वारत	-2358
स्टर	-2359
ांति	-2360
िकेट	-2361
ियाँ	-2362
्मेद	-2363
्याय	-2364
्रोल	-2365
▁अगर	-2366
▁अना	-2367
▁अरू	-2368
▁अहं	-2369
▁कंघ	-2370
▁कंब	-2371
▁कोय	-2372
▁खगन	-2373
▁गाइ	-2374
▁गें	-2375
▁गोद	-2376
▁गोल	-2377
▁चुप	-2378
▁जोत	-2379
▁ताप	-2380
▁त्र	-2381
▁धान	-2382
▁धाय	-2383
▁धूर	-2384
▁धोए	-2385
▁नरम	-2386
▁पंप	-2387
▁पकत	-2388
▁परा	-2389
▁पाय	-2390
▁पित	-2391
▁पैर	-2392
▁फिस	-2393
▁बिछ	-2394
▁बीम	-2395
▁भरे	-2396
▁भरो	-2397
▁भार	-2398
▁भोज	-2399
▁मही	-2400
▁माछ	-2401
▁मुर	-2402
▁मोह	-2403
▁रगत	-2404
▁राइ	-2405
▁राज	-2406
▁रेश	-2407
▁लाओ	-2408
▁वटी	-2409
▁संद	-2410
▁सदा	-2411
▁सित	-2412
▁सुआ	-2413
▁सुक	-2414
▁सेब	-2415
▁हास	-2416
ंद्रह	-2417
पूर्ण	-2418
माष्ट	-2419
स्कार	-2420
स्वती	-2421
्वाली	-2422
▁अध्य	-2423
▁आंसू	-2424
▁आत्म	-2425
▁आहार	-2426
▁इमली	-2427
▁इलाज	-2428
▁कच्च	-2429
▁करवा	-2430
▁कांप	-2431
▁कागज	-2432
▁कापी	-2433
▁कारे	-2434
▁किरन	-2435
▁कुर्	-2436
▁खजूर	-2437
▁खड़ी	-2438
▁खायो	-2439
▁खुली	-2440
▁गर्व	-2441
▁गाँव	-2442
▁गायक	-2443
▁गायन	-2444
▁चीजु	-2445
▁छुपि	-2446
▁जानो	-2447
▁टोपी	-2448
▁डारन	-2449
▁तिलक	-2450
▁दुखत	-2451
▁दौड़	-2452
▁नीली	-2453
▁पंखु	-2454
▁पंखे	-2455
▁पंखो	-2456
▁पढ़न	-2457
▁परां	-2458
▁परेस	-2459
▁पर्य	-2460
▁पहले	-2461
▁पिएं	-2462
▁पीलो	-2463
▁प्रो	-2464
▁फेंक	-2465
▁फेरि	-2466
▁बचपन	-2467
▁बनवा	-2468
▁बसंत	-2469
▁बाहर	-2470
▁भारी	-2471
▁मंगल	-2472
▁मेज़	-2473
▁मेलो	-2474
▁रंगो	-2475
▁रुचि	-2476
▁र्यौ	-2477
▁लंबो	-2478
▁लक्ष	-2479
▁लगाओ	-2480
▁लाइट	-2481
▁लिखत	-2482
▁लोरी	-2483
▁वाले	-2484
▁सगरो	-2485
▁सरसर	-2486
▁सराह	-2487
▁सीखी	-2488
▁सुनी	-2489
▁सोलर	-2490
▁होने	-2491
केटिंग	-2492
्तेदार	-2493
▁आत्मा	-2494
▁आदतें	-2495
▁उजालो	-2496
▁करिबौ	-2497
▁कीड़े	-2498
▁कोशिश	-2499
▁क्रॉप	-2500
▁खेलना	-2501
▁गन्ने	-2502
▁चमेली	-2503
▁चांदी	-2504
▁चिंता	-2505
▁चेहरे	-2506
▁जोड़न	-2507
▁डिजिट	-2508
▁तड़का	-2509
▁दिमाग	-2510
▁देखकर	-2511
▁पकावत	-2512
▁पताका	-2513
▁पत्तन	-2514
▁पत्ते	-2515
▁परीछा	-2516
▁परोसत	-2517
▁परोसो	-2518
▁पोंछत	-2519
▁प्राप	-2520
▁बनायो	-2521
▁बुराई	-2522
▁भगावत	-2523
▁भरपूर	-2524
▁रक्षा	-2525
▁लगाएं	-2526
▁लड़के	-2527
▁लहंगो	-2528
▁लोनती	-2529
▁वाद्य	-2530
▁विकास	-2531
▁व्याप	-2532
▁शुद्ध	-2533
▁सबकौं	-2534
▁सवेरे	-2535
▁सहारो	-2536
▁सुनना	-2537
माष्टमी	-2538
वरात्रि	-2539
्मेदारी	-2540
▁इंटरने	-2541
▁करूंगो	-2542
▁कित्यू	-2543
▁कित्यौ	-2544
▁चमकदार	-2545
▁चमकीली	-2546
▁चूल्हो	-2547
▁जनमदिन	-2548
▁जिंदगी	-2549
▁तापमान	-2550
▁तैराकी	-2551
▁दीवारी	-2552
▁दुकानु	-2553
▁दुपहरी	-2554
▁पंद्रह	-2555
▁परंपरा	-2556
▁पिलावत	-2557
▁प्रीति	-2558
▁बीत्यो	-2559
▁मंजीरे	-2560
▁मधुमेह	-2561
▁मेहंदी	-2562
▁मेहमान	-2563
▁म्हारे	-2564
▁संरक्ष	-2565
▁सच्चाई	-2566
▁समाचार	-2567
▁सिंचाई	-2568
▁सिखायो	-2569
▁इस्त्री	-2570
▁कव्वाली	-2571
▁तानपूरा	-2572
▁दुर्गंध	-2573
▁नमस्कार	-2574
▁बिस्वास	-2575
▁मधुमक्ख	-2576
▁सरस्वती	-2577
▁सिलेंडर	-2578
▁सुहावनो	-2579
▁अगरबत्ती	-2580
▁ईमानदारी	-2581
▁गुणवत्ता	-2582
▁ट्रैफ़िक	-2583
▁दुर्बलता	-2584
▁मनावेंगे	-2585
▁स्वच्छता	-2586
▁नकारात्मक	-2587
▁रिश्तेदार	-2588
▁सकारात्मक	-2589
▁जिम्मेदारी	-2590
ंज	-2591
ंव	-2592
इन	-2593
एस	-2594
ओं	-2595
कि	-2596
खे	-2597
गि	-2598
जू	-2599
डल	-2600
णी	-2601
थन	-2602
थि	-2603
थे	-2604
दा	-2605
धक	-2606
धर	-2607
धि	-2608
नक	-2609
नन	-2610
पट	-2611
पल	-2612
बि	-2613
भर	-2614
मय	-2615
रह	-2616
रू	-2617
शम	-2618
शी	-2619
शु	-2620
हन	-2621
हू	-2622
िए	-2623
िप	-2624
ील	-2625
ूफ	-2626
ोट	-2627
ंगल	-2628
ंगौ	-2629
ंडा	-2630
ंधन	-2631
ंधी	-2632
इबौ	-2633
गान	-2634
ग्ध	-2635
जनी	-2636
जलि	-2637
जिक	-2638
जुर	-2639
जोर	-2640
टरी	-2641
टाम	-2642
डमि	-2643
तिन	-2644
दान	-2645
दास	-2646
दूस	-2647
न्य	-2648
पत्	-2649
यास	-2650
रतन	-2651
राज	-2652
रिक	-2653
र्क	-2654
लीफ	-2655
विध	-2656
श्च	-2657
सफर	-2658
सित	-2659
सुथ	-2660
हरा	-2661
हरो	-2662
हिर	-2663
ाइड	-2664
ाथर	-2665
ादि	-2666
ापत	-2667
ाबर	-2668
ायन	-2669
ावा	-2670
िटी	-2671
ीतल	-2672
ूंछ	-2673
ूमत	-2674
ेती	-2675
ेले	-2676
ैंक	-2677
ैंड	-2678
ैंस	-2679
्टी	-2680
्ति	-2681
्रत	-2682
्रॉ	-2683
्ला	-2684
▁अज	-2685
▁आह	-2686
▁उछ	-2687
▁कफ	-2688
▁घो	-2689
▁छा	-2690
▁टॉ	-2691
▁डी	-2692
▁तट	-2693
▁दब	-2694
▁नथ	-2695
▁नर	-2696
▁पौ	-2697
▁बॉ	-2698
▁मच	-2699
▁वै	-2700
▁श्	-2701
▁हफ	-2702
▁हि	-2703
▁हॉ	-2704
ंडित	-2705
गंधा	-2706
चीनी	-2707
ट्टो	-2708
तियन	-2709
दादी	-2710
द्दू	-2711
न्ना	-2712
प्रे	-2713
भूषण	-2714
मवार	-2715
मिठो	-2716
मीठो	-2717
मुखी	-2718
रीबन	-2719
रुवा	-2720
रोधक	-2721
र्बत	-2722
लीला	-2723
वर्क	-2724
वानो	-2725
सिंग	-2726
स्टम	-2727
स्यन	-2728
ाइजर	-2729
ाट्स	-2730
ार्ट	-2731
ावनी	-2732
िटार	-2733
ुदाय	-2734
ूफान	-2735
ैंगे	-2736
ॉलिश	-2737
्यूब	-2738
्यूल	-2739
्रिज	-2740
▁अस्	-2741
▁आंव	-2742
▁आईं	-2743
▁इन्	-2744
▁इले	-2745
▁उठि	-2746
▁एयर	-2747
▁कने	-2748
▁कूद	-2749
▁कूल	-2750
▁केस	-2751
▁कैम	-2752
▁कोई	-2753
▁क्ष	-2754
▁खबर	-2755
▁खाई	-2756
▁खाओ	-2757
▁खास	-2758
▁गलत	-2759
▁गाह	-2760
▁घुल	-2761
▁घोल	-2762
▁चिक	-2763
▁चिल	-2764
▁चेक	-2765
▁जाऊ	-2766
▁जाव	-2767
▁जेठ	-2768
▁जेन	-2769
▁जोग	-2770
▁झुक	-2771
▁झुल	-2772
▁टपक	-2773
▁टाइ	-2774
▁ड्र	-2775
▁दाम	-2776
▁दाह	-2777
▁देन	-2778
▁धुल	-2779
▁धूम	-2780
▁धूल	-2781
▁नईं	-2782
▁नमक	-2783
▁नवा	-2784
▁नाश	-2785
▁नास	-2786
▁नुक	-2787
▁नेट	-2788
▁पकन	-2789
▁पसी	-2790
▁पाइ	-2791
▁पिओ	-2792
▁पिन	-2793
▁बाँ	-2794
▁बिग	-2795
▁बिठ	-2796
▁बैल	-2797
▁ब्ल	-2798
▁भेद	-2799
▁मंड	-2800
▁मधु	-2801
▁माफ	-2802
▁मैच	-2803
▁यूज	-2804
▁रहौ	-2805
▁रास	-2806
▁रिस	-2807
▁लगा	-2808
▁लाई	-2809
▁लून	-2810
▁शंख	-2811
▁शिव	-2812
▁शेव	-2813
▁शोर	-2814
▁सफर	-2815
▁सरग	-2816
▁सोन	-2817
▁स्त	-2818
▁स्थ	-2819
▁हवन	-2820
▁होइ	-2821
टामिन	-2822
दूसरे	-2823
निवार	-2824
न्हीं	-2825
रीवरी	-2826
र्षित	-2827
श्किल	-2828
ारथना	-2829
ुरुआत	-2830
▁अगले	-2831
▁अनार	-2832
▁अवसर	-2833
▁आंधी	-2834
▁आश्च	-2835
▁उचित	-2836
▁उतार	-2837
▁ऊंचो	-2838
▁कंघी	-2839
▁कंबल	-2840
▁कतार	-2841
▁करतो	-2842
▁कष्ट	-2843
▁कारज	-2844
▁कीमत	-2845
▁कैरम	-2846
▁खड़ौ	-2847
▁खयाल	-2848
▁खर्च	-2849
▁खिलत	-2850
▁खींच	-2851
▁खेती	-2852
▁गहरे	-2853
▁गाजर	-2854
▁गावन	-2855
▁गिरी	-2856
▁गुनन	-2857
▁गेंद	-2858
▁घड़ो	-2859
▁चक्र	-2860
▁चादर	-2861
▁चाली	-2862
▁चूड़	-2863
▁जाकै	-2864
▁जागत	-2865
▁जावत	-2866
▁जैसो	-2867
▁जोतत	-2868
▁टपकत	-2869
▁टूटि	-2870
▁टैंक	-2871
▁ट्रक	-2872
▁डेटा	-2873
▁तबले	-2874
▁ताली	-2875
▁दरवा	-2876
▁दाना	-2877
▁दिखे	-2878
▁देखे	-2879
▁देखो	-2880
▁देनी	-2881
▁देने	-2882
▁देवी	-2883
▁धीमे	-2884
▁धुआं	-2885
▁धोने	-2886
▁धोवन	-2887
▁नवास	-2888
▁निर्	-2889
▁नैया	-2890
▁पकड़	-2891
▁पड़ी	-2892
▁पड़ै	-2893
▁पाचन	-2894
▁पातन	-2895
▁पायल	-2896
▁पावत	-2897
▁पावर	-2898
▁पिता	-2899
▁पीछे	-2900
▁पीतो	-2901
▁पीने	-2902
▁पुदी	-2903
▁प्रक	-2904
▁फिसल	-2905
▁बचने	-2906
▁बड़न	-2907
▁बरतन	-2908
▁बालू	-2909
▁बासी	-2910
▁बुरी	-2911
▁बुरो	-2912
▁बैठि	-2913
▁बैठी	-2914
▁भीतर	-2915
▁भूरी	-2916
▁मंतर	-2917
▁मछरी	-2918
▁मनाई	-2919
▁मानो	-2920
▁मिठे	-2921
▁मिला	-2922
▁मुरझ	-2923
▁मूंग	-2924
▁मेंढ	-2925
▁मैलो	-2926
▁यहाँ	-2927
▁रक्त	-2928
▁रखनौ	-2929
▁राखै	-2930
▁राजा	-2931
▁लगाइ	-2932
▁लगाए	-2933
▁लागी	-2934
▁लैकै	-2935
▁लौकी	-2936
▁वापस	-2937
▁वाली	-2938
▁व्रत	-2939
▁सपने	-2940
▁सप्त	-2941
▁सबकी	-2942
▁सलाद	-2943
▁सादो	-2944
▁सूखत	-2945
▁सेवन	-2946
▁सोवत	-2947
▁स्पी	-2948
▁हंसत	-2949
▁हींग	-2950
▁हीटर	-2951
▁होकर	-2952
▁होनी	-2953
कार्यौ	-2954
डमिंटन	-2955
विधियन	-2956
ुदायिक	-2957
▁अखबार	-2958
▁आभूषण	-2959
▁कढ़ाई	-2960
▁कद्दू	-2961
▁कमजोर	-2962
▁कमीज़	-2963
▁क्रीम	-2964
▁खाइबौ	-2965
▁खेलकै	-2966
▁गरीबन	-2967
▁गिटार	-2968
▁चप्पल	-2969
▁चमकते	-2970
▁चुनरी	-2971
▁जलावत	-2972
▁डारके	-2973
▁डिब्ब	-2974
▁तकलीफ	-2975
▁तूफान	-2976
▁दिखाई	-2977
▁दूसरे	-2978
▁न्याय	-2979
▁पंडित	-2980
▁पकाने	-2981
▁पकावन	-2982
▁पकावो	-2983
▁पट्टी	-2984
▁पत्ता	-2985
▁पत्नी	-2986
▁पहिरि	-2987
▁पुलिस	-2988
▁पॉलिश	-2989
▁प्रसि	-2990
▁फुहार	-2991
▁बजाना	-2992
▁बढ़ान	-2993
▁बतावत	-2994
▁बनाना	-2995
▁बराबर	-2996
▁बांटी	-2997
▁बिंदी	-2998
▁बीमार	-2999
▁बुजुर	-3000
▁बेकति	-3001
▁बेहतर	-3002
▁बैंगन	-3003
▁बैठकर	-3004
▁बैठनो	-3005
▁भतीजन	-3006
▁भिंडी	-3007
▁मचावत	-3008
▁मनायो	-3009
▁मसाला	-3010
▁महीने	-3011
▁रख्यो	-3012
▁रसायन	-3013
▁लगायौ	-3014
▁लहरें	-3015
▁विचार	-3016
▁शर्बत	-3017
▁सजावत	-3018
▁सवारी	-3019
▁सहयोग	-3020
▁सुकून	-3021
▁स्नान	-3022
▁स्मरण	-3023
▁हफ्ते	-3024
▁हल्को	-3025
▁अंधकार	-3026
▁अनुसार	-3027
▁अहंकार	-3028
▁इलेक्ट	-3029
▁कबड्डी	-3030
▁कलाकार	-3031
▁कुत्ते	-3032
▁खिलौने	-3033
▁गायिका	-3034
▁चढ़ावन	-3035
▁ज्यादा	-3036
▁टैक्सी	-3037
▁डिजिटल	-3038
▁दीवाली	-3039
▁दुर्गा	-3040
▁निभावत	-3041
▁नुकसान	-3042
▁न्हावै	-3043
▁पिलावो	-3044
▁पुरानो	-3045
▁प्रकार	-3046
▁प्रयास	-3047
▁फिल्टर	-3048
▁बजरुवा	-3049
▁बुझावन	-3050
▁बैठ्यौ	-3051
▁भेदभाव	-3052
▁मानसिक	-3053
▁रंगोली	-3054
▁लगावने	-3055
▁लाग्यौ	-3056
▁वीडियो	-3057
▁व्यस्त	-3058
▁शुरुआत	-3059
▁सदस्यन	-3060
▁सारंगी	-3061
▁सुखावत	-3062
▁सुनाना	-3063
▁सुलावत	-3064
▁सोमवार	-3065
▁स्टैंड	-3066
▁स्प्रे	-3067
▁स्वस्थ	-3068
▁हिलावत	-3069
▁आश्चर्य	-3070
▁इंटरनेट	-3071
▁क्रिकेट	-3072
▁जेनरेटर	-3073
▁डिरीवरी	-3074
▁पौष्टिक	-3075
▁बिस्कुट	-3076
▁मुश्किल	-3077
▁विटामिन	-3078
▁व्यापार	-3079
▁व्हाट्स	-3080
▁समस्यान	-3081
▁खुशबूदार	-3082
▁गुनवत्ता	-3083
▁ट्रैक्टर	-3084
▁दुकानदार	-3085
▁दूरदर्शन	-3086
▁प्रारथना	-3087
▁बैडमिंटन	-3088
▁गतिविधियन	-3089
▁प्रतिरोधक	-3090
▁सामुदायिक	-3091
▁जन्माष्टमी	-3092
▁महत्वपूर्ण	-3093
ँख	-3094
अप	-3095
आन	-3096
कच	-3097
कॉ	-3098
खा	-3099
घट	-3100
चो	-3101
टौ	-3102
धा	-3103
पे	-3104
पै	-3105
मन	-3106
यम	-3107
यु	-3108
रर	-3109
लह	-3110
शक	-3111
शो	-3112
षन	-3113
सो	-3114
हो	-3115
िच	-3116
िण	-3117
ैल	-3118
ॉग	-3119
ौर	-3120
्क	-3121
ंजी	-3122
ंदा	-3123
इयन	-3124
उंट	-3125
कड़	-3126
कता	-3127
काम	-3128
कृत	-3129
गुण	-3130
चरज	-3131
छमी	-3132
जाऊ	-3133
जाम	-3134
टिक	-3135
ट्य	-3136
त्म	-3137
दाई	-3138
दित	-3139
देव	-3140
द्भ	-3141
धनु	-3142
धां	-3143
धाई	-3144
धान	-3145
नाह	-3146
पाई	-3147
पाठ	-3148
पाद	-3149
पान	-3150
पाय	-3151
पित	-3152
पौध	-3153
प्ल	-3154
फोन	-3155
बूज	-3156
ब्द	-3157
भती	-3158
भार	-3159
भोर	-3160
माण	-3161
मित	-3162
मिल	-3163
मेल	-3164
मोल	-3165
रनो	-3166
रनौ	-3167
रूद	-3168
र्ग	-3169
र्ज	-3170
र्त	-3171
लता	-3172
ल्श	-3173
वाल	-3174
शेष	-3175
श्म	-3176
श्र	-3177
ष्ठ	-3178
ष्ण	-3179
संत	-3180
हदी	-3181
हिं	-3182
हित	-3183
हीन	-3184
हैं	-3185
ांड	-3186
ाइल	-3187
ाकु	-3188
ातै	-3189
ाबू	-3190
ावस	-3191
िटु	-3192
िति	-3193
िनी	-3194
िमा	-3195
ीता	-3196
ुति	-3197
ूठी	-3198
ूबर	-3199
ेंच	-3200
ेंस	-3201
ेगी	-3202
ेबी	-3203
ेला	-3204
ेशर	-3205
ेसन	-3206
ोसा	-3207
्तर	-3208
्तो	-3209
्तौ	-3210
्मत	-3211
्वै	-3212
▁आठ	-3213
▁उत	-3214
▁उम	-3215
▁ओस	-3216
▁गम	-3217
▁गौ	-3218
▁चे	-3219
▁जप	-3220
▁डु	-3221
▁ढक	-3222
▁दा	-3223
▁दृ	-3224
▁द्	-3225
▁नै	-3226
▁नौ	-3227
▁पग	-3228
▁पद	-3229
▁भा	-3230
▁मट	-3231
▁शर	-3232
▁शा	-3233
▁शी	-3234
क्कन	-3235
क्रो	-3236
क्शन	-3237
गुलु	-3238
छ्यो	-3239
ज़ें	-3240
जामो	-3241
ज्यौ	-3242
ट्रो	-3243
ड़कत	-3244
ड़कन	-3245
ड्डू	-3246
तरंज	-3247
तुर्	-3248
धवार	-3249
नानी	-3250
निमा	-3251
निया	-3252
नुमा	-3253
पसंद	-3254
पोती	-3255
मर्स	-3256
म्मी	-3257
वाइन	-3258
वावन	-3259
शमूल	-3260
श्मो	-3261
ष्टी	-3262
सफाई	-3263
सवीर	-3264
स्तर	-3265
स्तौ	-3266
हाज़	-3267
ाकुल	-3268
ाग्र	-3269
ानिक	-3270
ायरी	-3271
ावनौ	-3272
ावली	-3273
ित्व	-3274
ित्स	-3275
ुमके	-3276
ुल्ल	-3277
ूंजी	-3278
ूरतन	-3279
ेनिस	-3280
ॉर्म	-3281
ोंके	-3282
ोस्ट	-3283
्वाल	-3284
▁अंक	-3285
▁अभि	-3286
▁अवस	-3287
▁अवा	-3288
▁आँख	-3289
▁आइस	-3290
▁आनो	-3291
▁उगन	-3292
▁उतर	-3293
▁ऊपर	-3294
▁ओढ़	-3295
▁कंप	-3296
▁कन्	-3297
▁कबह	-3298
▁कमल	-3299
▁कुम	-3300
▁कुल	-3301
▁कैल	-3302
▁खरच	-3303
▁खाइ	-3304
▁खुर	-3305
▁गरे	-3306
▁गली	-3307
▁गलो	-3308
▁गान	-3309
▁गिन	-3310
▁गुर	-3311
▁घनो	-3312
▁घूं	-3313
▁चना	-3314
▁चाट	-3315
▁चॉक	-3316
▁चौथ	-3317
▁छान	-3318
▁छिल	-3319
▁छूट	-3320
▁जसन	-3321
▁जाब	-3322
▁जुल	-3323
▁जूस	-3324
▁झां	-3325
▁झूठ	-3326
▁दमा	-3327
▁दाद	-3328
▁दिव	-3329
▁दुआ	-3330
▁धोन	-3331
▁नजर	-3332
▁निय	-3333
▁नोट	-3334
▁पंछ	-3335
▁पछी	-3336
▁पान	-3337
▁पूल	-3338
▁फरी	-3339
▁फर्	-3340
▁फिर	-3341
▁फेस	-3342
▁फैल	-3343
▁बचन	-3344
▁बिस	-3345
▁बैग	-3346
▁भटक	-3347
▁भवि	-3348
▁भों	-3349
▁मंच	-3350
▁मजद	-3351
▁माँ	-3352
▁माइ	-3353
▁मूर	-3354
▁मोग	-3355
▁मोल	-3356
▁यूट	-3357
▁राव	-3358
▁रुप	-3359
▁रेट	-3360
▁लाइ	-3361
▁लेट	-3362
▁लोह	-3363
▁वचन	-3364
▁विन	-3365
▁शहर	-3366
▁शुभ	-3367
▁श्र	-3368
▁संध	-3369
▁सभी	-3370
▁साझ	-3371
▁सात	-3372
▁साल	-3373
▁सुध	-3374
▁सूप	-3375
▁सेट	-3376
▁हते	-3377
▁हुए	-3378
▁हों	-3379
▁होम	-3380
ंपरिक	-3381
कामना	-3382
क्रमण	-3383
गिस्त	-3384
नराइन	-3385
पत्ति	-3386
बहिनी	-3387
माजिक	-3388
म्रता	-3389
लीबॉल	-3390
वर्टर	-3391
स्कान	-3392
स्टिक	-3393
स्वीर	-3394
ांटिक	-3395
ांसफर	-3396
ारायण	-3397
्यवाद	-3398
्यारह	-3399
▁अकाल	-3400
▁अकास	-3401
▁अक्ट	-3402
▁अचरज	-3403
▁अनाज	-3404
▁अनुप	-3405
▁अनुर	-3406
▁आंगन	-3407
▁आपने	-3408
▁उदास	-3409
▁उधार	-3410
▁उम्र	-3411
▁एकता	-3412
▁कंवल	-3413
▁कड़ी	-3414
▁कड़े	-3415
▁कपूर	-3416
▁करतै	-3417
▁कराओ	-3418
▁कहान	-3419
▁काजू	-3420
▁काटन	-3421
▁काटि	-3422
▁काबू	-3423
▁कारण	-3424
▁कारि	-3425
▁कुंड	-3426
▁कूदत	-3427
▁कूलर	-3428
▁केले	-3429
▁क्रॉ	-3430
▁खतरो	-3431
▁खत्म	-3432
▁खरबू	-3433
▁खाएं	-3434
▁खाली	-3435
▁खिंच	-3436
▁खिले	-3437
▁खेली	-3438
▁खोजत	-3439
▁खोदत	-3440
▁खोदन	-3441
▁गंदी	-3442
▁गणेश	-3443
▁गरबा	-3444
▁गिरि	-3445
▁गुग्	-3446
▁गैया	-3447
▁गोबर	-3448
▁चमके	-3449
▁चलने	-3450
▁चलनो	-3451
▁चार्	-3452
▁चिड़	-3453
▁चिता	-3454
▁चिपक	-3455
▁चूसत	-3456
▁चोटी	-3457
▁चौंक	-3458
▁छोटौ	-3459
▁जाति	-3460
▁जीनो	-3461
▁डंडा	-3462
▁डूबि	-3463
▁तनाव	-3464
▁तलने	-3465
▁ताजो	-3466
▁तारी	-3467
▁दवाई	-3468
▁दवाख	-3469
▁दस्त	-3470
▁दिखी	-3471
▁दियौ	-3472
▁दीदी	-3473
▁दुखी	-3474
▁देखौ	-3475
▁द्यो	-3476
▁धूरि	-3477
▁धोवै	-3478
▁नापत	-3479
▁नीरो	-3480
▁नीले	-3481
▁नीलो	-3482
▁पड़ि	-3483
▁पढ़ी	-3484
▁पतंग	-3485
▁पत्थ	-3486
▁परदे	-3487
▁पाइप	-3488
▁पिघर	-3489
▁पिरी	-3490
▁पीकै	-3491
▁पीनो	-3492
▁पीवन	-3493
▁पुरु	-3494
▁पेंट	-3495
▁पैनल	-3496
▁पैरन	-3497
▁पोती	-3498
▁पोषक	-3499
▁प्ले	-3500
▁फीको	-3501
▁फूफा	-3502
▁फूले	-3503
▁फैली	-3504
▁बकरी	-3505
▁बचनो	-3506
▁बचाव	-3507
▁बजकर	-3508
▁बजाई	-3509
▁बड़ी	-3510
▁बड़ौ	-3511
▁बदलत	-3512
▁बधाई	-3513
▁बहाव	-3514
▁बाँध	-3515
▁बाती	-3516
▁बादल	-3517
▁बारह	-3518
▁बारी	-3519
▁बालन	-3520
▁बुआई	-3521
▁बैठक	-3522
▁बोतर	-3523
▁बोतल	-3524
▁भगति	-3525
▁भलाई	-3526
▁भेंट	-3527
▁भैंस	-3528
▁मछली	-3529
▁महान	-3530
▁महिल	-3531
▁माथे	-3532
▁मानी	-3533
▁मारे	-3534
▁मूंछ	-3535
▁मूली	-3536
▁मेथी	-3537
▁रछमी	-3538
▁रानी	-3539
▁रेशम	-3540
▁रोगन	-3541
▁रोसन	-3542
▁लंबे	-3543
▁लगान	-3544
▁लायो	-3545
▁लियौ	-3546
▁लूडो	-3547
▁लेकर	-3548
▁लेनौ	-3549
▁वाटर	-3550
▁विज्	-3551
▁शब्द	-3552
▁संभव	-3553
▁संयम	-3554
▁समझत	-3555
▁समाज	-3556
▁सरगम	-3557
▁सरीर	-3558
▁सर्व	-3559
▁सांप	-3560
▁सिक्	-3561
▁सेंक	-3562
▁सैया	-3563
▁सोवन	-3564
▁स्तर	-3565
▁हरकी	-3566
▁हलवो	-3567
▁हीरे	-3568
▁हैंड	-3569
▁ह्वै	-3570
तुर्थी	-3571
धांजलि	-3572
ब्बारे	-3573
ल्शियम	-3574
िवारिक	-3575
▁अनमोल	-3576
▁अमरूद	-3577
▁अमावस	-3578
▁आंवला	-3579
▁इंद्र	-3580
▁उठानौ	-3581
▁उठ्यौ	-3582
▁उड़ते	-3583
▁उपजाऊ	-3584
▁उपहार	-3585
▁उबारत	-3586
▁उबालत	-3587
▁कड़वो	-3588
▁करावत	-3589
▁करिकै	-3590
▁कह्यौ	-3591
▁काटने	-3592
▁कालीन	-3593
▁कीमती	-3594
▁कूड़ो	-3595
▁कैमरे	-3596
▁कोयलो	-3597
▁खरीदत	-3598
▁खिड़क	-3599
▁खींचत	-3600
▁गार्ड	-3601
▁गाहकु	-3602
▁गिलास	-3603
▁चमकती	-3604
▁चलाना	-3605
▁चल्यो	-3606
▁चश्मो	-3607
▁चारों	-3608
▁चिल्ल	-3609
▁छिड़क	-3610
▁जराकै	-3611
▁जलेबी	-3612
▁जहाज़	-3613
▁जांचत	-3614
▁जागरण	-3615
▁जूड़ो	-3616
▁जैकेट	-3617
▁जैविक	-3618
▁झाड़ू	-3619
▁झुमके	-3620
▁झोंके	-3621
▁टेनिस	-3622
▁डारने	-3623
▁तरबूज	-3624
▁तसवीर	-3625
▁तालाब	-3626
▁तेज़ी	-3627
▁दर्जी	-3628
▁दर्पण	-3629
▁दशमूल	-3630
▁दाढ़ी	-3631
▁देखकै	-3632
▁देखतौ	-3633
▁देखनो	-3634
▁द्वार	-3635
▁धड़कन	-3636
▁नहायो	-3637
▁निकरन	-3638
▁निकलत	-3639
▁निरमल	-3640
▁नैतिक	-3641
▁पंचमी	-3642
▁पकड़त	-3643
▁पक्यो	-3644
▁पगड़ी	-3645
▁पसीनो	-3646
▁पिलाओ	-3647
▁पुन्य	-3648
▁पुलाव	-3649
▁पूंजी	-3650
▁प्रदर	-3651
▁प्रश्	-3652
▁प्रेस	-3653
▁प्लेट	-3654
▁फेंकत	-3655
▁बगीचे	-3656
▁बचावत	-3657
▁बचावन	-3658
▁बच्चा	-3659
▁बत्ती	-3660
▁बनाकै	-3661
▁बनानी	-3662
▁बनावै	-3663
▁बनैबो	-3664
▁बन्यौ	-3665
▁बांधत	-3666
▁बालटी	-3667
▁बुलाओ	-3668
▁बेचैन	-3669
▁बैठकै	-3670
▁भंडार	-3671
▁भक्ति	-3672
▁भर्यौ	-3673
▁भांजे	-3674
▁मक्का	-3675
▁मसारा	-3676
▁महंगौ	-3677
▁माईजी	-3678
▁माननो	-3679
▁मिलकर	-3680
▁म्यूज	-3681
▁यंत्र	-3682
▁रसदार	-3683
▁रसीले	-3684
▁रहैगी	-3685
▁राखनौ	-3686
▁राजमा	-3687
▁रिस्त	-3688
▁रोपाई	-3689
▁लड़की	-3690
▁लड़ाई	-3691
▁लड्डू	-3692
▁विशेष	-3693
▁शतरंज	-3694
▁शिष्य	-3695
▁श्वास	-3696
▁संगति	-3697
▁संतरे	-3698
▁संतरो	-3699
▁संतुल	-3700
▁सजायो	-3701
▁सफ़ेद	-3702
▁सस्तौ	-3703
▁सितार	-3704
▁सिलाई	-3705
▁सींचन	-3706
▁सीखनी	-3707
▁सीढ़ी	-3708
▁सुनने	-3709
▁सूर्य	-3710
▁सेंकत	-3711
▁स्टोर	-3712
▁स्पीड	-3713
▁स्विच	-3714
▁हल्के	-3715
▁हासिल	-3716
गिस्तान	-3717
स्त्रीय	-3718
▁अंगूठी	-3719
▁अंधेरी	-3720
▁अंधेरो	-3721
▁अपनानौ	-3722
▁अपनावत	-3723
▁उत्पाद	-3724
▁उत्साह	-3725
▁उबालकै	-3726
▁करेंगे	-3727
▁कार्डु	-3728
▁किनारे	-3729
▁कुर्सी	-3730
▁ग्यारह	-3731
▁ग्राहक	-3732
▁चलावनो	-3733
▁चालीसा	-3734
▁चीज़ें	-3735
▁चॉकलेट	-3736
▁छिड़कत	-3737
▁जरूरतन	-3738
▁जाऊंगो	-3739
▁तस्वीर	-3740
▁तुमहिं	-3741
▁दरवाजे	-3742
▁दवाइयन	-3743
▁दादाजी	-3744
▁दिलावत	-3745
▁दिल्ली	-3746
▁दुनिया	-3747
▁दोस्तन	-3748
▁नाच्यो	-3749
▁नाश्तौ	-3750
▁निकारी	-3751
▁निकालत	-3752
▁न्हाने	-3753
▁पकावना	-3754
▁पड़्यौ	-3755
▁परांठो	-3756
▁परेसान	-3757
▁परोसने	-3758
▁पहिरना	-3759
▁पिष्टी	-3760
▁पुराने	-3761
▁प्यारी	-3762
▁प्रकाश	-3763
▁प्रकास	-3764
▁फेसबुक	-3765
▁बनावना	-3766
▁बनूंगे	-3767
▁बिक्री	-3768
▁बिचारन	-3769
▁बिछावन	-3770
▁बिजनेस	-3771
▁बिरंगे	-3772
▁बिस्तर	-3773
▁बीमारी	-3774
▁बुद्धि	-3775
▁बुधवार	-3776
▁भतीजिन	-3777
▁भविष्य	-3778
▁मिलाकै	-3779
▁मुसकान	-3780
▁मेंहदी	-3781
▁मेट्रो	-3782
▁लक्ष्य	-3783
▁लगावना	-3784
▁विचारन	-3785
▁शनिवार	-3786
▁संदेसा	-3787
▁संवारत	-3788
▁समुद्र	-3789
▁सुन्यो	-3790
▁सूख्यो	-3791
▁स्टाकु	-3792
▁स्ट्रॉ	-3793
▁अक्टूबर	-3794
▁आकर्षित	-3795
▁ईमानदार	-3796
▁किताबें	-3797
▁ग्राहकन	-3798
▁चतुर्थी	-3799
▁चिकित्स	-3800
▁दालचीनी	-3801
▁धन्यवाद	-3802
▁निकर्यो	-3803
▁निभावनो	-3804
▁नियंत्र	-3805
▁पंखुड़ी	-3806
▁परेशानी	-3807
▁परोस्यो	-3808
▁पहिन्यो	-3809
▁पूरनिमा	-3810
▁पेट्रोल	-3811
▁बनाऊंगे	-3812
▁बुजुरगन	-3813
▁बैंकिंग	-3814
▁माइक्रो	-3815
▁मुस्कान	-3816
▁मेहमानन	-3817
▁यूट्यूब	-3818
▁राखेंगे	-3819
▁रिपोर्ट	-3820
▁वॉलीबॉल	-3821
▁संक्रमण	-3822
▁संरक्षण	-3823
▁सरसराहट	-3824
▁सामाजिक	-3825
▁सुद्धता	-3826
▁स्मार्ट	-3827
▁अध्यात्म	-3828
▁इंद्रधनु	-3829
▁एक्सरसाइ	-3830
▁कैल्शियम	-3831
▁गुग्गुलु	-3832
▁गुब्बारे	-3833
▁चूड़ियाँ	-3834
▁ट्रांसफर	-3835
▁त्यौहारन	-3836
▁नवरात्रि	-3837
▁पर्यावरण	-3838
▁पहुंचावत	-3839
▁पारंपरिक	-3840
▁प्रदर्शन	-3841
▁प्रसिद्ध	-3842
▁प्राप्ति	-3843
▁मधुमक्खी	-3844
▁म्यूजियम	-3845
▁रोमांटिक	-3846
▁विनम्रता	-3847
▁व्हाट्सए	-3848
▁सरधांजलि	-3849
▁सूरजमुखी	-3850
▁स्केटिंग	-3851
▁चित्रकारी	-3852
▁पारिवारिक	-3853
▁रिस्तेदार	-3854
▁रेगिस्तान	-3855
▁शास्त्रीय	-3856
ंभ	-3857
खो	-3858
खौ	-3859
चह	-3860
जय	-3861
जह	-3862
टन	-3863
नै	-3864
फल	-3865
बै	-3866
यं	-3867
ये	-3868
रथ	-3869
रै	-3870
सप	-3871
सौ	-3872
ाउ	-3873
िछ	-3874
िज	-3875
ुअ	-3876
ूथ	-3877
ोय	-3878
ौच	-3879
्फ	-3880
ंकी	-3881
ंचे	-3882
ंवा	-3883
कंद	-3884
करन	-3885
कात	-3886
कुम	-3887
कुर	-3888
खाव	-3889
गति	-3890
गनो	-3891
ग्र	-3892
घात	-3893
चड़	-3894
चनो	-3895
चिस	-3896
जली	-3897
जीर	-3898
जुल	-3899
उर	-3900
गल	-3901
ेब	-3902
ंडर	-3903
ंडो	-3904
गुन	-3905
चाप	-3906
टाव	-3907
टीन	-3908
टुआ	-3909
टें	-3910
ड़फ	-3911
ड्स	-3912
ढनो	-3913
तिह	-3914
तैं	-3915
थिक	-3916
दगी	-3917
दीप	-3918
धना	-3919
धाम	-3920
धीय	-3921
नके	-3922
नमर	-3923
नाइ	-3924
नाक	-3925
नीर	-3926
नेह	-3927
नोर	-3928
पंप	-3929
पनो	-3930
पात	-3931
पास	-3932
पुण	-3933
पुष	-3934
पेट	-3935
फाई	-3936
भीत	-3937
रनन	-3938
रने	-3939
रहम	-3940
राई	-3941
रेट	-3942
रोट	-3943
लाश	-3944
वाई	-3945
वाज	-3946
वाब	-3947
शनर	-3948
श्व	-3949
षाद	-3950
षिक	-3951
संध	-3952
समी	-3953
सीन	-3954
सेन	-3955
हाल	-3956
हुं	-3957
ाँत	-3958
ाइव	-3959
ायत	-3960
ारक	-3961
ारच	-3962
ारौ	-3963
ावौ	-3964
ासन	-3965
ासव	-3966
िकल	-3967
िटर	-3968
ियर	-3969
िलर	-3970
ीले	-3971
ुक्	-3972
ुगत	-3973
ुणा	-3974
ूपी	-3975
ृंग	-3976
ेंज	-3977
ेजौ	-3978
ेलो	-3979
ौंग	-3980
ौली	-3981
्कश	-3982
्रह	-3983
्ले	-3984
्वा	-3985
▁अब	-3986
▁आल	-3987
▁इड	-3988
▁एह	-3989
▁कृ	-3990
▁खट	-3991
▁गऊ	-3992
▁गओ	-3993
▁घट	-3994
▁चु	-3995
▁छप	-3996
▁जइ	-3997
▁ज़	-3998
▁झट	-3999
यत	-4000
या	-4001
ाक	-4002
ोम	-4003
ंटर	-4004
कला	-4005
टकन	-4006
ण्य	-4007
थ्य	-4008
नों	-4009
फिस	-4010
रती	-4011
लोक	-4012
वेव	-4013
िगौ	-4014
ूबस	-4015
ूबी	-4016
ौनक	-4017
्लो	-4018
▁टर	-4019
▁डॉ	-4020
▁तु	-4021
▁थे	-4022
▁दफ	-4023
▁नक	-4024
▁नज	-4025
▁नन	-4026
▁नल	-4027
▁पप	-4028
▁पल	-4029
▁पॉ	-4030
▁फट	-4031
▁फ़	-4032
▁मल	-4033
▁ये	-4034
▁सन	-4035
▁सॉ	-4036
▁हौ	-4037
ँचनो	-4038
ंकलर	-4039
ंतित	-4040
ंदरी	-4041
ंदूर	-4042
कचरो	-4043
किंग	-4044
क्टस	-4045
ख्यौ	-4046
गुणन	-4047
गुने	-4048
गोभी	-4049
घर्ष	-4050
चड़ी	-4051
चिंग	-4052
चौली	-4053
च्छर	-4054
छोटे	-4055
टर्ज	-4056
टाखे	-4057
टाणु	-4058
टिंग	-4059
टीएम	-4060
टीवी	-4061
ड़िन	-4062
ड़ें	-4063
ताओं	-4064
त्री	-4065
थियन	-4066
नाहट	-4067
नेमा	-4068
पटें	-4069
पताल	-4070
पत्र	-4071
पर्क	-4072
पष्ट	-4073
पांव	-4074
पाती	-4075
पोतन	-4076
पौधन	-4077
बानी	-4078
बारक	-4079
बारी	-4080
बेरी	-4081
मदिन	-4082
मिला	-4083
मीठे	-4084
मोरी	-4085
म्यौ	-4086
यंती	-4087
यानी	-4088
यालु	-4089
रावत	-4090
रिया	-4091
रीली	-4092
रुआत	-4093
रोता	-4094
र्जी	-4095
र्यौ	-4096
लाइट	-4097
लाना	-4098
लिंग	-4099
गद	-4100
तौ	-4101
टेर	-4102
बकी	-4103
ल्ल	-4104
सेष	-4105
हरे	-4106
ाटे	-4107
ोरौ	-4108
▁इन	-4109
▁तह	-4110
▁थी	-4111
छोटी	-4112
त्ते	-4113
बूटी	-4114
र्मल	-4115
र्वर	-4116
ल्लू	-4117
वतान	-4118
वर्ट	-4119
वस्थ	-4120
वाणी	-4121
वानी	-4122
वारे	-4123
वारौ	-4124
व्यू	-4125
शलता	-4126
शासन	-4127
श्मा	-4128
षधीय	-4129
ष्ठा	-4130
ष्णु	-4131
सकार	-4132
साला	-4133
सासन	-4134
सियन	-4135
स्ता	-4136
स्थि	-4137
स्से	-4138
हारी	-4139
ांकत	-4140
ांटर	-4141
ाइबर	-4142
ाइवर	-4143
ाउंड	-4144
ादार	-4145
ानास	-4146
ामिल	-4147
ामीण	-4148
ाहित	-4149
िन्न	-4150
ियान	-4151
ुकाम	-4152
ुद्ध	-4153
ुनिक	-4154
ुर्व	-4155
ूल्य	-4156
ूसली	-4157
ेदिक	-4158
ेरित	-4159
ैसलो	-4160
ोल्ल	-4161
ौड़ी	-4162
ौड़े	-4163
्पार	-4164
्याण	-4165
्याल	-4166
्रीय	-4167
्रेस	-4168
्रोत	-4169
्लता	-4170
्लान	-4171
▁अंत	-4172
▁अति	-4173
▁अत्	-4174
▁अनज	-4175
▁अमी	-4176
▁अलग	-4177
▁आंच	-4178
▁आकै	-4179
▁आधा	-4180
▁आधी	-4181
▁आधे	-4182
▁आसा	-4183
▁इरि	-4184
▁उगि	-4185
▁एलई	-4186
▁एलो	-4187
▁एसी	-4188
▁कटन	-4189
▁करब	-4190
▁कलम	-4191
▁कलश	-4192
▁काए	-4193
▁केक	-4194
▁कोप	-4195
▁खड़	-4196
▁गद्	-4197
▁गरज	-4198
▁गरो	-4199
ठन	-4200
गरम	-4201
फिल	-4202
वाथ	-4203
षेक	-4204
िशन	-4205
▁जब	-4206
नेसु	-4207
र्गे	-4208
स्ते	-4209
स्वर	-4210
िलास	-4211
ैक्ट	-4212
▁अगि	-4213
▁ओला	-4214
▁खतर	-4215
▁गलै	-4216
▁गेज	-4217
▁ग्ल	-4218
▁घने	-4219
▁घबर	-4220
▁घाव	-4221
▁घुम	-4222
▁चने	-4223
▁चरत	-4224
▁चर्	-4225
▁चलो	-4226
▁चाह	-4227
▁चोट	-4228
▁चोर	-4229
▁छाए	-4230
▁छात	-4231
▁जपत	-4232
▁जला	-4233
▁जीभ	-4234
▁जुट	-4235
▁जॉग	-4236
▁जोर	-4237
▁जोश	-4238
▁झूम	-4239
▁टिप	-4240
▁टूर	-4241
▁ठिक	-4242
▁ठौर	-4243
▁डेट	-4244
▁तड़	-4245
▁तत्	-4246
▁तवा	-4247
▁तवो	-4248
▁ताऊ	-4249
▁ताय	-4250
▁ताश	-4251
▁तीज	-4252
▁तीस	-4253
▁तौल	-4254
▁दंग	-4255
▁दहन	-4256
▁दहा	-4257
▁दाय	-4258
▁दिए	-4259
▁दिर	-4260
▁दुई	-4261
▁देस	-4262
▁धंध	-4263
▁धुर	-4264
▁धोइ	-4265
▁धोओ	-4266
▁नरक	-4267
▁नवे	-4268
▁नाई	-4269
▁नाग	-4270
▁नील	-4271
▁नेक	-4272
▁पके	-4273
▁पछत	-4274
▁पतन	-4275
▁पति	-4276
▁पशु	-4277
▁पहन	-4278
▁पिछ	-4279
▁पीए	-4280
▁पेन	-4281
▁फहर	-4282
▁फुल	-4283
▁फेफ	-4284
▁फ्र	-4285
▁फ्ल	-4286
▁बंट	-4287
▁बंध	-4288
▁बतख	-4289
▁बसत	-4290
▁बहि	-4291
▁बाव	-4292
▁बिध	-4293
▁बीच	-4294
▁बुद	-4295
▁भूल	-4296
▁भ्र	-4297
▁मटर	-4298
▁मना	-4299
ंसा	-4300
राओ	-4301
िठो	-4302
्ठी	-4303
▁कन	-4304
चानक	-4305
प्रद	-4306
प्रि	-4307
र्दे	-4308
वेरा	-4309
सुरो	-4310
्रिप	-4311
▁किए	-4312
▁छमा	-4313
▁छुह	-4314
▁जाए	-4315
▁ढूँ	-4316
▁तवे	-4317
▁दफ़	-4318
▁नैं	-4319
▁पजल	-4320
▁फलन	-4321
▁महा	-4322
▁मीत	-4323
▁मुझ	-4324
▁मूक	-4325
▁मेज	-4326
▁मोर	-4327
▁रखी	-4328
▁रछा	-4329
▁रिट	-4330
▁रूप	-4331
▁रूम	-4332
▁रेर	-4333
▁रॉक	-4334
▁रोइ	-4335
▁लगो	-4336
▁लार	-4337
▁लिप	-4338
▁लेख	-4339
▁लैव	-4340
▁लौट	-4341
▁वजन	-4342
▁वजह	-4343
▁वाई	-4344
▁वास	-4345
▁वोट	-4346
▁शेड	-4347
▁शोक	-4348
▁श्व	-4349
▁संच	-4350
▁सकै	-4351
▁सहज	-4352
▁सिव	-4353
▁सुल	-4354
▁सेर	-4355
▁सेव	-4356
▁सैर	-4357
▁सोत	-4358
▁हाई	-4359
▁हाल	-4360
▁हुओ	-4361
▁हेड	-4362
▁हॉल	-4363
▁होर	-4364
ंगड़ा	-4365
ंवाड़	-4366
काउंट	-4367
किताब	-4368
कीरतन	-4369
कोड़न	-4370
क्रीम	-4371
क्षाब	-4372
क्षिण	-4373
गाड़ी	-4374
चर्या	-4375
ज़नेस	-4376
टीएमु	-4377
टेंशन	-4378
ड़फड़	-4379
ढ़ियन	-4380
तिकला	-4381
तिहास	-4382
पोतिन	-4383
प्राई	-4384
प्लाई	-4385
फुल्ल	-4386
भांति	-4387
मुग्ध	-4388
म्पिट	-4389
म्मीद	-4390
यरिंग	-4391
र्टिल	-4392
वर्धन	-4393
विवाह	-4394
सुथरो	-4395
हूर्त	-4396
ाइलिश	-4397
ाथरूम	-4398
ारंटी	-4399
ार्वे	-4400
ावनान	-4401
ाह्मी	-4402
िठोली	-4403
ुगतान	-4404
ृद्धि	-4405
ॉपिंग	-4406
ौंकने	-4407
्यारौ	-4408
्यूटर	-4409
्रपान	-4410
्राफी	-4411
्रायौ	-4412
्रियन	-4413
▁अंगो	-4414
▁अखंड	-4415
▁अनाथ	-4416
▁अपरम	-4417
▁अरथी	-4418
▁अश्व	-4419
▁आँखन	-4420
▁आकार	-4421
▁आकास	-4422
▁आक्र	-4423
▁आड़ू	-4424
▁आदतन	-4425
▁आध्य	-4426
▁आवने	-4427
▁इडली	-4428
▁इरिग	-4429
▁उड़द	-4430
▁उपाय	-4431
▁उबरत	-4432
▁उमंग	-4433
▁ऊंची	-4434
▁ओढ़ी	-4435
▁कंगन	-4436
▁कंचे	-4437
▁कंडी	-4438
▁कटवा	-4439
▁कड़ो	-4440
▁कपास	-4441
▁कमीज	-4442
▁कम्प	-4443
▁कराई	-4444
▁कलगी	-4445
▁कलरव	-4446
▁कलाई	-4447
▁कहीं	-4448
▁कहूँ	-4449
▁कांध	-4450
▁काजर	-4451
▁काजल	-4452
▁किचन	-4453
▁किरो	-4454
▁किसम	-4455
▁कुआं	-4456
▁कुएं	-4457
▁केरा	-4458
▁केलो	-4459
▁केवल	-4460
▁केशन	-4461
▁केसन	-4462
▁कैसु	-4463
▁कॉपी	-4464
▁कोनो	-4465
▁कोयल	-4466
▁कौने	-4467
▁खाकै	-4468
▁खारो	-4469
▁खावो	-4470
▁खिला	-4471
▁खुलत	-4472
▁खूबस	-4473
▁खोलत	-4474
▁गणित	-4475
▁गणेस	-4476
▁गरजत	-4477
▁गरदन	-4478
▁गलती	-4479
▁गाकै	-4480
▁गाने	-4481
▁गिआन	-4482
▁गुजर	-4483
▁गूंध	-4484
▁गोभी	-4485
▁गौरव	-4486
▁घंटन	-4487
▁घड़े	-4488
▁घरनी	-4489
▁घूमत	-4490
▁चकित	-4491
▁चढ़त	-4492
▁चरचा	-4493
▁चलना	-4494
▁चहकत	-4495
▁चहचह	-4496
▁चहुं	-4497
▁चाबी	-4498
▁चीकू	-4499
▁चीजन	-4500
▁चेरी	-4501
▁चैनल	-4502
▁छतरी	-4503
▁छनके	-4504
▁छांव	-4505
▁छाती	-4506
▁जंगल	-4507
▁जड़ी	-4508
▁जराई	-4509
▁जराओ	-4510
▁जवाब	-4511
▁जागि	-4512
▁जादा	-4513
▁जाली	-4514
▁जालो	-4515
▁जूही	-4516
▁जैगो	-4517
▁जैसी	-4518
▁जैसौ	-4519
▁जोहत	-4520
▁झरनो	-4521
▁झांझ	-4522
▁झूमत	-4523
▁झूलो	-4524
▁झूलौ	-4525
▁टंकी	-4526
▁टहलत	-4527
▁टाइट	-4528
▁टाइम	-4529
▁टायर	-4530
▁टारच	-4531
▁टिलर	-4532
▁टीका	-4533
▁टूटन	-4534
▁टेली	-4535
▁ट्रे	-4536
▁डरनो	-4537
▁डांस	-4538
▁डारी	-4539
▁डारौ	-4540
▁डूबत	-4541
▁ढोलक	-4542
▁तकिए	-4543
▁ताकत	-4544
▁ताजौ	-4545
▁ताशे	-4546
▁तीखौ	-4547
▁तोरी	-4548
▁दाँत	-4549
▁दूरी	-4550
▁देखै	-4551
▁दौरे	-4552
▁धारा	-4553
▁धुंध	-4554
▁धोती	-4555
▁धोयो	-4556
▁नकरी	-4557
▁नवमी	-4558
▁नहात	-4559
▁नाती	-4560
▁निकल	-4561
▁निचो	-4562
▁नीचे	-4563
▁नुक्	-4564
▁पंखा	-4565
▁पंछी	-4566
▁पक्ष	-4567
▁पटरी	-4568
▁पनीर	-4569
▁पहली	-4570
▁पाँव	-4571
▁पाथर	-4572
▁पापा	-4573
▁पायो	-4574
▁पारन	-4575
▁पीपल	-4576
▁पुसत	-4577
▁पूछत	-4578
▁पोछो	-4579
▁पौधा	-4580
▁प्रण	-4581
▁प्रि	-4582
▁प्लग	-4583
▁फर्श	-4584
▁फर्स	-4585
▁फीके	-4586
▁फैलत	-4587
▁फोड़	-4588
▁फोनु	-4589
▁फ्री	-4590
▁बचें	-4591
▁बजार	-4592
▁बटुआ	-4593
▁बढ़ि	-4594
▁बढ़ौ	-4595
▁बदलि	-4596
▁बनने	-4597
▁बनात	-4598
▁बरगद	-4599
▁बरनन	-4600
▁बाढ़	-4601
▁बापस	-4602
▁बारन	-4603
▁बारे	-4604
▁बिरु	-4605
▁बीमे	-4606
▁बुझत	-4607
▁बेंच	-4608
▁बैठत	-4609
▁बैठो	-4610
▁बोरन	-4611
▁बोलत	-4612
▁बोली	-4613
▁ब्रह	-4614
▁भरके	-4615
▁भागत	-4616
▁भारत	-4617
▁भेजौ	-4618
▁मंगर	-4619
▁मंचन	-4620
▁मंजन	-4621
▁मंडप	-4622
▁मज़ो	-4623
▁मज़ौ	-4624
▁मटकी	-4625
▁मरहम	-4626
▁माँग	-4627
▁मातम	-4628
▁मिलन	-4629
▁मीठे	-4630
▁मूर्	-4631
▁मेला	-4632
▁मैसे	-4633
▁मोजे	-4634
▁मोटर	-4635
▁मोनो	-4636
▁यकृत	-4637
▁यादन	-4638
▁यूपी	-4639
▁यूरो	-4640
▁योगा	-4641
▁रजनी	-4642
▁रहैं	-4643
▁राइस	-4644
▁रावण	-4645
▁रिखौ	-4646
▁रीति	-4647
▁रुकि	-4648
▁रुखन	-4649
▁रेटु	-4650
▁रोगी	-4651
▁रोचक	-4652
▁रोलर	-4653
▁रौनक	-4654
▁लागै	-4655
▁लिपट	-4656
▁लोगन	-4657
▁लोहे	-4658
▁लौंग	-4659
▁वर्ष	-4660
▁वादे	-4661
▁वादो	-4662
▁वायु	-4663
▁वार्	-4664
▁विजय	-4665
▁वैज्	-4666
▁शरबत	-4667
▁शरीर	-4668
▁शीतल	-4669
▁शोभा	-4670
▁श्री	-4671
▁सपनो	-4672
▁सफ़र	-4673
▁सरदा	-4674
▁सरार	-4675
▁सांच	-4676
▁साथै	-4677
▁सिछा	-4678
▁सीटी	-4679
▁सीडी	-4680
▁सीतल	-4681
▁सीता	-4682
▁सीधी	-4683
▁सीसी	-4684
▁सुसथ	-4685
▁सूखन	-4686
▁सूखी	-4687
▁सूखो	-4688
▁सूती	-4689
▁सोयो	-4690
▁सौंफ	-4691
▁हड्ड	-4692
▁हमैं	-4693
▁हॉकी	-4694
▁होती	-4695
▁होनौ	-4696
कीर्तन	-4697
कॉमर्स	-4698
क्रिया	-4699
ग्रस्त	-4700
ज्यादा	-4701
तीक्षा	-4702
द्राएं	-4703
न्नाटो	-4704
पुष्पी	-4705
भतीजिन	-4706
र्णिमा	-4707
वरातरी	-4708
वस्थित	-4709
ाइडिंग	-4710
ात्मिक	-4711
ारिष्ट	-4712
ोल्लास	-4713
▁अंजीर	-4714
▁अंधिय	-4715
▁अकेले	-4716
▁अखरोट	-4717
▁अचानक	-4718
▁अजूबी	-4719
▁अत्तर	-4720
▁अधूरो	-4721
▁अवसेष	-4722
▁असांत	-4723
▁अस्थि	-4724
▁आजादी	-4725
▁आवेगो	-4726
▁आहुति	-4727
▁ईस्वर	-4728
▁उजारो	-4729
▁उत्तर	-4730
▁उबारो	-4731
▁उर्वर	-4732
▁एकेले	-4733
▁एलईडी	-4734
▁एहसास	-4735
▁कच्चे	-4736
▁कड़वे	-4737
▁कबहुं	-4738
▁करानी	-4739
▁करानो	-4740
▁करानौ	-4741
▁करुणा	-4742
▁करेला	-4743
▁करैबो	-4744
▁कर्कश	-4745
▁कह्यो	-4746
▁कांटत	-4747
▁कांदा	-4748
▁कांपत	-4749
▁कार्ट	-4750
▁कितनी	-4751
▁कितनो	-4752
▁किरणन	-4753
▁कीचड़	-4754
▁कीरतन	-4755
▁कुंजी	-4756
▁कुरसी	-4757
▁कैंडल	-4758
▁कैंडी	-4759
▁कोहरो	-4760
▁क्रेड	-4761
▁क्लास	-4762
▁क्वाथ	-4763
▁क्वाल	-4764
▁खवावत	-4765
▁खिन्न	-4766
▁खुजली	-4767
▁ख्यार	-4768
▁ख्याल	-4769
▁गंदगी	-4770
▁गहराई	-4771
▁गाढ़ी	-4772
▁गाढ़ो	-4773
▁गावने	-4774
▁गिलोय	-4775
▁गेम्स	-4776
▁गोल्फ	-4777
▁घूंघट	-4778
▁चमड़ी	-4779
▁चरावत	-4780
▁चर्चा	-4781
▁चल्यौ	-4782
▁चश्मा	-4783
▁चार्ज	-4784
▁चूड़ी	-4785
▁चूड़ो	-4786
▁छिलके	-4787
▁छुट्ट	-4788
▁छोड़न	-4789
▁जइहैं	-4790
▁जगावत	-4791
▁जड़ें	-4792
▁जनवरी	-4793
▁जयंती	-4794
▁जरायो	-4795
▁जलाकै	-4796
▁जागनो	-4797
▁जानवर	-4798
▁जीवंत	-4799
▁जुलूस	-4800
▁टपकने	-4801
▁टहलनो	-4802
▁टाइमर	-4803
▁टॉर्च	-4804
▁ट्रेन	-4805
▁डालतो	-4806
▁डिस्क	-4807
▁डुबकी	-4808
▁डूबने	-4809
▁ड्रिप	-4810
▁ढक्कन	-4811
▁तकियो	-4812
▁तरोता	-4813
▁ताजगी	-4814
▁ताज़ी	-4815
▁तारीफ	-4816
▁तुरसी	-4817
▁त्यार	-4818
▁त्रास	-4819
▁दबावत	-4820
▁दयालु	-4821
▁दिव्य	-4822
▁दोनों	-4823
▁धोइबौ	-4824
▁नवासे	-4825
▁नहावत	-4826
▁नहावन	-4827
▁नाट्य	-4828
▁निकरत	-4829
▁निकरै	-4830
▁निपुण	-4831
▁निबंध	-4832
▁निभाई	-4833
▁निरास	-4834
▁न्यूज	-4835
▁पटाखे	-4836
▁पढ़तो	-4837
▁पत्थर	-4838
▁पत्री	-4839
▁पराठो	-4840
▁पल्लू	-4841
▁पहचान	-4842
▁पहाड़	-4843
▁पहिरब	-4844
▁पीइबौ	-4845
▁पीड़ा	-4846
▁पीढ़ी	-4847
▁पुकार	-4848
▁पुण्य	-4849
▁पूर्व	-4850
▁प्यास	-4851
▁प्रमु	-4852
▁प्लान	-4853
▁फार्म	-4854
▁फिल्म	-4855
▁फैसलो	-4856
▁फ्रिज	-4857
▁फ्रॉक	-4858
▁बगीचा	-4859
▁बजाईं	-4860
▁बजाकै	-4861
▁बज्यो	-4862
▁बदलनो	-4863
▁बनवाओ	-4864
▁बनाकर	-4865
▁बरतनी	-4866
▁बर्फी	-4867
▁बहिकै	-4868
▁बाँधत	-4869
▁बांटन	-4870
▁बाजरा	-4871
▁बावरौ	-4872
▁बाहिर	-4873
▁बिकास	-4874
▁बिगड़	-4875
▁बिजरी	-4876
▁बिनमर	-4877
▁बिभोर	-4878
▁बिरिछ	-4879
▁बिरोध	-4880
▁बिषाद	-4881
▁बैटरी	-4882
▁बॉक्स	-4883
▁बोलना	-4884
▁ब्रेक	-4885
▁भतीजी	-4886
▁मकड़ी	-4887
▁मजदूर	-4888
▁मनाने	-4889
▁मसालो	-4890
▁महफिल	-4891
▁महिमा	-4892
▁मांगत	-4893
▁मांजन	-4894
▁माचिस	-4895
▁मार्ग	-4896
▁माहिर	-4897
▁मिराइ	-4898
▁मुख्य	-4899
▁मुग्ध	-4900
▁मुरझा	-4901
▁मुसकर	-4902
▁मूरति	-4903
▁मूल्य	-4904
▁मूसली	-4905
▁मेंढक	-4906
▁मोहिं	-4907
▁मौसमी	-4908
▁म्लान	-4909
▁म्हसे	-4910
▁रगावत	-4911
▁रगिगौ	-4912
▁रसगुल	-4913
▁रसीलो	-4914
▁राखने	-4915
▁राखें	-4916
▁राष्ट	-4917
▁रुकनो	-4918
▁रुपये	-4919
▁रेशमी	-4920
▁लगानौ	-4921
▁लड़का	-4922
▁लत्ते	-4923
▁लपटें	-4924
▁लहरात	-4925
▁लाइटर	-4926
▁लोनते	-4927
▁विदाई	-4928
▁व्हील	-4929
▁शामिल	-4930
▁शायरी	-4931
▁संबंध	-4932
▁संभाल	-4933
▁सच्चो	-4934
▁सतावत	-4935
▁सबतैं	-4936
▁सबसें	-4937
▁समोसा	-4938
▁सांस्	-4939
▁साइजु	-4940
▁सामने	-4941
▁सामनो	-4942
▁सीखना	-4943
▁सुआसथ	-4944
▁सुनकै	-4945
▁सुननी	-4946
▁सुनार	-4947
▁सॉकेट	-4948
▁सोचनो	-4949
▁स्टॉप	-4950
▁स्रोत	-4951
▁हमेसा	-4952
▁हल्की	-4953
▁हल्कौ	-4954
▁हास्य	-4955
▁होंगे	-4956
कामनाएं	-4957
टर्जेंट	-4958
पायजामो	-4959
▁अजवाइन	-4960
▁अध्ययन	-4961
▁अनानास	-4962
▁अनुराग	-4963
▁अभिषेक	-4964
▁अमूल्य	-4965
▁अम्लता	-4966
▁आधुनिक	-4967
▁आनंदित	-4968
▁आयुर्व	-4969
▁इकट्ठी	-4970
▁इकट्ठे	-4971
▁इतिहास	-4972
▁उछर्यौ	-4973
▁उड़्यो	-4974
▁उतारकै	-4975
▁उबालने	-4976
▁उम्मीद	-4977
▁एकाग्र	-4978
▁एलर्जी	-4979
▁कचौड़ी	-4980
▁करेंसी	-4981
▁करैंगे	-4982
▁कल्याण	-4983
▁कार्यन	-4984
▁किताबन	-4985
▁किनारो	-4986
▁किरायो	-4987
▁कीटाणु	-4988
▁कुत्तो	-4989
▁कुशलता	-4990
▁कैक्टस	-4991
▁खतरनाक	-4992
▁खिचड़ी	-4993
▁खिल्यो	-4994
▁खुबानी	-4995
▁खोद्यो	-4996
▁गंगाजल	-4997
▁गिल्ली	-4998
▁गुणगान	-4999
▁गुनगुन	-5000
▁गुर्दे	-5001
▁गुस्से	-5002
▁घुमावन	-5003
▁चढ़ावत	-5004
▁चांदनी	-5005
▁चारहुं	-5006
▁चिंतित	-5007
▁चीख्यौ	-5008
▁छोड़नो	-5009
▁जलावने	-5010
▁जेठानी	-5011
▁जॉगिंग	-5012
▁झुलायो	-5013
▁ठिकानो	-5014
▁डरावनी	-5015
▁डिजिटर	-5016
▁डिब्बा	-5017
▁डूब्यो	-5018
▁डूब्यौ	-5019
▁ढूँढनो	-5020
▁ताज़गी	-5021
▁तानसेन	-5022
▁तायाजी	-5023
▁तालमेल	-5024
▁दक्षिण	-5025
▁दफ़्तर	-5026
▁दुलहिन	-5027
▁दुलारत	-5028
▁दूल्हो	-5029
▁देखभार	-5030
▁देख्यौ	-5031
▁धनियां	-5032
▁धूमधाम	-5033
▁नवासिन	-5034
▁नहलाना	-5035
▁नाच्यौ	-5036
▁नारियर	-5037
▁निकारत	-5038
▁निर्मल	-5039
▁न्यारौ	-5040
▁पंचायत	-5041
▁पंछियन	-5042
▁पकड़ने	-5043
▁पकौड़े	-5044
▁पछतावा	-5045
▁पड़ेगो	-5046
▁पड़ेगौ	-5047
▁परांठे	-5048
▁पहनायो	-5049
▁पहाड़ी	-5050
▁पहिरीं	-5051
▁पहुंचत	-5052
▁पार्टी	-5053
▁पिताजी	-5054
▁पिलावन	-5055
▁पुदीनो	-5056
▁पुनर्न	-5057
▁पुरानी	-5058
▁पुरुषन	-5059
▁पूछ्यो	-5060
▁पोथियन	-5061
▁प्यारौ	-5062
▁प्रगति	-5063
▁प्रभाव	-5064
▁प्रश्न	-5065
▁प्रस्त	-5066
▁प्रेशर	-5067
▁प्लेटफ	-5068
▁फड़फड़	-5069
▁फर्टिल	-5070
▁फहराने	-5071
▁फेंकनो	-5072
▁बजावनो	-5073
▁बढ़ाने	-5074
▁बढ़ानौ	-5075
▁बढ़ावौ	-5076
▁बढ़्यो	-5077
▁बनवाकै	-5078
▁बनवानो	-5079
▁बनावनो	-5080
▁बर्बाद	-5081
▁बांटकर	-5082
▁बाथरूम	-5083
▁बाल्टी	-5084
▁बिगड़त	-5085
▁बितावत	-5086
▁बिसकुट	-5087
▁बिस्मय	-5088
▁बुलावत	-5089
▁बेसुरो	-5090
▁ब्रांड	-5091
▁भंडारण	-5092
▁भंडारन	-5093
▁भांजिन	-5094
▁भाग्यौ	-5095
▁भावनान	-5096
▁भुगतान	-5097
▁भौंकने	-5098
▁मंगवाव	-5099
▁मतवारौ	-5100
▁मनपसंद	-5101
▁महानता	-5102
▁महिलान	-5103
▁मानसून	-5104
▁मामाजी	-5105
▁मिचौली	-5106
▁मिरिगी	-5107
▁मिरिगौ	-5108
▁मिलावत	-5109
▁मुबारक	-5110
▁मुरझात	-5111
▁मुर्गे	-5112
▁मेंढकन	-5113
▁मेमोरी	-5114
▁मोतियन	-5115
▁रक्षाब	-5116
▁रामायण	-5117
▁रास्ते	-5118
▁रिक्शे	-5119
▁रोमांच	-5120
▁लगाइबौ	-5121
▁लगावनो	-5122
▁लिखावट	-5123
▁विकसित	-5124
▁शिक्षक	-5125
▁संग्रह	-5126
▁संघर्ष	-5127
▁संध्या	-5128
▁संपर्क	-5129
▁संसकार	-5130
▁सप्ताह	-5131
▁सप्राई	-5132
▁सप्लाई	-5133
▁समझायो	-5134
▁समानता	-5135
▁समुंदर	-5136
▁सरसरात	-5137
▁सर्विस	-5138
▁सिंदूर	-5139
▁सिखानौ	-5140
▁सिनेमा	-5141
▁सिस्टम	-5142
▁सुखाने	-5143
▁सुनहरे	-5144
▁सुनहरो	-5145
▁सुरीली	-5146
▁सुरुआत	-5147
▁सेंकना	-5148
▁स्टेशन	-5149
▁स्तब्ध	-5150
▁स्प्रि	-5151
▁स्मृति	-5152
▁स्वर्ग	-5153
▁स्वर्ण	-5154
▁हार्वे	-5155
▁हिमालय	-5156
▁हिम्मत	-5157
▁हिसाबु	-5158
▁अनुशासन	-5159
▁अनुसासन	-5160
▁अपनावनो	-5161
▁अस्पताल	-5162
▁अस्पष्ट	-5163
▁इंतज़ार	-5164
▁उत्पादन	-5165
▁एलोवेरा	-5166
▁कंडीशनर	-5167
▁कनेक्शन	-5168
▁कांप्यो	-5169
▁कांप्यौ	-5170
▁किंवाड़	-5171
▁कीन्हीं	-5172
▁कॉम्पिट	-5173
▁क्रुद्ध	-5174
▁खरीदारी	-5175
▁खुशनुमा	-5176
▁खूबसूरत	-5177
▁गर्ज्यौ	-5178
▁गायत्री	-5179
▁गुनगुने	-5180
▁गुरुवार	-5181
▁ग्रामीण	-5182
▁चढ़ावने	-5183
▁चिड़ियन	-5184
▁छायादार	-5185
▁जन्मदिन	-5186
▁ड्राइवर	-5187
▁दायित्व	-5188
▁दीन्हीं	-5189
▁दीपावली	-5190
▁दुपट्टो	-5191
▁दृष्टिक	-5192
▁देवरानी	-5193
▁दौड़्यौ	-5194
▁धरमसाला	-5195
▁निकारनौ	-5196
▁निकालनो	-5197
▁निर्माण	-5198
▁नुक्कड़	-5199
▁नेटवर्क	-5200
▁पत्तियन	-5201
▁परीक्षा	-5202
▁परेसानी	-5203
▁पहिरावत	-5204
▁पहिरिबे	-5205
▁पहुँचनो	-5206
▁पहुंचनो	-5207
▁पाठशालो	-5208
▁पावेंगे	-5209
▁पुस्तकन	-5210
▁प्राप्त	-5211
▁प्रेरित	-5212
▁प्रोटीन	-5213
▁बढ़ूंगे	-5214
▁बांध्यो	-5215
▁बालियाँ	-5216
▁बिजनेसु	-5217
▁बिज़नेस	-5218
▁बिरयानी	-5219
▁बिस्मित	-5220
▁भांगड़ा	-5221
▁मार्केट	-5222
▁मुहूर्त	-5223
▁मूंगफली	-5224
▁रामलीला	-5225
▁लैवेंडर	-5226
▁वार्षिक	-5227
▁व्यक्ति	-5228
▁शेड्यूल	-5229
▁संतुलित	-5230
▁संपत्ति	-5231
▁संरक्षन	-5232
▁सन्नाटो	-5233
▁समझदारी	-5234
▁समुंदरी	-5235
▁सीखूंगे	-5236
▁हड्डियन	-5237
▁हैंडपंप	-5238
▁होमवर्क	-5239
व्यवस्थित	-5240
▁अपरम्पार	-5241
▁अमावस्या	-5242
▁अश्वगंधा	-5243
▁आइसक्रीम	-5244
▁इंटरव्यू	-5245
▁इन्वर्टर	-5246
▁इलेक्ट्र	-5247
▁कंप्यूटर	-5248
▁कम्पोस्ट	-5249
▁कहानियां	-5250
▁कार्यालय	-5251
▁क्वालिटी	-5252
▁खुसबूदार	-5253
▁चिकित्सा	-5254
▁चिल्लायौ	-5255
▁जात्रियन	-5256
▁त्योहारन	-5257
▁दिनचर्या	-5258
▁धूम्रपान	-5259
▁पंखुड़िन	-5260
▁पड़ोसियन	-5261
▁पार्किंग	-5262
▁पुकार्यौ	-5263
▁पुस्तकें	-5264
▁पूर्णिमा	-5265
▁ब्राह्मी	-5266
▁भलीभांति	-5267
▁मुद्राएं	-5268
▁रजनीगंधा	-5269
▁लिपस्टिक	-5270
▁सीसीटीवी	-5271
▁स्टाइलिश	-5272
▁स्वादहीन	-5273
▁इंद्रधनुष	-5274
▁एक्सटेंशन	-5275
▁एक्सरसाइज	-5276
▁खिड़कियां	-5277
▁डिटर्जेंट	-5278
▁नियंत्रित	-5279
▁प्रतीक्षा	-5280
▁फड़फड़ाहट	-5281
▁मूर्तिकला	-5282
▁रक्षाबंधन	-5283
▁व्हाट्सएप	-5284
▁शंखपुष्पी	-5285
▁आध्यात्मिक	-5286
▁आयुर्वेदिक	-5287
▁फर्टिलाइजर	-5288
▁मंत्रमुग्ध	-5289
▁माइक्रोवेव	-5290
▁मार्केटिंग	-5291
▁सांस्कृतिक	-5292
▁सुभकामनाएं	-5293
▁स्ट्रॉबेरी	-5294
▁स्प्रिंकलर	-5295
▁हर्षोल्लास	-5296
▁हार्वेस्टर	-5297
ंथन	-5298
ंभे	-5299
इया	-5300
कअप	-5301
कूथ	-5302
चैन	-5303
पैर	-5304
फनन	-5305
बकि	-5306
बैग	-5307
मएस	-5308
लहम	-5309
होश	-5310
ाधि	-5311
ाशी	-5312
ीयत	-5313
ुअन	-5314
ुअल	-5315
ूथब	-5316
ेबस	-5317
ैनन	-5318
ैलौ	-5319
ॉइन	-5320
ोपल	-5321
ंजलि	-5322
ंजार	-5323
ंभित	-5324
एमएस	-5325
कचरा	-5326
काता	-5327
किबौ	-5328
क्शो	-5329
खावज	-5330
खेरत	-5331
गरेट	-5332
गलें	-5333
चेंज	-5334
जिकल	-5335
जोरी	-5336
जोशी	-5337
टिशन	-5338
टीएच	-5339
टेरर	-5340
ट्ठी	-5341
डलाइ	-5342
डोकू	-5343
तविक	-5344
थहीन	-5345
नाइज	-5346
नाशक	-5347
नोखो	-5348
नोरॉ	-5349
न्यु	-5350
पन्न	-5351
पीएस	-5352
पेपर	-5353
पेयर	-5354
पैथी	-5355
पौधे	-5356
प्पी	-5357
फरेट	-5358
फ्टर	-5359
बिंद	-5360
बिंब	-5361
बिटु	-5362
भरता	-5363
भूति	-5364
भैंस	-5365
मद्भ	-5366
म्पू	-5367
म्पो	-5368
रवेल	-5369
रेंस	-5370
र्नु	-5371
र्पण	-5372
र्वक	-5373
लब्ध	-5374
लाइड	-5375
लिका	-5376
शहरा	-5377
श्रम	-5378
षाणु	-5379
संधा	-5380
सपति	-5381
सपेश	-5382
सलिए	-5383
सेंस	-5384
हरनौ	-5385
ाघात	-5386
ाटेस	-5387
ालसो	-5388
ावणी	-5389
िंडर	-5390
िज्म	-5391
िणाम	-5392
ुलोम	-5393
ेरकै	-5394
ैलरी	-5395
ैविक	-5396
ॉर्क	-5397
ोहित	-5398
▁अउर	-5399
चकोल	-5400
ौंदो	-5401
▁अणु	-5402
▁कफन	-5403
▁गूग	-5404
▁गूद	-5405
▁चखे	-5406
▁चहक	-5407
▁चुभ	-5408
▁चौद	-5409
▁छील	-5410
▁ज़र	-5411
▁जिद	-5412
▁जेब	-5413
▁डाक	-5414
▁ढकौ	-5415
▁ढाक	-5416
▁ढेर	-5417
▁तलक	-5418
▁थकि	-5419
▁दफन	-5420
▁दया	-5421
▁ननद	-5422
▁पतझ	-5423
▁बॉय	-5424
▁भौच	-5425
▁मतल	-5426
▁मलन	-5427
▁यमन	-5428
▁लपे	-5429
▁वेव	-5430
▁शीघ	-5431
▁सतस	-5432
ंचलता	-5433
ंडदान	-5434
ंवारत	-5435
उंटरु	-5436
कढ़ाई	-5437
कातुर	-5438
किंगु	-5439
खट्टो	-5440
चिंडा	-5441
ज़रनो	-5442
जूदगी	-5443
जैविक	-5444
टीकता	-5445
त्कृत	-5446
दबिंद	-5447
धरासव	-5448
नक्का	-5449
नेटेर	-5450
न्युफ	-5451
पुड़ी	-5452
प्रैल	-5453
बिधान	-5454
ब्यूल	-5455
मच्छर	-5456
मोदित	-5457
रम्मत	-5458
राधना	-5459
रिवाज	-5460
रोसीन	-5461
र्ड्स	-5462
र्पित	-5463
लकाता	-5464
लोकित	-5465
ल्लास	-5466
वांडो	-5467
विपत्	-5468
शोकार	-5469
श्राम	-5470
श्रित	-5471
ष्ठान	-5472
संधान	-5473
सथिति	-5474
सनाहट	-5475
सफरता	-5476
सवारी	-5477
सांति	-5478
स्करन	-5479
हारतौ	-5480
ांकतौ	-5481
ाइंडर	-5482
ानिकन	-5483
ाबाशी	-5484
ामीटर	-5485
ारोपण	-5486
ार्थन	-5487
ाश्रम	-5488
िकेटु	-5489
िक्षन	-5490
िलासी	-5491
ेंद्र	-5492
ेंसिल	-5493
ेरियम	-5494
ेलापन	-5495
ैम्पू	-5496
ॉजिकल	-5497
ौचालय	-5498
्चकोल	-5499
ंभी	-5500
घरू	-5501
भाउ	-5502
भाष	-5503
संक	-5504
ुखी	-5505
ेरर	-5506
ोटु	-5507
कालय	-5508
कैनर	-5509
प्पा	-5510
मोहर	-5511
र्सत	-5512
साखी	-5513
ृप्त	-5514
▁कभी	-5515
▁चैन	-5516
▁सखी	-5517
कुंभी	-5518
गरानी	-5519
गरायौ	-5520
प्रभा	-5521
रसेरर	-5522
सएमएस	-5523
ामुखी	-5524
िटेशन	-5525
ियाघर	-5526
्रगान	-5527
्राइव	-5528
्रेटर	-5529
्रेशर	-5530
्रेसर	-5531
्रेसु	-5532
्लायो	-5533
्लेज़	-5534
्वाहि	-5535
▁अबीर	-5536
▁अवाक	-5537
▁आइगौ	-5538
▁आइयो	-5539
▁आकां	-5540
▁आघात	-5541
▁आतंक	-5542
▁आयरन	-5543
▁आर्ग	-5544
▁आह्ल	-5545
▁इन्व	-5546
▁इन्ह	-5547
▁ईमेल	-5548
▁उंगल	-5549
▁उछरि	-5550
▁उछाव	-5551
▁उतरत	-5552
▁उतरे	-5553
▁उनकौ	-5554
▁उपमो	-5555
▁उफनन	-5556
▁उष्ण	-5557
▁एलपी	-5558
▁ओढ़ै	-5559
▁कचरा	-5560
▁कनेर	-5561
▁कन्फ	-5562
▁कुल्	-5563
▁कृपा	-5564
▁केंच	-5565
▁क्षम	-5566
▁क्षु	-5567
▁क्षे	-5568
▁खटास	-5569
▁खड़ख	-5570
▁खीरा	-5571
▁खीरे	-5572
▁खीरो	-5573
▁खुरद	-5574
▁गमछे	-5575
▁गिरे	-5576
▁गीले	-5577
▁गूगर	-5578
▁गोरौ	-5579
▁गोलू	-5580
▁ग्लू	-5581
▁घटती	-5582
▁घांस	-5583
▁घुलत	-5584
▁घोलो	-5585
▁चप्प	-5586
▁चाउर	-5587
▁चारक	-5588
▁चारू	-5589
▁चुनत	-5590
▁चुभत	-5591
▁चूहन	-5592
▁चेकु	-5593
▁चौथे	-5594
▁चौदस	-5595
▁छापत	-5596
▁छूटु	-5597
▁छूना	-5598
▁छौंक	-5599
हाफ	-5600
ेडु	-5601
चेयर	-5602
ज्जत	-5603
ज्जा	-5604
पीहा	-5605
शीले	-5606
संबर	-5607
ैंपू	-5608
▁असं	-5609
▁आपू	-5610
▁गणप	-5611
▁भैर	-5612
▁यज्	-5613
ट्टम्	-5614
न्यता	-5615
भाविक	-5616
सारित	-5617
स्मार	-5618
ाक्टर	-5619
ायनिक	-5620
ेजेंट	-5621
▁कंबर	-5622
▁कमरब	-5623
▁कुचि	-5624
▁क्ली	-5625
▁खरपत	-5626
▁गुणब	-5627
▁चटाई	-5628
▁चोरन	-5629
▁ज़ेब	-5630
▁झंडो	-5631
▁झटको	-5632
▁झूलत	-5633
▁झूला	-5634
▁टपकन	-5635
▁टर्न	-5636
▁टर्र	-5637
▁टीकौ	-5638
▁टूथब	-5639
▁टैक्	-5640
▁डाइव	-5641
▁डालत	-5642
▁डिमर	-5643
▁डीडी	-5644
▁डॉरर	-5645
▁तमिल	-5646
▁तारन	-5647
▁तितल	-5648
▁तिथि	-5649
▁तीरथ	-5650
▁थायर	-5651
▁थेरु	-5652
▁थोरा	-5653
▁दंगभ	-5654
▁दबान	-5655
▁दरहन	-5656
▁दारू	-5657
▁दोनन	-5658
▁धंधो	-5659
▁धंधौ	-5660
▁धरती	-5661
▁धरमन	-5662
▁धुलत	-5663
▁नकली	-5664
▁नजदी	-5665
▁ननदन	-5666
▁नापी	-5667
▁पंचम	-5668
▁पतरी	-5669
▁पदवी	-5670
▁पपीत	-5671
▁पराठ	-5672
▁पहरै	-5673
▁पाचक	-5674
▁पितर	-5675
▁पीपर	-5676
▁पीसत	-5677
▁पीसि	-5678
▁पूंछ	-5679
▁पेनड	-5680
▁पैम्	-5681
▁पोहा	-5682
▁पोहो	-5683
▁प्लै	-5684
▁फहरा	-5685
▁फूटत	-5686
▁फैलै	-5687
▁फ्लै	-5688
▁बंटव	-5689
▁बंधन	-5690
▁बंधे	-5691
▁बरखा	-5692
▁बर्थ	-5693
▁बर्फ	-5694
▁बागन	-5695
▁बागी	-5696
▁बेला	-5697
▁बॉर्	-5698
▁ब्लड	-5699
गृह	-5700
चरर	-5701
भूत	-5702
्नि	-5703
एसटी	-5704
जिनु	-5705
नीचर	-5706
ब्बल	-5707
ब्बै	-5708
वालौ	-5709
सफिट	-5710
ाइबे	-5711
िभूत	-5712
ुगृह	-5713
▁चखत	-5714
▁तनख	-5715
▁नखत	-5716
▁फेर	-5717
▁रैश	-5718
▁सनि	-5719
क्चरर	-5720
ड़ाही	-5721
पैथिक	-5722
म्यूज	-5723
र्टकट	-5724
ांजिन	-5725
ापड़ा	-5726
ार्नि	-5727
िलेशन	-5728
▁चिंघ	-5729
▁छाले	-5730
▁जाकर	-5731
▁टीचर	-5732
▁टोरी	-5733
▁टोली	-5734
▁तनख्	-5735
▁दर्द	-5736
▁दर्श	-5737
▁धोबी	-5738
▁नेचर	-5739
▁ब्ला	-5740
▁भाषा	-5741
▁भीगि	-5742
▁भूके	-5743
▁भृंग	-5744
▁मंडर	-5745
▁मगरम	-5746
▁मजाक	-5747
▁मतलब	-5748
▁मनमो	-5749
▁मनोर	-5750
▁मलहम	-5751
▁मलाई	-5752
▁मसीन	-5753
▁महाआ	-5754
▁महाश	-5755
▁माछी	-5756
▁मीतन	-5757
▁मुसक	-5758
▁मूरख	-5759
▁मेधा	-5760
▁मेले	-5761
▁यूवी	-5762
▁रसील	-5763
▁राइड	-5764
▁राधा	-5765
▁रिबन	-5766
▁रीटर	-5767
▁रुकव	-5768
▁रेंज	-5769
▁लपेट	-5770
▁लहलह	-5771
▁लीची	-5772
▁लीला	-5773
▁लेखन	-5774
▁लेटि	-5775
▁लौटि	-5776
▁वचनन	-5777
▁वन्य	-5778
▁वसंत	-5779
▁वाणी	-5780
▁वारन	-5781
▁विदा	-5782
▁विशु	-5783
▁वेबस	-5784
▁वॉटर	-5785
▁शराब	-5786
▁शीशो	-5787
▁श्वस	-5788
▁संकट	-5789
▁संचै	-5790
▁संजो	-5791
▁संरछ	-5792
▁सत्व	-5793
▁सद्भ	-5794
▁सनान	-5795
▁सनेह	-5796
▁सब्ज	-5797
▁ससंक	-5798
▁साखा	-5799
केस	-5800
तीय	-5801
देस	-5802
रजन	-5803
ासत	-5804
ितर	-5805
ीरब	-5806
ेजी	-5807
ेतन	-5808
ोरो	-5809
▁टब	-5810
▁फत	-5811
▁यस	-5812
▁सच	-5813
रजनम	-5814
ासेल	-5815
▁असह	-5816
▁उद्	-5817
▁कठप	-5818
▁करव	-5819
▁करा	-5820
▁कैर	-5821
▁जलन	-5822
▁धैर	-5823
▁फतह	-5824
▁मेड	-5825
▁वॉल	-5826
▁सड़	-5827
कतारा	-5828
च्चार	-5829
पलाइन	-5830
ीरबला	-5831
्रेजी	-5832
▁अवसै	-5833
▁आपात	-5834
▁कागद	-5835
▁कैरल	-5836
▁खानी	-5837
▁चारा	-5838
▁जरात	-5839
▁जीती	-5840
▁जूतन	-5841
▁झोरो	-5842
▁तारा	-5843
▁धैरज	-5844
▁रारे	-5845
▁रोटे	-5846
▁लेजी	-5847
▁वेतन	-5848
▁शीशम	-5849
▁साझा	-5850
▁साझी	-5851
▁साझे	-5852
▁सारौ	-5853
▁सालग	-5854
▁सिंक	-5855
▁सुकल	-5856
▁सुधर	-5857
▁सुलझ	-5858
▁सुलह	-5859
▁सेमर	-5860
▁सेरर	-5861
▁सेवु	-5862
▁सोभा	-5863
▁स्नू	-5864
▁हिना	-5865
▁हियर	-5866
▁हिरद	-5867
▁हॉबी	-5868
▁होंठ	-5869
ंट्रोल	-5870
कुमारी	-5871
कुरेसन	-5872
क्सीजन	-5873
गुलेटर	-5874
थेरियम	-5875
दबिंदु	-5876
देवतान	-5877
नराइनु	-5878
नापसंद	-5879
नारायण	-5880
न्युफै	-5881
पायमान	-5882
पूर्वक	-5883
फ़ॉर्म	-5884
भांजिन	-5885
म्यूजम	-5886
राजिता	-5887
रोपैथी	-5888
र्चुअल	-5889
र्तमान	-5890
र्भरता	-5891
लेक्टर	-5892
लेरिया	-5893
ल्चिंग	-5894
ल्डलाइ	-5895
वर्टाइ	-5896
वारिटी	-5897
वासथ्य	-5898
वृद्धि	-5899
कौं	-5900
टकत	-5901
वना	-5902
सफु	-5903
ात्	-5904
ासो	-5905
िना	-5906
िरा	-5907
ेक्	-5908
्टो	-5909
▁छठ	-5910
▁छल	-5911
ंगली	-5912
घिया	-5913
पच्छ	-5914
र्डु	-5915
र्मु	-5916
वायौ	-5917
सफुस	-5918
ांभर	-5919
्याग	-5920
्रास	-5921
्हार	-5922
▁इधर	-5923
▁कॉल	-5924
▁घिर	-5925
▁घों	-5926
▁झील	-5927
▁दाग	-5928
▁धोव	-5929
▁बोझ	-5930
▁रिम	-5931
▁रोष	-5932
न्याद	-5933
फ्रिज	-5934
बित्र	-5935
वर्डु	-5936
सांभर	-5937
हरिया	-5938
िप्टो	-5939
▁अद्भ	-5940
▁खानै	-5941
▁घिरो	-5942
▁घोंघ	-5943
▁छलनी	-5944
▁जातौ	-5945
▁जूसर	-5946
▁टेक्	-5947
▁बेकत	-5948
▁भगात	-5949
▁भटकत	-5950
▁भरयो	-5951
▁भागे	-5952
▁भोरे	-5953
क्खिना	-5954
क्लिंग	-5955
क्षात्	-5956
शुद्धि	-5957
संतप्त	-5958
संवारत	-5959
सारपात	-5960
स्थिति	-5961
ाँघिया	-5962
ाइकिंग	-5963
ाग्राम	-5964
ाभिभूत	-5965
ार्यास	-5966
िंग्वा	-5967
िलमिला	-5968
िशुगृह	-5969
ीयरिंग	-5970
ुदर्शन	-5971
ुल्लड़	-5972
ृहसपति	-5973
ैक्टिस	-5974
ॉर्टकट	-5975
ोपलादि	-5976
्ट्रास	-5977
्रॉनिक	-5978
्लेक्स	-5979
्लेज़र	-5980
्वाहिस	-5981
▁अगिआन	-5982
▁अग्नि	-5983
▁अतिथि	-5984
▁अनुपम	-5985
▁अनोखो	-5986
▁अमीरन	-5987
▁अमीरु	-5988
▁अरपित	-5989
▁अलावा	-5990
▁अवसरन	-5991
▁अवसाद	-5992
▁अवाक्	-5993
▁असंभव	-5994
▁असहाय	-5995
▁आंवलो	-5996
▁आकर्ष	-5997
▁आपातक	-5998
▁आपूर्	-5999
ज़े	-6000
जिल	-6001
णिप	-6002
मति	-6003
सलो	-6004
ाज़	-6005
िसी	-6006
ोरि	-6007
▁इर	-6008
▁टा	-6009
▁शत	-6010
डिसी	-6011
भास्	-6012
रावन	-6013
ृच्छ	-6014
ैंसन	-6015
्राश	-6016
▁एक्	-6017
▁कनक	-6018
▁पज़	-6019
▁पीठ	-6020
▁राई	-6021
▁विल	-6022
▁समो	-6023
जावनो	-6024
णभास्	-6025
त्रास	-6026
प्राश	-6027
मर्सि	-6028
्वारे	-6029
▁इराद	-6030
▁कलछी	-6031
▁घोरि	-6032
▁जागन	-6033
▁तुमस	-6034
▁निकौ	-6035
▁पज़ल	-6036
▁पासै	-6037
▁बचकर	-6038
▁भरकै	-6039
▁भरनौ	-6040
▁मणिप	-6041
▁रोजग	-6042
▁लंगो	-6043
▁लेवै	-6044
▁शताव	-6045
▁संतु	-6046
▁सकूल	-6047
▁होड़	-6048
क्षगान	-6049
टावेटर	-6050
वणभास्	-6051
व्वारे	-6052
▁आफ्टर	-6053
▁आरथिक	-6054
▁आलस्य	-6055
▁आवेगी	-6056
▁आवैगी	-6057
▁आसक्त	-6058
▁आसपास	-6059
▁इन्वे	-6060
▁इम्पो	-6061
▁इरादो	-6062
▁उगिबे	-6063
▁उजाले	-6064
▁उतारत	-6065
▁उधारु	-6066
▁उपाधि	-6067
▁एक्वे	-6068
▁एटीएम	-6069
▁एरिया	-6070
▁ओडिसी	-6071
▁ओढ़कै	-6072
▁ओढ़नी	-6073
▁कंकड़	-6074
▁कच्ची	-6075
▁कटवाइ	-6076
▁कठपुत	-6077
▁कड़कत	-6078
▁कड़वी	-6079
▁कबहूं	-6080
▁करवाई	-6081
▁करवाव	-6082
▁कराटे	-6083
▁करेलो	-6084
▁कर्मच	-6085
▁कस्टम	-6086
▁कांधे	-6087
▁कांधो	-6088
▁काटतै	-6089
▁किड्स	-6090
▁किस्म	-6091
▁कुंडल	-6092
▁कुकुर	-6093
▁कुपित	-6094
▁कूड़ा	-6095
▁कूड़े	-6096
▁कूदना	-6097
▁कृत्र	-6098
▁केंचु	-6099
ॉर	-6100
गुर	-6101
णेस	-6102
तीत	-6103
मुर	-6104
ल्य	-6105
साद	-6106
ादर	-6107
ुरे	-6108
ुसी	-6109
ेरो	-6110
ैंट	-6111
ोभी	-6112
खुसी	-6113
गणेस	-6114
बुरे	-6115
मुँह	-6116
वाली	-6117
शिंग	-6118
▁उल्	-6119
▁काय	-6120
▁कोच	-6121
▁खोद	-6122
▁चाब	-6123
▁चाल	-6124
▁जाद	-6125
▁परम	-6126
▁परो	-6127
▁फ़ो	-6128
▁फुर	-6129
▁माय	-6130
▁रिय	-6131
बिभोर	-6132
सवर्ड	-6133
ागोभी	-6134
ाय्यो	-6135
्रसाद	-6136
▁अतीत	-6137
▁उगने	-6138
▁उल्क	-6139
▁कामय	-6140
▁काया	-6141
▁जादू	-6142
▁जूता	-6143
▁डालन	-6144
▁नोटु	-6145
▁परोप	-6146
▁पैंट	-6147
▁बराह	-6148
▁बिजय	-6149
▁बिवे	-6150
▁रियल	-6151
▁रोतौ	-6152
▁शल्य	-6153
▁सिंग	-6154
तागोभी	-6155
▁अकासग	-6156
▁अनादर	-6157
▁कैम्प	-6158
▁कोहरा	-6159
▁क्लेम	-6160
▁खजानो	-6161
▁खरीदी	-6162
▁खिंची	-6163
▁खींची	-6164
▁खुरति	-6165
▁खुरनै	-6166
▁खोजनी	-6167
▁खोदतै	-6168
▁खोदनो	-6169
▁खोलनौ	-6170
▁गणपति	-6171
▁गद्दो	-6172
▁गरजकर	-6173
▁गाहकन	-6174
▁गियान	-6175
▁गिरीं	-6176
▁गुड्ड	-6177
▁गूंथन	-6178
▁गूंधत	-6179
▁गूगरु	-6180
▁गेंदे	-6181
▁गैलरी	-6182
▁गोदाम	-6183
▁घोड़ी	-6184
▁चंद्र	-6185
▁चक्कर	-6186
▁चप्पर	-6187
▁चरवाह	-6188
▁चरितर	-6189
▁चलाकै	-6190
▁चलातै	-6191
▁चलावै	-6192
▁चाशनी	-6193
▁चुकान	-6194
▁चुपके	-6195
▁चौंकि	-6196
▁चौड़ी	-6197
▁चौथाई	-6198
▁छप्यो	-6199
उच	-6200
नु	-6201
चूर	-6202
जने	-6203
ढ़ा	-6204
शने	-6205
साक	-6206
काकी	-6207
ख्यो	-6208
चकित	-6209
नापन	-6210
मानी	-6211
ांती	-6212
ानीय	-6213
▁अजी	-6214
▁कवर	-6215
▁कहर	-6216
▁कौन	-6217
▁गरु	-6218
▁तने	-6219
▁बोओ	-6220
▁रिल	-6221
▁रेह	-6222
ईमानी	-6223
क्सनु	-6224
ड़्यो	-6225
शनेबल	-6226
सुथरी	-6227
िक्कत	-6228
्यारी	-6229
▁अजीब	-6230
▁ईंधन	-6231
▁उनकै	-6232
▁जरदी	-6233
▁धोनौ	-6234
▁बचनौ	-6235
▁बरफी	-6236
▁बसतु	-6237
▁रिले	-6238
▁समात	-6239
▁हुयो	-6240
उचक्कन	-6241
द्वारे	-6242
▁अरमान	-6243
▁आमचूर	-6244
▁उजारी	-6245
▁एकाकी	-6246
▁कहरवा	-6247
▁काढ़ा	-6248
▁कैमरा	-6249
▁खोजने	-6250
▁गरुड़	-6251
▁गुनाह	-6252
▁घोड़े	-6253
▁चख्यो	-6254
▁चैत्र	-6255
▁छात्र	-6256
▁छिलको	-6257
▁जर्यो	-6258
▁जाइबे	-6259
▁जागतौ	-6260
▁जाड़े	-6261
▁जीतनो	-6262
▁जुकाम	-6263
▁जुड़त	-6264
▁जुवान	-6265
▁जोततै	-6266
▁जोहतौ	-6267
▁ज्वाल	-6268
▁झांकी	-6269
▁झुकाए	-6270
▁झुकाओ	-6271
▁झूलना	-6272
▁टरस्ट	-6273
▁टर्नओ	-6274
▁टहरनौ	-6275
▁टांगो	-6276
▁टैक्स	-6277
▁ट्यूब	-6278
▁डब्बल	-6279
▁डायरी	-6280
▁डालकै	-6281
▁डालने	-6282
▁डुबाइ	-6283
▁डेस्क	-6284
▁ड्रिल	-6285
▁ढक्यो	-6286
▁तड़पत	-6287
▁तत्वन	-6288
▁तनावा	-6289
▁तबीयत	-6290
▁तलैया	-6291
▁ताज़े	-6292
▁ताज़ौ	-6293
▁तारमे	-6294
▁तौलिए	-6295
▁त्याग	-6296
▁त्रिक	-6297
▁थापित	-6298
▁दफ्तर	-6299
कों	-6300
ठली	-6301
नीय	-6302
बेल	-6303
यूर	-6304
साय	-6305
ांठ	-6306
ूंढ	-6307
ूसा	-6308
ोंच	-6309
▁घा	-6310
▁घृ	-6311
▁धत	-6312
▁बौ	-6313
वातै	-6314
सनीय	-6315
ाग्ल	-6316
ूंढन	-6317
्याऊ	-6318
▁आगु	-6319
▁एकस	-6320
▁कैथ	-6321
▁घृत	-6322
▁तीर	-6323
▁नमा	-6324
▁नेल	-6325
▁बौछ	-6326
▁लोब	-6327
▁वर्	-6328
▁सद्	-6329
▁हर्	-6330
टनाशक	-6331
वसनीय	-6332
ांठें	-6333
ेजड़ी	-6334
्याऊं	-6335
▁असरी	-6336
▁उड़ी	-6337
▁कक्ष	-6338
▁कैथो	-6339
▁कैसौ	-6340
▁गरती	-6341
▁घाटी	-6342
▁चिकन	-6343
▁चैरि	-6344
▁चोंच	-6345
▁जीतत	-6346
▁दिवस	-6347
▁धतूर	-6348
▁नमाज	-6349
▁बहाए	-6350
▁भरतै	-6351
▁भूसा	-6352
▁मयूर	-6353
▁मिजा	-6354
▁मिनी	-6355
▁सूखि	-6356
▁हिया	-6357
▁हुयौ	-6358
▁होति	-6359
ंडक्टर	-6360
बेलिया	-6361
मकोड़न	-6362
ांडिया	-6363
ाराष्ट	-6364
▁अवाज़	-6365
▁उठाने	-6366
▁एकसाथ	-6367
▁खवातै	-6368
▁गुठली	-6369
▁ढूंढन	-6370
▁दबाकै	-6371
▁दशहरा	-6372
▁दारें	-6373
▁दुबकि	-6374
▁दुल्ह	-6375
▁देखिए	-6376
▁देवता	-6377
▁धतूरा	-6378
▁धुलाई	-6379
▁नक्शो	-6380
▁नजदीक	-6381
▁नरकूप	-6382
▁नवासन	-6383
▁नवासा	-6384
▁नशीले	-6385
▁नहराओ	-6386
▁नारदी	-6387
▁निरनै	-6388
▁नेकले	-6389
▁नोट्स	-6390
▁पंछिन	-6391
▁पखावज	-6392
▁पड़ति	-6393
▁पतझड़	-6394
▁पतोहू	-6395
▁पत्तर	-6396
▁पपीता	-6397
▁पपीतो	-6398
▁पपीहा	-6399
हक	-6400
ोण	-6401
ोत	-6402
ंबन	-6403
जनक	-6404
ठार	-6405
फिर	-6406
भरे	-6407
रीन	-6408
ुता	-6409
ुरो	-6410
▁नू	-6411
ंकित	-6412
क्सर	-6413
जीरा	-6414
द्या	-6415
लंबन	-6416
ाबन्	-6417
ुताई	-6418
▁उंग	-6419
▁देह	-6420
▁नूड	-6421
▁पना	-6422
▁परब	-6423
▁परस	-6424
▁पुत	-6425
▁पैक	-6426
▁फाव	-6427
▁बंग	-6428
▁मिट	-6429
▁मित	-6430
▁सीध	-6431
कुठार	-6432
निहाल	-6433
फिरने	-6434
ारुता	-6435
ावतार	-6436
▁आवति	-6437
▁आवनो	-6438
▁उठकर	-6439
▁कपोत	-6440
▁छुरी	-6441
▁जहरी	-6442
▁जानौ	-6443
▁झारो	-6444
▁ठंडौ	-6445
▁थैलौ	-6446
▁बंजी	-6447
▁बेचै	-6448
▁बैंड	-6449
▁राइट	-6450
▁सीधौ	-6451
यारुता	-6452
र्डिंग	-6453
स्ट्रि	-6454
ाबन्दी	-6455
ावलंबन	-6456
▁उंगरी	-6457
▁उतरनो	-6458
▁कच्चौ	-6459
▁जुताई	-6460
▁दर्पन	-6461
▁निकले	-6462
▁निराई	-6463
▁नूडल्	-6464
▁परलोक	-6465
▁परसों	-6466
▁पराठा	-6467
▁पराठे	-6468
▁पसुअन	-6469
▁पहनाई	-6470
▁पहनें	-6471
▁पहियन	-6472
▁पहेली	-6473
▁पाउंड	-6474
▁पार्ट	-6475
▁पिकअप	-6476
▁पिछले	-6477
▁पिछलो	-6478
▁पित्त	-6479
▁पुतरा	-6480
▁पुरुष	-6481
▁पूजनी	-6482
▁पेपैर	-6483
▁पोंगल	-6484
▁पोंछे	-6485
▁पोतिन	-6486
▁पोसाक	-6487
▁प्रदू	-6488
▁प्रसव	-6489
▁प्रात	-6490
▁प्रान	-6491
▁फरवरी	-6492
▁फ़ोटो	-6493
▁फाउंड	-6494
▁फालसो	-6495
▁फिसलन	-6496
▁फिसलप	-6497
▁फिसलि	-6498
▁फुराए	-6499
ादक	-6500
ाबी	-6501
ालु	-6502
्पन	-6503
▁घन	-6504
चाजी	-6505
ादित	-6506
्विज	-6507
▁गाल	-6508
▁घनव	-6509
▁घाट	-6510
▁चाक	-6511
▁जूल	-6512
▁तपन	-6513
▁दयो	-6514
▁दाई	-6515
▁नगर	-6516
▁नमी	-6517
▁भात	-6518
▁साँ	-6519
▁साग	-6520
▁साह	-6521
▁सुई	-6522
▁सुद	-6523
जुलकर	-6524
नुमाई	-6525
बट्टो	-6526
ारीसा	-6527
ित्ति	-6528
▁अपनन	-6529
▁अर्ज	-6530
▁इंजी	-6531
▁करते	-6532
▁चोरी	-6533
▁छुपी	-6534
▁जराइ	-6535
▁पकने	-6536
▁प्रे	-6537
▁भरबे	-6538
▁मादक	-6539
▁संगम	-6540
▁संधा	-6541
▁सन्न	-6542
▁समझि	-6543
▁सवाल	-6544
▁साँझ	-6545
▁सारे	-6546
▁साहस	-6547
ंडक्शन	-6548
काउंटु	-6549
द्धालु	-6550
्हादित	-6551
▁इंजीन	-6552
▁उबालो	-6553
▁कच्चो	-6554
▁क्विज	-6555
▁गद्दे	-6556
▁घनवटी	-6557
▁पसंदी	-6558
▁फेरिस	-6559
▁फॉर्म	-6560
▁फोटोग	-6561
▁बगीचो	-6562
▁बतायौ	-6563
▁बतावो	-6564
▁बदरनौ	-6565
▁बनवाई	-6566
▁बनवाव	-6567
▁बर्फ़	-6568
▁बाइबर	-6569
▁बिठाइ	-6570
▁बिताए	-6571
▁बिताओ	-6572
▁बिदाई	-6573
▁बिधवा	-6574
▁बिधान	-6575
▁बिरार	-6576
▁बिवेक	-6577
▁बुनाई	-6578
▁बुलाइ	-6579
▁बृच्छ	-6580
▁बेतार	-6581
▁बेहाल	-6582
▁बॉयलर	-6583
▁बोरने	-6584
▁ब्रेड	-6585
▁ब्रॉक	-6586
▁ब्लूट	-6587
▁ब्लॉक	-6588
▁ब्लॉग	-6589
▁भटकाव	-6590
▁भयभीत	-6591
▁भरतना	-6592
▁भरिकै	-6593
▁भरोसो	-6594
▁भांति	-6595
▁भावुक	-6596
▁भिगोइ	-6597
▁भीगनो	-6598
▁भैंसन	-6599
एल	-6600
झत	-6601
थत	-6602
दम	-6603
ैष	-6604
जरा	-6605
झान	-6606
ड़ु	-6607
तिश	-6608
फएल	-6609
रणा	-6610
वाओ	-6611
वात	-6612
ाड़	-6613
ानु	-6614
ाबो	-6615
ुड़	-6616
ूमे	-6617
ेसि	-6618
ैषी	-6619
्रश	-6620
एफएल	-6621
गराज	-6622
तिशब	-6623
दड़ु	-6624
राबो	-6625
ुरुप	-6626
ूँथत	-6627
▁किश	-6628
▁कोउ	-6629
▁चयन	-6630
▁चलै	-6631
▁चिर	-6632
▁डजन	-6633
▁ताइ	-6634
▁दोप	-6635
▁फिट	-6636
▁मुह	-6637
▁मेन	-6638
▁वॉश	-6639
▁संभ	-6640
ँवारत	-6641
देवतन	-6642
रूकता	-6643
शराबो	-6644
ुरियन	-6645
ेसिपी	-6646
▁एकदम	-6647
▁करैं	-6648
▁किशम	-6649
▁खुरी	-6650
▁घुड़	-6651
▁घूमे	-6652
▁जूझत	-6653
▁डोसा	-6654
▁तलाश	-6655
▁तलास	-6656
▁दीवो	-6657
▁फाड़	-6658
▁बचाओ	-6659
▁बदबू	-6660
▁मारत	-6661
▁सीवै	-6662
▁सुखद	-6663
ार्टअप	-6664
▁आतिशब	-6665
▁कपड़ा	-6666
▁गूँथत	-6667
▁छुटकन	-6668
▁ताइक्	-6669
▁दुरुप	-6670
▁दोपहर	-6671
▁पकानौ	-6672
▁पड़वा	-6673
▁भिगोत	-6674
▁भीड़ै	-6675
▁मंगलस	-6676
▁मंजिल	-6677
▁मच्छर	-6678
▁मदिरा	-6679
▁मशीनन	-6680
▁मस्ती	-6681
▁महकती	-6682
▁महकते	-6683
▁महीनो	-6684
▁माँगत	-6685
▁मायको	-6686
▁मारदन	-6687
▁मारिक	-6688
▁मास्क	-6689
▁मिजाज	-6690
▁मितरन	-6691
▁मिरके	-6692
▁मिराओ	-6693
▁मिलनो	-6694
▁मुदित	-6695
▁मुराद	-6696
▁मुहल्	-6697
▁मूंगो	-6698
▁मेकअप	-6699
तल	-6700
फर	-6701
मण	-6702
ूत	-6703
खून	-6704
वां	-6705
हेज	-6706
ेकर	-6707
▁फँ	-6708
टेजी	-6709
ड़ात	-6710
निधि	-6711
हतूत	-6712
▁कैश	-6713
▁छार	-6714
▁ट्व	-6715
▁फँस	-6716
▁बरब	-6717
▁राऊ	-6718
▁सजी	-6719
▁सवा	-6720
च्छरन	-6721
ड़ाने	-6722
म्पोल	-6723
ैटेजी	-6724
▁अकड़	-6725
▁अगली	-6726
▁क्यू	-6727
▁गवार	-6728
▁गाके	-6729
▁चाकू	-6730
▁ट्वि	-6731
▁दहेज	-6732
▁पैसौ	-6733
▁प्रॉ	-6734
▁महाप	-6735
▁रखने	-6736
▁राऊं	-6737
▁समतल	-6738
▁सुने	-6739
▁सुपा	-6740
▁सोसर	-6741
▁होमु	-6742
ाइसिंग	-6743
▁आँखें	-6744
▁आंखैं	-6745
▁कुवां	-6746
▁कैशोर	-6747
▁क्यूआ	-6748
▁खिलाई	-6749
▁चहकनो	-6750
▁जम्यो	-6751
▁जीवने	-6752
▁दर्शक	-6753
▁देखना	-6754
▁धोवनो	-6755
▁नाखून	-6756
▁पूड़ी	-6757
▁पूड़े	-6758
▁प्रॉफ	-6759
▁बरबटी	-6760
▁भ्रमण	-6761
▁मनोरं	-6762
▁मेज़प	-6763
▁मैसेज	-6764
▁मोगरे	-6765
▁मोगरो	-6766
▁मोच्छ	-6767
▁मोज़े	-6768
▁मोनोप	-6769
▁मोहल्	-6770
▁यूपीआ	-6771
▁रगवाव	-6772
▁रम्मी	-6773
▁रसीलौ	-6774
▁रहिगौ	-6775
▁रहिबौ	-6776
▁रहेगो	-6777
▁राखनै	-6778
▁राखैं	-6779
▁रामफल	-6780
▁रिटेर	-6781
▁रिवाज	-6782
▁रिसते	-6783
▁रिसाव	-6784
▁रीतैं	-6785
▁रुझान	-6786
▁रूमार	-6787
▁रैकेट	-6788
▁लंगोट	-6789
▁लगवाई	-6790
▁लगाकर	-6791
▁लगैबो	-6792
▁लग्यो	-6793
▁लद्यो	-6794
▁लपेटत	-6795
▁लालटे	-6796
▁लिखनो	-6797
▁लिहाफ	-6798
▁लुकाम	-6799
तू	-6800
दु	-6801
नभ	-6802
उधर	-6803
जनन	-6804
तली	-6805
ताओ	-6806
सती	-6807
ुमा	-6808
ूची	-6809
ूनन	-6810
▁आओ	-6811
▁गी	-6812
▁जई	-6813
▁तप	-6814
▁फस	-6815
▁मफ	-6816
▁लई	-6817
कॉपी	-6818
घटना	-6819
च्ची	-6820
डूची	-6821
रिगौ	-6822
वाणु	-6823
शर्ट	-6824
सुमा	-6825
ेड़ा	-6826
ैंकौ	-6827
ोसित	-6828
्वित	-6829
▁अमे	-6830
▁आदत	-6831
▁चहल	-6832
▁चेन	-6833
▁फूं	-6834
▁बला	-6835
▁भनभ	-6836
▁मेघ	-6837
▁रूट	-6838
▁लेइ	-6839
▁वॉक	-6840
च्चीस	-6841
ुम्बा	-6842
▁खावत	-6843
▁गीजर	-6844
▁छानि	-6845
▁तेरह	-6846
▁नकदु	-6847
▁पहरौ	-6848
▁पीले	-6849
▁फसरन	-6850
▁बताओ	-6851
▁भूनन	-6852
▁मफलर	-6853
▁मारी	-6854
▁रस्क	-6855
▁रोयौ	-6856
▁लड़त	-6857
▁लावन	-6858
▁विधि	-6859
सुमाकर	-6860
ान्वित	-6861
▁अमेज़	-6862
▁उड़ती	-6863
▁कछुवो	-6864
▁केतली	-6865
▁खर्चो	-6866
▁चरिगौ	-6867
▁जात्य	-6868
▁तारीख	-6869
▁नजारो	-6870
▁पारतू	-6871
▁फैंकौ	-6872
▁रिमोट	-6873
▁लेनदे	-6874
▁वर्मी	-6875
▁वर्षा	-6876
▁विजयी	-6877
▁विलास	-6878
▁विलोम	-6879
▁वैक्स	-6880
▁शिविर	-6881
▁शीघ्र	-6882
▁शुक्र	-6883
▁श्रीर	-6884
▁श्लोक	-6885
▁श्वेत	-6886
▁संगठन	-6887
▁संतूर	-6888
▁संदेश	-6889
▁संदेस	-6890
▁संभार	-6891
▁संसार	-6892
▁सतब्ध	-6893
▁सतसंग	-6894
▁सफ़ाई	-6895
▁सबेरो	-6896
▁समझने	-6897
▁समभाव	-6898
▁समातौ	-6899
चत	-6900
आनी	-6901
जार	-6902
बूर	-6903
मंच	-6904
िसम	-6905
ूरे	-6906
चावर	-6907
चियन	-6908
टकाए	-6909
दाना	-6910
बूरौ	-6911
सोचत	-6912
ायरा	-6913
ाहुन	-6914
िरकन	-6915
िसमस	-6916
ुप्र	-6917
ेंटु	-6918
▁अरघ	-6919
▁आरस	-6920
▁कोड	-6921
▁जलत	-6922
▁धुन	-6923
▁निव	-6924
शायरा	-6925
ेंटरी	-6926
्पक्ष	-6927
▁उन्न	-6928
▁कबूर	-6929
▁काली	-6930
▁कोडु	-6931
▁खेले	-6932
▁गिनत	-6933
▁छुपे	-6934
▁नीची	-6935
▁बनकर	-6936
▁बनाऊ	-6937
▁बहती	-6938
▁बिधि	-6939
▁भड़क	-6940
▁भव्य	-6941
▁मेड़	-6942
▁सीडर	-6943
▁सोचत	-6944
▁हजार	-6945
▁हारत	-6946
नोरॉजी	-6947
बूदाना	-6948
ष्पक्ष	-6949
▁अधूरे	-6950
▁उन्नत	-6951
▁कन्फ़	-6952
▁गरारे	-6953
▁घोंघो	-6954
▁चूल्ह	-6955
▁डुप्र	-6956
▁थिरकन	-6957
▁देखने	-6958
▁निवास	-6959
▁निवेस	-6960
▁पाहुन	-6961
▁बच्ची	-6962
▁बबूरौ	-6963
▁बेचैं	-6964
▁महंगी	-6965
▁महायो	-6966
▁मुकति	-6967
▁रगावन	-6968
▁रेंटु	-6969
▁लटकाए	-6970
▁सफरता	-6971
▁समापन	-6972
▁सर्वध	-6973
▁सलवार	-6974
▁सहतूत	-6975
▁सहमति	-6976
▁सहानु	-6977
▁सहेली	-6978
▁सांचे	-6979
▁सात्व	-6980
▁साधना	-6981
▁सीखनौ	-6982
▁सीटें	-6983
▁सीमित	-6984
▁सुआगत	-6985
▁सुखमय	-6986
▁सुखाइ	-6987
▁सुच्छ	-6988
▁सुनाइ	-6989
▁सुन्न	-6990
▁सुपाच	-6991
▁सेंटर	-6992
▁सेवैं	-6993
▁सेहरा	-6994
▁सैंडल	-6995
▁सैवाल	-6996
▁सोकेस	-6997
▁सोचतौ	-6998
▁स्टार	-6999
फे	-7000
वॉ	-7001
ेप	-7002
ैह	-7003
गौन	-7004
टेक	-7005
णम्	-7006
पुन	-7007
वॉच	-7008
ारि	-7009
ालक	-7010
ेप्	-7011
ेरा	-7012
ौंध	-7013
▁खग	-7014
▁भौ	-7015
▁लॉ	-7016
वादि	-7017
ैहौं	-7018
▁अरग	-7019
▁असो	-7020
▁गपस	-7021
▁दूं	-7022
▁पती	-7023
▁मथि	-7024
▁मीड	-7025
▁रें	-7026
▁सुथ	-7027
▁सेम	-7028
भावना	-7029
ेप्शन	-7030
▁अधयन	-7031
▁असोक	-7032
▁उगाओ	-7033
▁ओणम्	-7034
▁कीवी	-7035
▁क्रम	-7036
▁गपसप	-7037
▁गीता	-7038
▁चौंध	-7039
▁जलवा	-7040
▁जुडो	-7041
▁झूले	-7042
▁ठेरा	-7043
▁तेजप	-7044
▁दुखद	-7045
▁पाको	-7046
▁पालक	-7047
▁फैलो	-7048
▁राखब	-7049
▁लायौ	-7050
▁लेवल	-7051
▁लॉसु	-7052
▁सोफे	-7053
▁हस्त	-7054
▁इज्जत	-7055
▁उबारि	-7056
▁कराना	-7057
▁खैहौं	-7058
▁गुरार	-7059
▁जाननी	-7060
▁जीवनी	-7061
▁तृप्त	-7062
▁तैरते	-7063
▁तोड़न	-7064
▁पतीलो	-7065
▁प्रोड	-7066
▁फेंटे	-7067
▁बचाना	-7068
▁बरसाई	-7069
▁भौतिक	-7070
▁मंगनी	-7071
▁रेंगत	-7072
▁सफेदा	-7073
▁सागौन	-7074
▁सुथरे	-7075
▁सेंसर	-7076
▁स्टॉर	-7077
▁स्थान	-7078
▁स्नेह	-7079
▁हंसनो	-7080
▁हटावत	-7081
▁हट्यो	-7082
▁हड्डी	-7083
▁हर्बल	-7084
▁हस्तश	-7085
▁हस्ता	-7086
▁हांकत	-7087
▁हाईवे	-7088
▁हानिक	-7089
▁हिरदै	-7090
▁हिस्ट	-7091
▁हॉर्न	-7092
▁होंठन	-7093
▁हौसलो	-7094
ंट्रेटर	-7095
कसंतप्त	-7096
त्साहित	-7097
दवृद्धि	-7098
देवताओं	-7099
ंघ	-7100
टल	-7101
ंघा	-7102
उज़	-7103
लकत	-7104
लिक	-7105
▁जह	-7106
▁पच	-7107
▁फॉ	-7108
क्षन	-7109
गड़े	-7110
ृष्ण	-7111
्यूट	-7112
▁अटल	-7113
▁उठो	-7114
▁कर्	-7115
▁काउ	-7116
▁कॉन	-7117
▁चला	-7118
▁छूत	-7119
▁झनक	-7120
▁डोल	-7121
▁तरफ	-7122
▁देश	-7123
▁नंब	-7124
▁रक्	-7125
▁सजो	-7126
कृष्ण	-7127
ुप्पी	-7128
▁करतब	-7129
▁कहां	-7130
▁कांई	-7131
▁खानौ	-7132
▁गायत	-7133
▁जहाज	-7134
▁झलकत	-7135
▁डोलत	-7136
▁तुवर	-7137
▁दिशा	-7138
▁दीपन	-7139
▁धुरत	-7140
▁पचने	-7141
▁पाने	-7142
▁फॉलो	-7143
▁बिल्	-7144
▁लोटो	-7145
▁सरबत	-7146
▁सरस्	-7147
ंघाड़े	-7148
छुप्पी	-7149
तविकता	-7150
▁आमलेट	-7151
▁उगादी	-7152
▁कर्जा	-7153
▁कामना	-7154
▁किराए	-7155
▁कॉन्ट	-7156
▁झगड़े	-7157
▁झनकाए	-7158
▁तत्पर	-7159
▁तुवरक	-7160
▁दौरान	-7161
▁नंबरु	-7162
▁न्यूट	-7163
▁पत्तो	-7164
▁पुन्न	-7165
▁बप्पा	-7166
▁बायाम	-7167
▁माहौर	-7168
▁मिलने	-7169
▁रक्छा	-7170
▁समोसे	-7171
▁सुखाए	-7172
▁सोचने	-7173
नाइजेसन	-7174
न्यादान	-7175
प्लांटर	-7176
फकार्यौ	-7177
फुल्लित	-7178
बित्रता	-7179
यरिंग्स	-7180
रोच्चार	-7181
लब्धियन	-7182
ल्डलाइफ	-7183
वनप्राश	-7184
वर्टाइज	-7185
सपेशियन	-7186
सफुसायो	-7187
स्टमेंट	-7188
ार्निवल	-7189
ार्यासव	-7190
ासेलिंग	-7191
ेबलाइजर	-7192
्पीटिशन	-7193
्योरेंस	-7194
्रीसिंग	-7195
्रैटेजी	-7196
▁अंकलेट	-7197
▁अंगोछे	-7198
▁अंगोछो	-7199
नफ	-7200
षय	-7201
जाक	-7202
डका	-7203
बान	-7204
ादश	-7205
ेलर	-7206
▁हृ	-7207
करात	-7208
जनान	-7209
ड़ाई	-7210
मजाक	-7211
विधी	-7212
स्टु	-7213
ाइकर	-7214
ावले	-7215
्मेल	-7216
▁च्य	-7217
▁जैत	-7218
▁दें	-7219
▁बदर	-7220
▁मगन	-7221
▁मोछ	-7222
▁लाए	-7223
▁शिल	-7224
चप्पल	-7225
नफायर	-7226
साइकर	-7227
सुथरे	-7228
ादशमी	-7229
ावलेह	-7230
्मेलन	-7231
▁आईडी	-7232
▁उजली	-7233
▁कमाव	-7234
▁केरो	-7235
▁खोलै	-7236
▁चबान	-7237
▁छूवत	-7238
▁जलाए	-7239
▁तारो	-7240
▁धोकर	-7241
▁पंचर	-7242
▁बनकै	-7243
▁राखि	-7244
▁विषय	-7245
▁सिलै	-7246
▁सीपी	-7247
▁हमसे	-7248
▁हृदय	-7249
▁हैंग	-7250
ंस्करन	-7251
डकास्ट	-7252
▁करवाब	-7253
▁कीड़न	-7254
▁कूदनो	-7255
▁जैतून	-7256
▁टकरात	-7257
▁ट्रैप	-7258
▁मदहोश	-7259
▁मालिक	-7260
▁शिलाज	-7261
▁सबतें	-7262
▁सुआरथ	-7263
न्त्रास	-7264
विधीकरन	-7265
▁अकाउंट	-7266
▁अखंडता	-7267
▁अच्छाई	-7268
▁अनुबंध	-7269
▁अनुलोम	-7270
▁अन्याय	-7271
▁अपनाने	-7272
▁अप्रैल	-7273
▁अभिमान	-7274
▁अभियान	-7275
▁अमेज़न	-7276
▁अरथहीन	-7277
▁अरार्म	-7278
▁अर्जुन	-7279
▁अर्पित	-7280
▁अविपत्	-7281
▁असफरता	-7282
▁असांति	-7283
▁आत्मनि	-7284
▁आत्मवि	-7285
▁आयेंगे	-7286
▁आराधना	-7287
▁आलोकित	-7288
▁आसंकित	-7289
▁इकट्ठा	-7290
▁इकट्ठौ	-7291
▁उठूंगो	-7292
▁उतरिकै	-7293
▁उमंगित	-7294
▁उर्वरक	-7295
▁उल्लास	-7296
▁एकतारा	-7297
▁एक्वेर	-7298
▁एटीएमु	-7299
ँआ	-7300
झि	-7301
मत	-7302
लभ	-7303
जुक	-7304
तरो	-7305
तवन	-7306
नती	-7307
लोन	-7308
शाम	-7309
िसन	-7310
▁ईद	-7311
▁घि	-7312
▁मई	-7313
▁यै	-7314
▁लत	-7315
तिकर	-7316
प्यौ	-7317
समझि	-7318
सरजन	-7319
्यता	-7320
▁उगत	-7321
▁कलह	-7322
▁घनी	-7323
▁पिय	-7324
▁मकर	-7325
▁मसी	-7326
▁वित	-7327
कोतरो	-7328
मन्ना	-7329
लोनतो	-7330
ीदारी	-7331
▁ऊंचे	-7332
▁कुँआ	-7333
▁क्री	-7334
▁घिरे	-7335
▁दतवन	-7336
▁देबे	-7337
▁नारी	-7338
▁फेरी	-7339
▁बजतो	-7340
▁बरकत	-7341
▁बर्ड	-7342
▁बिकत	-7343
▁बोने	-7344
▁भाईच	-7345
▁मसीह	-7346
▁रहना	-7347
▁रहमत	-7348
▁सिवर	-7349
▁सीखे	-7350
▁कानून	-7351
▁क्रौध	-7352
▁गरिमा	-7353
▁गर्भव	-7354
▁दहाड़	-7355
▁नाजुक	-7356
▁फैक्स	-7357
▁मांगे	-7358
▁वितरण	-7359
▁सजावो	-7360
▁सेवान	-7361
▁हार्ड	-7362
मर्सिबल	-7363
म्पोलिन	-7364
▁आवाज़न	-7365
▁उतर्यौ	-7366
▁एलपीजी	-7367
▁एसएमएस	-7368
▁कंबाइन	-7369
▁कटवावन	-7370
▁कड़ाही	-7371
▁कनकासव	-7372
▁कन्यान	-7373
▁कमजोरी	-7374
▁कमरबंद	-7375
▁करवानी	-7376
▁करवायो	-7377
▁करवावत	-7378
▁करौंदो	-7379
▁कांपतौ	-7380
▁काउंटर	-7381
▁कारपेट	-7382
▁कारीगर	-7383
▁किनारी	-7384
▁किरनें	-7385
▁किशमिश	-7386
▁किसमिस	-7387
▁कुमकुम	-7388
▁कुरमुर	-7389
▁कुर्ता	-7390
▁कुर्तो	-7391
▁कुल्फी	-7392
▁कुल्ला	-7393
▁कुल्लो	-7394
▁कूद्यो	-7395
▁केंचुआ	-7396
▁कैलकुल	-7397
▁कोमलता	-7398
▁कोस्टर	-7399
ठी	-7400
ीप	-7401
न्व	-7402
मिक	-7403
रोत	-7404
िंड	-7405
ैरौ	-7406
ौती	-7407
▁कस	-7408
▁दल	-7409
▁मर	-7410
▁लु	-7411
▁सक	-7412
▁सख	-7413
▁हं	-7414
▁हे	-7415
ंदरू	-7416
ापति	-7417
्वीप	-7418
▁असम	-7419
▁कयो	-7420
▁तजन	-7421
▁दरी	-7422
▁परत	-7423
▁बाई	-7424
▁हटा	-7425
ंगीठी	-7426
न्वंत	-7427
पियां	-7428
मुटाव	-7429
ाएंगे	-7430
ाथमिक	-7431
ापिंड	-7432
▁एकाद	-7433
▁कसरत	-7434
▁खेलन	-7435
▁गूगल	-7436
▁जलाओ	-7437
▁त्रि	-7438
▁थैरौ	-7439
▁थोरी	-7440
▁थोरौ	-7441
▁धोनो	-7442
▁नेकी	-7443
▁परवर	-7444
▁पॉरि	-7445
▁बीमौ	-7446
▁सकतो	-7447
▁सख्त	-7448
▁हंसे	-7449
▁हेयर	-7450
▁हैरत	-7451
त्रस्त	-7452
र्रायौ	-7453
▁अकेलो	-7454
▁कटौती	-7455
▁गरजना	-7456
▁ग्यान	-7457
▁त्रिफ	-7458
▁दलिया	-7459
▁द्वीप	-7460
▁बरबाद	-7461
▁बांधी	-7462
▁बिलिय	-7463
▁भिगोओ	-7464
▁मसारे	-7465
▁मिलैं	-7466
▁मोगरा	-7467
▁लगावन	-7468
▁लावनो	-7469
▁लुहार	-7470
▁लौटनो	-7471
▁सोचनी	-7472
न्वंतरम	-7473
माणपत्र	-7474
▁अंगीठी	-7475
▁असमिया	-7476
▁आकर्षक	-7477
▁एकादसी	-7478
▁कुंदरू	-7479
▁क्रीमी	-7480
▁क्लीनर	-7481
▁क्षमता	-7482
▁खड़िया	-7483
▁खरबूजा	-7484
▁खरबूजे	-7485
▁खरबूजो	-7486
▁खिंचाव	-7487
▁खिलौनन	-7488
▁खिलौना	-7489
▁खुलावत	-7490
▁खुल्यो	-7491
▁खुल्यौ	-7492
▁गरज्यौ	-7493
▁गरमाहट	-7494
▁गर्जना	-7495
▁गायतरी	-7496
▁गारंटी	-7497
▁गार्डन	-7498
▁गुजरने	-7499
ड़ि	-7500
लम्	-7501
वनी	-7502
शार	-7503
ह्व	-7504
िला	-7505
▁अच	-7506
▁गै	-7507
▁छऊ	-7508
▁नख	-7509
ंट्स	-7510
कलम्	-7511
ड़कै	-7512
यलेट	-7513
ह्वल	-7514
▁आनौ	-7515
▁करम	-7516
▁कीर	-7517
▁चेस	-7518
▁झड़	-7519
▁टैग	-7520
▁तिर	-7521
▁पतर	-7522
▁लीन	-7523
▁ल्य	-7524
▁स्क	-7525
एंट्स	-7526
कियां	-7527
जीवनी	-7528
र्मिन	-7529
िलाषा	-7530
्यूसन	-7531
▁इतें	-7532
▁उनके	-7533
▁खैबो	-7534
▁गूंज	-7535
▁चूना	-7536
▁चैनर	-7537
▁चौकी	-7538
▁तिरक	-7539
▁देना	-7540
▁देबो	-7541
▁नैनन	-7542
▁फाइल	-7543
▁बननो	-7544
▁रुकी	-7545
▁सजाए	-7546
▁हरवा	-7547
ब्यूसन	-7548
र्मिनल	-7549
्यांगन	-7550
▁अचंभे	-7551
▁अच्छा	-7552
▁अहसास	-7553
▁उगाने	-7554
▁उड़ान	-7555
▁उद्वि	-7556
▁करिबी	-7557
▁कीरति	-7558
▁क्लॉक	-7559
▁ज्वार	-7560
▁डारनौ	-7561
▁तोड़ि	-7562
▁पसीने	-7563
▁बाजरौ	-7564
▁भांजन	-7565
▁मंडली	-7566
▁ल्याओ	-7567
▁विशार	-7568
▁स्कूब	-7569
▁हलवाई	-7570
▁हैंडर	-7571
िसकियां	-7572
▁अपनानो	-7573
▁करवानो	-7574
▁गुड़हर	-7575
▁गुडूची	-7576
▁गुड्डी	-7577
▁गुलकंद	-7578
▁गुल्ली	-7579
▁गेजिंग	-7580
▁ग्रंथन	-7581
▁ग्राफी	-7582
▁ग्लूको	-7583
▁चंचलता	-7584
▁चकोतरो	-7585
▁चमक्यो	-7586
▁चरवाहा	-7587
▁चरित्र	-7588
▁चलावना	-7589
▁चाचाजी	-7590
▁चाबियन	-7591
▁चारकोल	-7592
▁चारीसा	-7593
▁चार्जु	-7594
▁चुकानो	-7595
▁चुन्यो	-7596
▁चुपचाप	-7597
▁चूम्यौ	-7598
▁चूल्हा	-7599
ंदे	-7600
ताई	-7601
मेघ	-7602
ोमि	-7603
▁ओठ	-7604
▁जौ	-7605
▁सथ	-7606
कीज़	-7607
बद्ध	-7608
राकै	-7609
र्यो	-7610
स्के	-7611
▁ईमे	-7612
▁कही	-7613
▁घोष	-7614
▁चरच	-7615
▁छकन	-7616
▁जंक	-7617
▁जें	-7618
▁जेल	-7619
▁नें	-7620
▁फटत	-7621
▁भूक	-7622
▁भोग	-7623
▁मकै	-7624
▁रेन	-7625
▁वैक	-7626
▁शेक	-7627
टेदार	-7628
तनपान	-7629
बादाम	-7630
ल्लाह	-7631
स्केप	-7632
ोमिनो	-7633
▁आंतर	-7634
▁उमिर	-7635
▁कटहल	-7636
▁कॉटन	-7637
▁खेलब	-7638
▁जताई	-7639
▁तैरे	-7640
▁दानो	-7641
▁नीयत	-7642
▁पंखन	-7643
▁पकाओ	-7644
▁पूजी	-7645
▁बिसे	-7646
▁भाइन	-7647
▁सथान	-7648
▁होकै	-7649
▁ईमेरु	-7650
▁कांदे	-7651
▁घोषणा	-7652
▁चराकै	-7653
▁जेंगा	-7654
▁झाड़त	-7655
▁निकरी	-7656
▁पकड़न	-7657
▁पकानो	-7658
▁पढ़ना	-7659
▁पन्ने	-7660
▁पापड़	-7661
▁बरसने	-7662
▁बिसेस	-7663
▁भूकंप	-7664
▁रिस्क	-7665
▁लगाना	-7666
▁सरकार	-7667
▁अनुपात	-7668
▁अल्लाह	-7669
▁अशोकार	-7670
▁आंतरिक	-7671
▁एस्केप	-7672
▁कारमेघ	-7673
▁कुकीज़	-7674
▁खुदवाओ	-7675
▁खेजड़ी	-7676
▁घूंघरू	-7677
▁चैरिटी	-7678
▁छात्रा	-7679
▁छिड़कौ	-7680
▁छुट्टे	-7681
▁छुप्पन	-7682
▁छुहारे	-7683
▁छोड़नी	-7684
▁छोड़ने	-7685
▁छोड़ें	-7686
▁जनरेटर	-7687
▁जलवायु	-7688
▁जहरीरो	-7689
▁ज़रूरत	-7690
▁जाऊंगौ	-7691
▁जानवरन	-7692
▁जावेगो	-7693
▁जीएसटी	-7694
▁जीत्यो	-7695
▁जीपीएस	-7696
▁जीवाणु	-7697
▁जुम्बा	-7698
▁ज्वाइन	-7699
जि	-7700
कमी	-7701
चना	-7702
जिद	-7703
त्थ	-7704
ाइम	-7705
ाबे	-7706
िमट	-7707
ृता	-7708
ौलत	-7709
▁आऊ	-7710
त्थक	-7711
फिंग	-7712
मामी	-7713
ेंसु	-7714
▁अहि	-7715
▁आयल	-7716
▁टोल	-7717
▁दुइ	-7718
▁नसन	-7719
▁पसु	-7720
▁बाइ	-7721
▁भैय	-7722
कमीज़	-7723
ाइम्ब	-7724
िमटिम	-7725
▁अभिन	-7726
▁इमान	-7727
▁उड़े	-7728
▁कराह	-7729
▁खटाई	-7730
▁खाबे	-7731
▁खौलत	-7732
▁गड्ढ	-7733
▁तुरई	-7734
▁दुसम	-7735
▁देखी	-7736
▁देसी	-7737
▁पलटत	-7738
▁पैकु	-7739
▁फैलि	-7740
▁बदले	-7741
▁भैयन	-7742
▁मसूर	-7743
▁मौका	-7744
▁रहने	-7745
▁लगने	-7746
▁लड़ी	-7747
▁सड़े	-7748
▁हिस्	-7749
▁अभिनय	-7750
▁अमृता	-7751
▁अरदास	-7752
▁आऊंगे	-7753
▁कचालू	-7754
▁कत्थक	-7755
▁कॉर्न	-7756
▁गड्ढे	-7757
▁जंगली	-7758
▁देखके	-7759
▁निर्य	-7760
▁बचानो	-7761
▁बढ़ाई	-7762
▁बाइयन	-7763
▁मसजिद	-7764
▁महाशि	-7765
▁मांगी	-7766
▁मिलाइ	-7767
▁लग्यौ	-7768
▁लावणी	-7769
▁सुधरत	-7770
▁सूचना	-7771
िमटिमात	-7772
▁अद्भुत	-7773
▁अहिंसा	-7774
▁करोंदा	-7775
▁कॉर्नफ	-7776
▁खोल्यो	-7777
▁झाड़कै	-7778
▁झुकायौ	-7779
▁झुक्यौ	-7780
▁झुलावत	-7781
▁झुलावन	-7782
▁झूम्यौ	-7783
▁टपकावत	-7784
▁टेलीवि	-7785
▁टैक्सु	-7786
▁टोस्टर	-7787
▁ट्रांस	-7788
▁ट्रेजर	-7789
▁ठिठोली	-7790
▁डाकिया	-7791
▁डाक्टर	-7792
▁डारिकै	-7793
▁डाल्यो	-7794
▁डिग्री	-7795
▁डिब्बे	-7796
▁डिब्बो	-7797
▁डीटीएच	-7798
▁डेबिटु	-7799
खरो	-7800
टरु	-7801
पदी	-7802
परु	-7803
रोब	-7804
हरत	-7805
त्रन	-7806
मोजे	-7807
राथन	-7808
ाचार	-7809
ूत्र	-7810
ौंजी	-7811
▁कैच	-7812
▁दंत	-7813
▁दीं	-7814
▁धरो	-7815
▁फेन	-7816
▁रुम	-7817
▁लरत	-7818
▁लेक	-7819
▁संक	-7820
▁संव	-7821
▁सीड	-7822
▁हाट	-7823
स्वास	-7824
ारोपन	-7825
ुपारन	-7826
▁अर्क	-7827
▁उनकी	-7828
▁एरोब	-7829
▁कमरो	-7830
▁टॉफी	-7831
▁फूरन	-7832
▁फूलत	-7833
▁फूली	-7834
▁बजात	-7835
▁बांज	-7836
▁भारो	-7837
▁मुना	-7838
▁रंगर	-7839
▁लेके	-7840
▁लेकै	-7841
▁वेंट	-7842
▁संचय	-7843
▁सावन	-7844
▁सीढ़	-7845
▁सेरु	-7846
▁हैरो	-7847
स्थानी	-7848
▁उगानौ	-7849
▁उतारि	-7850
▁करावन	-7851
▁खोखरो	-7852
▁जांची	-7853
▁टोटरु	-7854
▁दिखीं	-7855
▁धरोहर	-7856
▁पेपरु	-7857
▁बदलने	-7858
▁बारिश	-7859
▁मनावन	-7860
▁मिरनी	-7861
▁रगाकै	-7862
▁रुमाल	-7863
▁लेकिन	-7864
▁संकल्	-7865
▁संक्र	-7866
▁संवेद	-7867
▁सोहरत	-7868
ष्टाचार	-7869
▁कलौंजी	-7870
▁घबरायौ	-7871
▁छुहारो	-7872
▁डॉक्टर	-7873
▁डोमिनो	-7874
▁ड्रायर	-7875
▁ढाक्यो	-7876
▁तांकतौ	-7877
▁तारमेर	-7878
▁तितलिन	-7879
▁तिहारन	-7880
▁तीखाहट	-7881
▁तुमकौं	-7882
▁तैरावत	-7883
▁तैर्यो	-7884
▁तौलियो	-7885
▁त्रसित	-7886
▁त्रस्त	-7887
▁थ्रेशर	-7888
▁थ्रेसर	-7889
▁दंगभंग	-7890
▁दरबारी	-7891
▁दरवाजो	-7892
▁दरांती	-7893
▁दर्शकन	-7894
▁दस्ताव	-7895
▁दिक्कत	-7896
▁दिमागी	-7897
▁दिलासो	-7898
▁दिवाली	-7899
ंका	-7900
ंपा	-7901
खेल	-7902
▁एश	-7903
▁घं	-7904
कार्	-7905
क्षर	-7906
चकचा	-7907
वारथ	-7908
ूरता	-7909
्साह	-7910
▁अभै	-7911
▁इंश	-7912
▁एली	-7913
▁एले	-7914
▁कैब	-7915
▁चले	-7916
▁डोर	-7917
▁तले	-7918
▁तेर	-7919
▁दीए	-7920
▁नाप	-7921
▁फूड	-7922
▁महल	-7923
▁सोर	-7924
▁हंट	-7925
खेलनो	-7926
रसिंग	-7927
र्वाद	-7928
हिनीअ	-7929
्योतो	-7930
▁अक्ष	-7931
▁उनको	-7932
▁कपाल	-7933
▁काटै	-7934
▁गहूँ	-7935
▁घंटा	-7936
▁चंपा	-7937
▁चोली	-7938
▁देवै	-7939
▁धोना	-7940
▁बजने	-7941
▁बहतो	-7942
▁भरनो	-7943
▁मुंब	-7944
▁रागी	-7945
▁सागर	-7946
▁सीखै	-7947
▁सीखो	-7948
▁सोनो	-7949
▁हिले	-7950
कार्फ़	-7951
बिरंगा	-7952
स्टिकु	-7953
ुत्साह	-7954
▁अक्षय	-7955
▁अचकचा	-7956
▁आसंका	-7957
▁एशिया	-7958
▁करकार	-7959
▁कांटे	-7960
▁खेलने	-7961
▁चढ़ाई	-7962
▁जोतने	-7963
▁नवासी	-7964
▁पन्ना	-7965
▁परमान	-7966
▁बिवाद	-7967
▁बौछार	-7968
▁मुंबई	-7969
▁लागतौ	-7970
▁सफारी	-7971
▁सांभर	-7972
▁सीखने	-7973
▁स्थिर	-7974
रसिंगार	-7975
शीर्वाद	-7976
▁करवाने	-7977
▁दहाड़त	-7978
▁दिसंबर	-7979
▁दीवारन	-7980
▁दुख्यो	-7981
▁दुपट्ट	-7982
▁दुर्लभ	-7983
▁दुल्हन	-7984
▁दुसमनी	-7985
▁दृष्टि	-7986
▁देखिकै	-7987
▁देखैबो	-7988
▁देवतान	-7989
▁देवदार	-7990
▁दौड़तौ	-7991
▁धुंधरो	-7992
▁धुंधले	-7993
▁नजरियो	-7994
▁ननिहाल	-7995
▁नवाचार	-7996
▁नहलावत	-7997
▁नहवावन	-7998
▁नहाइबौ	-7999
ँगो	-8000
ग्ज	-8001
ज़ो	-8002
डरत	-8003
पना	-8004
राए	-8005
वनि	-8006
ग्जॉ	-8007
टर्र	-8008
ट्टू	-8009
न्नो	-8010
मीटर	-8011
रतें	-8012
लेगी	-8013
ष्टु	-8014
ान्त	-8015
ासना	-8016
्वनि	-8017
▁करह	-8018
▁कोट	-8019
▁खरा	-8020
▁गटर	-8021
▁गरत	-8022
▁चलन	-8023
▁चलि	-8024
▁जिस	-8025
▁पीन	-8026
▁सटर	-8027
ट्टान	-8028
ान्तक	-8029
▁कचरो	-8030
▁कूकत	-8031
▁खराश	-8032
▁जीरे	-8033
▁जीरो	-8034
▁टीको	-8035
▁डाइन	-8036
▁तड़त	-8037
▁तीली	-8038
▁नवीन	-8039
▁पसुन	-8040
▁बचके	-8041
▁बहुन	-8042
▁महास	-8043
▁मुझे	-8044
▁रहतो	-8045
▁सुकर	-8046
▁सेकत	-8047
मद्भाग	-8048
▁आसमान	-8049
▁एग्जॉ	-8050
▁करोड़	-8051
▁कलपना	-8052
▁कुटकी	-8053
▁गंधहर	-8054
▁गन्नो	-8055
▁घेरकै	-8056
▁चलिबौ	-8057
▁चींटी	-8058
▁जरानौ	-8059
▁जिसकी	-8060
▁ट्राई	-8061
▁ध्वनि	-8062
▁नाड़ी	-8063
▁निभात	-8064
▁निरमर	-8065
▁पढ़कै	-8066
▁बसतुन	-8067
▁बैंकु	-8068
▁महँगो	-8069
▁मिलीं	-8070
▁संरछण	-8071
▁अंगुरी	-8072
▁अंतर्म	-8073
▁उड़ावत	-8074
▁उपासना	-8075
▁कुट्टू	-8076
▁केंद्र	-8077
▁चट्टान	-8078
▁छिड़की	-8079
▁नागरिक	-8080
▁नाप्यौ	-8081
▁नारदीय	-8082
▁नाश्ता	-8083
▁नासिका	-8084
▁नास्तो	-8085
▁निकलनो	-8086
▁निकारि	-8087
▁निकारो	-8088
▁निकारौ	-8089
▁निकालन	-8090
▁निगलें	-8091
▁निरजरा	-8092
▁निर्भर	-8093
▁निष्ठा	-8094
▁नूडल्स	-8095
▁नेकलेस	-8096
▁नेत्रन	-8097
▁नोटबुक	-8098
▁न्योतो	-8099
िफ	-8100
ोव	-8101
मती	-8102
िनर	-8103
▁थक	-8104
उंसी	-8105
चिंत	-8106
तेरस	-8107
बाइक	-8108
लोरी	-8109
वारै	-8110
ष्टक	-8111
िफिन	-8112
▁काज	-8113
▁चिप	-8114
▁नेह	-8115
▁भरौ	-8116
▁रखर	-8117
▁सकर	-8118
क्तिस	-8119
चिंतन	-8120
टकॉइन	-8121
धारित	-8122
वारता	-8123
▁अगलो	-8124
▁उपमा	-8125
▁एरान	-8126
▁करूं	-8127
▁कालो	-8128
▁कुकर	-8129
▁कॉमे	-8130
▁गोली	-8131
▁घुली	-8132
▁घोलत	-8133
▁छायो	-8134
▁जाना	-8135
▁डिनर	-8136
▁दिनन	-8137
▁नेता	-8138
▁पायर	-8139
▁पीयो	-8140
▁पुरा	-8141
▁पोकर	-8142
▁बढ़ई	-8143
▁बांग	-8144
▁ब्रत	-8145
▁रंगन	-8146
▁रखना	-8147
▁रखनो	-8148
▁लहरी	-8149
▁सीमा	-8150
▁हड़त	-8151
▁उठायो	-8152
▁कोकिल	-8153
▁गावनो	-8154
▁चिप्स	-8155
▁जराने	-8156
▁जागरन	-8157
▁जैहैं	-8158
▁टिफिन	-8159
▁पड़ती	-8160
▁पढ़कर	-8161
▁पुराण	-8162
▁महिरा	-8163
▁मांगौ	-8164
▁मोहित	-8165
▁लगाने	-8166
▁सुनकर	-8167
▁स्टोव	-8168
▁अपनावन	-8169
▁उठावनी	-8170
▁कैलोरी	-8171
▁कॉमेडी	-8172
▁कोकिला	-8173
▁टॉयलेट	-8174
▁दूरभाष	-8175
▁धनतेरस	-8176
▁पंचगुण	-8177
▁पगरायौ	-8178
▁पच्चीस	-8179
▁पड़ैगो	-8180
▁पतंजलि	-8181
▁पत्तिन	-8182
▁पत्थरन	-8183
▁परापति	-8184
▁पर्याव	-8185
▁पहन्यो	-8186
▁पहिनकै	-8187
▁पहिननी	-8188
▁पहिननो	-8189
▁पहिराए	-8190
▁पिघरके	-8191
▁पिज्जा	-8192
▁पियानो	-8193
▁पिवायौ	-8194
▁पिस्ता	-8195
▁पीस्यौ	-8196
▁पुकारत	-8197
▁पुदीना	-8198
▁पुदीने	-8199
ंचि	-8200
पहल	-8201
▁दम	-8202
कारक	-8203
रोवर	-8204
लायो	-8205
ाँटत	-8206
ातुन	-8207
िक्स	-8208
्रीट	-8209
▁उठी	-8210
▁कछू	-8211
▁कसी	-8212
▁छाछ	-8213
▁छिन	-8214
▁दूज	-8215
▁नसे	-8216
▁भाए	-8217
▁मीम	-8218
▁राल	-8219
▁हरि	-8220
ालिया	-8221
ेलियन	-8222
▁उठकै	-8223
▁उपवन	-8224
▁कामन	-8225
▁कुरक	-8226
▁कुशन	-8227
▁केबल	-8228
▁कैसल	-8229
▁क्लब	-8230
▁डालो	-8231
▁डीजे	-8232
▁पूरन	-8233
▁फ्लश	-8234
▁बढ़ा	-8235
▁बायो	-8236
▁मनात	-8237
▁सिरप	-8238
▁सिलत	-8239
▁हरको	-8240
▁हरड़	-8241
कारिता	-8242
▁ओढ़ाई	-8243
▁चलायो	-8244
▁चालीस	-8245
▁डाँटत	-8246
▁डारनी	-8247
▁दातुन	-8248
▁नागरा	-8249
▁पात्र	-8250
▁पितरन	-8251
▁बढ़ने	-8252
▁बढ़ाओ	-8253
▁बिठाए	-8254
▁बियोग	-8255
▁भिंचि	-8256
▁भैरवी	-8257
▁मार्च	-8258
▁लिखकै	-8259
▁शैंपू	-8260
▁सरोवर	-8261
▁स्क्र	-8262
▁हटाकै	-8263
▁जगावति	-8264
▁ज्वरहर	-8265
▁डार्यो	-8266
▁दिखानी	-8267
▁दिखावन	-8268
▁निकालो	-8269
▁पुरानौ	-8270
▁पुसतकन	-8271
▁पूकलम्	-8272
▁पूजनीय	-8273
▁पेंसिल	-8274
▁पेटीएम	-8275
▁पॉरिसी	-8276
▁प्याज़	-8277
▁प्यारे	-8278
▁प्याले	-8279
▁प्रकुप	-8280
▁प्रबंध	-8281
▁प्रमुख	-8282
▁प्रवाल	-8283
▁प्रिंट	-8284
▁प्रेसर	-8285
▁प्लेयर	-8286
▁फ़्यूल	-8287
▁फावड़े	-8288
▁फिरंगी	-8289
▁फिल्मी	-8290
▁फिसरने	-8291
▁फुर्सत	-8292
▁फुलाकै	-8293
▁फूलदान	-8294
▁फूल्यो	-8295
▁फूल्यौ	-8296
▁फेंकना	-8297
▁फेफड़न	-8298
▁फेफड़े	-8299
जल्	-8300
धुन	-8301
नाथ	-8302
पकौ	-8303
लेज	-8304
्मच	-8305
▁ढो	-8306
गर्म	-8307
बूंद	-8308
ावेस	-8309
▁आटो	-8310
▁कंस	-8311
▁तोर	-8312
▁निख	-8313
▁बचो	-8314
▁बचौ	-8315
▁भईं	-8316
▁भगत	-8317
▁मंत	-8318
▁मरि	-8319
▁रहन	-8320
▁सरम	-8321
▁सूट	-8322
▁होज	-8323
जल्दी	-8324
ाबहार	-8325
▁आपकौ	-8326
▁कहना	-8327
▁खड़ो	-8328
▁चीड़	-8329
▁जैसे	-8330
▁झड़त	-8331
▁ढोवत	-8332
▁थर्म	-8333
▁दूरि	-8334
▁पहने	-8335
▁पूजन	-8336
▁बचकै	-8337
▁बदरौ	-8338
▁बातच	-8339
▁बातन	-8340
▁बिदे	-8341
▁बिहू	-8342
▁भगाव	-8343
▁मिरौ	-8344
▁राखे	-8345
▁सूनो	-8346
▁उठ्यो	-8347
▁कपड़ो	-8348
▁कॉलेज	-8349
▁खाओगे	-8350
▁गरमाग	-8351
▁गुड़ी	-8352
▁ग्राम	-8353
▁घोलकै	-8354
▁चम्मच	-8355
▁छोड़त	-8356
▁दूंगो	-8357
▁निखरत	-8358
▁पकावै	-8359
▁बांटे	-8360
▁भोगनो	-8361
▁मनानो	-8362
▁राखकै	-8363
▁रुष्ट	-8364
▁लोहार	-8365
▁विकेट	-8366
▁सफरजन	-8367
▁सरसती	-8368
▁सिखाई	-8369
▁सिखाओ	-8370
▁किरायौ	-8371
▁गरमियन	-8372
▁डिजाइन	-8373
▁दिखानो	-8374
▁प्यारो	-8375
▁फैरावत	-8376
▁फैरावन	-8377
▁फैलावत	-8378
▁फोड़के	-8379
▁फोड़ने	-8380
▁फ्लैसल	-8381
▁बंगाली	-8382
▁बंटावत	-8383
▁बंध्यौ	-8384
▁बढ़ावो	-8385
▁बढ़ेगी	-8386
▁बढ़्यौ	-8387
▁बदल्यौ	-8388
▁बनवाईं	-8389
▁बनवावत	-8390
▁बनवावन	-8391
▁बनावति	-8392
▁बनावने	-8393
▁बरफीली	-8394
▁बराहमन	-8395
▁बसतुएं	-8396
▁बहेड़ा	-8397
▁बांटने	-8398
▁बांधनी	-8399
सॉ	-8400
छित	-8401
तनौ	-8402
रिद	-8403
ृषा	-8404
ोसो	-8405
▁खा	-8406
भाति	-8407
वानौ	-8408
ालीन	-8409
▁आरओ	-8410
▁कटो	-8411
▁गोर	-8412
▁जोस	-8413
▁डरन	-8414
▁तंग	-8415
▁थके	-8416
▁बोर	-8417
▁सतन	-8418
▁सरप	-8419
▁सहद	-8420
▁हेत	-8421
समरिद	-8422
िट्ठी	-8423
िशियन	-8424
ुक्यो	-8425
▁अभिर	-8426
▁अभ्र	-8427
▁आर्ट	-8428
▁कांच	-8429
▁कूटन	-8430
▁गौरी	-8431
▁जैहो	-8432
▁झूमि	-8433
▁डूबे	-8434
▁डोसो	-8435
▁तृषा	-8436
▁नर्स	-8437
▁पीबे	-8438
▁पूछो	-8439
▁पोतन	-8440
▁फीकी	-8441
▁फेरे	-8442
▁बाकी	-8443
▁बैनर	-8444
▁सहजन	-8445
▁सहेल	-8446
▁साइन	-8447
▁सीसॉ	-8448
▁सुरग	-8449
्यास्त	-8450
▁अभ्रक	-8451
▁अमर्ष	-8452
▁असत्य	-8453
▁एकांत	-8454
▁कटोरी	-8455
▁गूंथि	-8456
▁चलिकै	-8457
▁जोतनौ	-8458
▁दिख्य	-8459
▁देखबै	-8460
▁नाचना	-8461
▁फायदा	-8462
▁फायदौ	-8463
▁बादरन	-8464
▁मक्खी	-8465
▁मिल्क	-8466
▁रोसित	-8467
▁सड़कन	-8468
▁सरपंच	-8469
▁साकार	-8470
▁हमकों	-8471
्रोलाइट	-8472
▁अभिराम	-8473
▁गुंजार	-8474
▁गुड्डे	-8475
▁चिट्ठी	-8476
▁चुक्यो	-8477
▁जरावनो	-8478
▁जांचनी	-8479
▁तमन्ना	-8480
▁दीवानौ	-8481
▁न्हाना	-8482
▁पकावनो	-8483
▁पहिरके	-8484
▁पहिरने	-8485
▁पहिरनो	-8486
▁पित्तप	-8487
▁फैलेगी	-8488
▁बाउंसी	-8489
▁बागीचे	-8490
▁बातचीत	-8491
▁बालकनी	-8492
▁बासमती	-8493
▁बिकसित	-8494
▁बिखेरत	-8495
▁बिछाकै	-8496
▁बिछ्यो	-8497
▁बिठानौ	-8498
▁बिठावत	-8499
ीरक	-8500
ीरि	-8501
चाची	-8502
न्नक	-8503
ातुर	-8504
▁ऊबर	-8505
▁खून	-8506
▁चूस	-8507
▁छटा	-8508
▁छवि	-8509
▁ढकि	-8510
▁पेज	-8511
▁लहू	-8512
▁शुक	-8513
दर्शक	-8514
भतीजी	-8515
▁आएगो	-8516
▁उठाओ	-8517
▁कंघा	-8518
▁कहने	-8519
▁गैसर	-8520
▁चर्म	-8521
▁चाटत	-8522
▁छीरि	-8523
▁जाएं	-8524
▁डिस्	-8525
▁नाचन	-8526
▁बाधा	-8527
▁बीजन	-8528
▁बीपी	-8529
▁बीमा	-8530
▁बुनत	-8531
▁भीगत	-8532
▁मटको	-8533
▁महनत	-8534
▁मोची	-8535
▁रेजर	-8536
▁सगरी	-8537
▁सर्क	-8538
▁सुखा	-8539
▁सोरह	-8540
▁हीरक	-8541
▁होवन	-8542
ठिठोली	-8543
न्नकूट	-8544
▁आसानी	-8545
▁कर्मन	-8546
▁कितने	-8547
▁कुद्ध	-8548
▁चढ़ात	-8549
▁चमकाए	-8550
▁चूसतो	-8551
▁छोड़ी	-8552
▁जांचु	-8553
▁नाचने	-8554
▁पड़ाई	-8555
▁परवाह	-8556
▁प्रणय	-8557
▁बांटो	-8558
▁बिदेस	-8559
▁बिलार	-8560
▁मानें	-8561
▁मिरात	-8562
▁मिलेज	-8563
▁सर्कस	-8564
▁सूखते	-8565
▁सूखने	-8566
▁हट्यौ	-8567
▁हल्ले	-8568
▁हिंदी	-8569
▁अगिआनी	-8570
▁अवसन्न	-8571
▁आह्लाद	-8572
▁उतारनो	-8573
▁कटवावत	-8574
▁खिलावो	-8575
▁गांठें	-8576
▁जांचना	-8577
▁देहांत	-8578
▁पढ़ावै	-8579
▁बितानो	-8580
▁बितायो	-8581
▁बिदेसी	-8582
▁बिधवान	-8583
▁बिमारी	-8584
▁बिरासत	-8585
▁बिरिछन	-8586
▁बिष्णु	-8587
▁बिसरजन	-8588
▁बिसवास	-8589
▁बिह्वल	-8590
▁बुजुरग	-8591
▁बुझावत	-8592
▁बुलावो	-8593
▁बेचैनी	-8594
▁बेहतरु	-8595
▁बैठिकै	-8596
▁बैसाखी	-8597
▁बॉर्डर	-8598
▁बोरवेल	-8599
चेन	-8600
तरता	-8601
लतास	-8602
्यूम	-8603
▁असर	-8604
▁कचन	-8605
▁कवि	-8606
▁जंप	-8607
▁डरत	-8608
▁फूट	-8609
▁बाट	-8610
▁लेब	-8611
▁शूट	-8612
चित्र	-8613
जेक्ट	-8614
र्चरी	-8615
वासिन	-8616
ाऊंगो	-8617
्यूज़	-8618
्यूसर	-8619
▁अंदर	-8620
▁कढ़ी	-8621
▁करजे	-8622
▁काफी	-8623
▁खोरी	-8624
▁गायौ	-8625
▁चारो	-8626
▁छातो	-8627
▁जूतो	-8628
▁टंगी	-8629
▁नालो	-8630
▁निडर	-8631
▁पलाश	-8632
▁पालो	-8633
▁बजाओ	-8634
▁बरसी	-8635
▁बसतर	-8636
▁बोतै	-8637
▁मोशन	-8638
▁रीपर	-8639
▁लेजर	-8640
▁लोशन	-8641
▁लौटे	-8642
▁सब्स	-8643
▁समरण	-8644
▁स्या	-8645
▁हलवा	-8646
▁हीरन	-8647
क्ट्री	-8648
नवासिन	-8649
▁आवैगो	-8650
▁इसलिए	-8651
▁उपवास	-8652
▁कचनार	-8653
▁कांपि	-8654
▁कैंसर	-8655
▁चमकाओ	-8656
▁चरावन	-8657
▁जुलाई	-8658
▁जोड़ो	-8659
▁तुरना	-8660
▁नहाकै	-8661
▁पकड़ै	-8662
▁बदलते	-8663
▁बनेगो	-8664
▁बाँधन	-8665
▁यादें	-8666
▁संतरा	-8667
▁सज्यो	-8668
▁सब्सि	-8669
▁सादगी	-8670
▁सामिर	-8671
▁अमलतास	-8672
▁आर्चरी	-8673
▁कूद्यौ	-8674
▁गिरायो	-8675
▁गिरावत	-8676
▁जंपिंग	-8677
▁तुमसौं	-8678
▁नहावनो	-8679
▁प्रणाम	-8680
▁फुलावत	-8681
▁फ्यूज़	-8682
▁बोलिंग	-8683
▁बोल्यो	-8684
▁बोल्यौ	-8685
▁ब्रह्म	-8686
▁ब्रेकर	-8687
▁भंडारे	-8688
▁भगदड़ु	-8689
▁भगावना	-8690
▁भगावनौ	-8691
▁भटक्यौ	-8692
▁भयप्रद	-8693
▁भयाकुल	-8694
▁भरवानो	-8695
▁भारतीय	-8696
▁भिगोकर	-8697
▁भिगोकै	-8698
▁भिगोनौ	-8699
भरी	-8700
िरह	-8701
ैबल	-8702
्ठो	-8703
एक्स	-8704
िल्प	-8705
▁अमर	-8706
▁अरब	-8707
▁ईसर	-8708
▁छंट	-8709
▁जाल	-8710
▁टाई	-8711
▁मची	-8712
▁रबर	-8713
▁सती	-8714
ट्यम्	-8715
मिष्ट	-8716
र्डरु	-8717
▁अरबी	-8718
▁आतुर	-8719
▁इनाम	-8720
▁कूदे	-8721
▁कैसे	-8722
▁गंधक	-8723
▁जावो	-8724
▁जींस	-8725
▁टावर	-8726
▁डियो	-8727
▁धोवत	-8728
▁पाती	-8729
▁बदलन	-8730
▁बैठन	-8731
▁बोवत	-8732
▁मेवे	-8733
▁रिवर	-8734
▁लिखे	-8735
▁लेंस	-8736
▁शुगर	-8737
▁सगाई	-8738
▁समझो	-8739
र्यादा	-8740
▁अगस्त	-8741
▁अधूरी	-8742
▁इंस्ट	-8743
▁उठिबौ	-8744
▁एग्री	-8745
▁ककड़ी	-8746
▁कांटो	-8747
▁कांसे	-8748
▁गूंजी	-8749
▁जाएगो	-8750
▁जीतनौ	-8751
▁ट्रेक	-8752
▁दौड़न	-8753
▁दौड़े	-8754
▁धनियो	-8755
▁पावनौ	-8756
▁बदलनी	-8757
▁बदलें	-8758
▁बस्तो	-8759
▁बिलाई	-8760
▁ब्रिज	-8761
▁मसालन	-8762
▁मिरनौ	-8763
▁रगड़त	-8764
▁समझनो	-8765
▁साइंस	-8766
▁सेंकन	-8767
▁स्टॉक	-8768
▁आर्डरु	-8769
▁इकट्ठो	-8770
▁कारतिक	-8771
▁गुड़हल	-8772
▁न्हानो	-8773
▁पिलानो	-8774
▁पिस्तो	-8775
▁बिरंगी	-8776
▁भित्ति	-8777
▁भीतभीत	-8778
▁मंडरात	-8779
▁मकोड़न	-8780
▁मक्खिन	-8781
▁मच्छरन	-8782
▁मजदूरन	-8783
▁मजदूरी	-8784
▁मज़बूत	-8785
▁मनमोहक	-8786
▁मनावनो	-8787
▁मरम्मत	-8788
▁मशीनें	-8789
▁मान्यो	-8790
▁मारिकु	-8791
▁मालिनी	-8792
▁मिक्सर	-8793
▁मिटाने	-8794
▁मितरता	-8795
▁मिलजुल	-8796
▁मिलाकर	-8797
▁मिलाने	-8798
▁मिलैगो	-8799
पीय	-8800
शाक	-8801
धारण	-8802
पोछा	-8803
मुना	-8804
हरात	-8805
ारतौ	-8806
▁आशा	-8807
▁गजल	-8808
▁जमि	-8809
▁टीम	-8810
▁मैप	-8811
▁येन	-8812
▁लैइ	-8813
▁वाइ	-8814
प्रेस	-8815
▁अरहर	-8816
▁आईने	-8817
▁उजास	-8818
▁उबलत	-8819
▁कटने	-8820
▁कटहर	-8821
▁चढ़े	-8822
▁जमाइ	-8823
▁जुटत	-8824
▁टिकत	-8825
▁डूबो	-8826
▁ताले	-8827
▁नष्ट	-8828
▁पतली	-8829
▁पीबो	-8830
▁पौधन	-8831
▁पौधो	-8832
▁बरतत	-8833
▁ब्रश	-8834
▁लैडर	-8835
▁वीडर	-8836
▁सवेत	-8837
▁हलको	-8838
▁होगौ	-8839
ाइटिंग	-8840
▁अलर्ट	-8841
▁उजारा	-8842
▁उड़ाई	-8843
▁कसैलो	-8844
▁काटनो	-8845
▁कुरान	-8846
▁छुपाई	-8847
▁जमुना	-8848
▁जागकर	-8849
▁जीवित	-8850
▁टहलने	-8851
▁ट्रैक	-8852
▁दिखात	-8853
▁पकवान	-8854
▁पोशाक	-8855
▁फाइबर	-8856
▁फोड़न	-8857
▁बनाएं	-8858
▁बांटौ	-8859
▁बाजरे	-8860
▁बेकार	-8861
▁मारकै	-8862
▁मिलिए	-8863
▁मेदान	-8864
▁लगेगो	-8865
▁समसान	-8866
▁अलार्म	-8867
▁उड़ाना	-8868
▁घबराहट	-8869
▁चमकीले	-8870
▁चित्रण	-8871
▁छुपायो	-8872
▁छुप्यो	-8873
▁टहल्यो	-8874
▁दोहरात	-8875
▁निभावन	-8876
▁न्यारी	-8877
▁पढ़्यो	-8878
▁परिणाम	-8879
▁बांटकै	-8880
▁मिल्यौ	-8881
▁मीटिंग	-8882
▁मीडिया	-8883
▁मुक्ति	-8884
▁मुखिया	-8885
▁मुट्ठी	-8886
▁मुनाफा	-8887
▁मुसकनी	-8888
▁मुसिकल	-8889
▁मूंछें	-8890
▁मूरखता	-8891
▁मूल्यन	-8892
▁मेन्यू	-8893
▁मेहनती	-8894
▁मैराथन	-8895
▁मैसेजु	-8896
▁म्याऊं	-8897
▁म्लानि	-8898
▁म्हारौ	-8899
ग्न	-8900
ग्नल	-8901
▁ईसा	-8902
▁जराव	-8903
▁पैसन	-8904
▁पैसा	-8905
▁मारग	-8906
▁सहमि	-8907
▁रोगिन	-8908
▁लगानी	-8909
▁उत्सुक	-8910
▁मोबाइर	-8911
▁यंत्रन	-8912
▁यूपीआई	-8913
▁यूपीएस	-8914
▁योगदान	-8915
▁योगराज	-8916
▁योजनान	-8917
▁रंगमंच	-8918
▁रंगीले	-8919
▁रंगोरी	-8920
▁रखरखाव	-8921
▁रखवाली	-8922
▁रसोइया	-8923
▁राख्यौ	-8924
▁रागिनी	-8925
▁रात्रि	-8926
▁रामदेव	-8927
▁रामधुन	-8928
▁रिटायर	-8929
▁रिटेरर	-8930
▁रिश्तो	-8931
▁रिसर्च	-8932
▁रिस्टु	-8933
▁रिस्तो	-8934
▁रुकावट	-8935
▁रुखसती	-8936
▁रुचियन	-8937
▁रुपैया	-8938
▁रेसिपी	-8939
▁रेहड़ी	-8940
▁रोजगार	-8941
▁रोटेसन	-8942
▁रोमांस	-8943
▁रोसिनी	-8944
▁लगावनौ	-8945
▁लहलहात	-8946
▁लाऊंगे	-8947
▁लागेगी	-8948
▁लागेगो	-8949
▁लालटेन	-8950
▁लिख्यौ	-8951
▁लेट्यो	-8952
▁लेनदेन	-8953
▁लोबिया	-8954
▁लोहड़ी	-8955
▁वाईफाई	-8956
▁वारंटी	-8957
▁वाशिंग	-8958
▁विद्या	-8959
▁विषाणु	-8960
▁विष्णु	-8961
▁वॉकिंग	-8962
▁वॉचिंग	-8963
▁व्यक्त	-8964
▁शतावरी	-8965
▁शाबाशी	-8966
▁शूटिंग	-8967
▁शेविंग	-8968
▁शैम्पू	-8969
▁शौचालय	-8970
▁श्रृंग	-8971
▁सँवारत	-8972
▁संकल्प	-8973
▁संजोकर	-8974
▁संतप्त	-8975
▁संतुलन	-8976
▁संपन्न	-8977
▁संभारत	-8978
▁संभालत	-8979
▁संवारे	-8980
▁संवारै	-8981
▁सकरकंद	-8982
▁सक्तिस	-8983
▁सजावना	-8984
▁सटीकता	-8985
▁सड़कें	-8986
▁सनिवार	-8987
▁सभ्यता	-8988
▁समझदार	-8989
▁समझावत	-8990
▁समझ्यो	-8991
▁समर्पण	-8992
▁समाधान	-8993
▁समुचित	-8994
▁सरस्वत	-8995
▁सराहना	-8996
▁ससुराल	-8997
▁सहम्यौ	-8998
▁सहलावत	-8999
▁सांकरी	-9000
▁साधारण	-9001
▁सासथ्य	-9002
▁सिंगार	-9003
▁सिक्के	-9004
▁सिक्खा	-9005
▁सिक्षा	-9006
▁सिखाईं	-9007
▁सिखावन	-9008
▁सिगरेट	-9009
▁सिग्नल	-9010
▁सितारे	-9011
▁सिलावत	-9012
▁सिलिंग	-9013
▁सीएफएल	-9014
▁सीखैगौ	-9015
▁सीताफर	-9016
▁सीताफल	-9017
▁सुखाकै	-9018
▁सुखातै	-9019
▁सुखानौ	-9020
▁सुखायो	-9021
▁सुडोकू	-9022
▁सुधारत	-9023
▁सुधारी	-9024
▁सुनसान	-9025
▁सुनामी	-9026
▁सुनावन	-9027
▁सुनिबौ	-9028
▁सुब्बै	-9029
▁सुरछित	-9030
▁सुलायो	-9031
▁सुलावन	-9032
▁सूनापन	-9033
▁सॉपिंग	-9034
▁स्कूबा	-9035
▁स्कैनर	-9036
▁स्तुति	-9037
▁स्थिति	-9038
▁स्नूकर	-9039
▁स्पीकर	-9040
▁स्पेयर	-9041
▁स्याही	-9042
▁स्लाइड	-9043
▁स्वारथ	-9044
▁स्वेटर	-9045
▁हंस्यौ	-9046
▁हटावनो	-9047
▁हड़तार	-9048
▁हर्षित	-9049
▁हितैषी	-9050
▁हिमपात	-9051
▁हिरावत	-9052
▁हिस्सा	-9053
▁हेडफोन	-9054
▁हैप्पी	-9055
▁होम्यो	-9056
▁होलिका	-9057
क्रॉपिंग	-9058
नेटेरियम	-9059
मद्भागवत	-9060
वणभास्कर	-9061
ष्टिकारक	-9062
संतुष्टि	-9063
साक्षात्	-9064
ाइम्बिंग	-9065
ेजेंटेशन	-9066
ॉर्कलिंग	-9067
्रिएंट्स	-9068
▁अंगड़ाई	-9069
▁अंतर्मन	-9070
▁अकेलापन	-9071
▁अकेलेपन	-9072
▁अधिकारन	-9073
▁अनुरक्त	-9074
▁अनुरागी	-9075
▁अन्नकूट	-9076
▁अपनावनौ	-9077
▁अपस्मार	-9078
▁अभिलाषा	-9079
▁अभिलासी	-9080
▁अमर्षित	-9081
▁अहंकारी	-9082
▁आक्रांत	-9083
▁आपूर्ति	-9084
▁आवाज़ें	-9085
▁इंडक्शन	-9086
▁इथेरियम	-9087
▁इनवर्टर	-9088
▁इन्हेलर	-9089
▁इरिगेशन	-9090
▁इरिगेसन	-9091
▁उंगलियन	-9092
▁उड़ावनो	-9093
▁उपसथिति	-9094
▁उर्वरता	-9095
▁एड्रेसु	-9096
▁एम्यूजम	-9097
▁कंट्रोल	-9098
▁कंडक्टर	-9099
▁कंपोस्ट	-9100
▁कठपुतली	-9101
▁कन्वर्ट	-9102
▁कराऊंगो	-9103
▁कराह्यौ	-9104
▁कलेक्टर	-9105
▁कल्याणक	-9106
▁कस्टमरु	-9107
▁कहानियन	-9108
▁कांजीरा	-9109
▁काउंटरु	-9110
▁कामयाबी	-9111
▁कार्टून	-9112
▁कीटनाशक	-9113
▁कुम्हार	-9114
▁कुरकुरी	-9115
▁कृत्रिम	-9116
▁कैरोसीन	-9117
▁कैलेंडर	-9118
▁कॉपियां	-9119
▁कोलकाता	-9120
▁क्यूआरु	-9121
▁क्रिसमस	-9122
▁क्रूरता	-9123
▁क्रेडिट	-9124
▁क्षुब्ध	-9125
▁क्षेत्र	-9126
▁खरपतवार	-9127
▁खरीद्यो	-9128
▁खिन्नता	-9129
▁खिलावना	-9130
▁खुदवावत	-9131
▁खुरदुरो	-9132
▁खुसनुमा	-9133
▁खुसियां	-9134
▁खोलूंगे	-9135
▁ख्वाहिस	-9136
▁गरमागरम	-9137
▁गर्भवती	-9138
▁गुजराती	-9139
▁गुज़रनो	-9140
▁गुलमोहर	-9141
▁गूदेदार	-9142
▁गोवर्धन	-9143
▁चक्रवात	-9144
▁चमकावनो	-9145
▁चमत्कृत	-9146
▁चलचित्र	-9147
▁चहचहानो	-9148
▁चहचहाहट	-9149
▁चिचिंडा	-9150
▁चिल्लात	-9151
▁चौंधिया	-9152
▁चौकीदार	-9153
▁छिड़कना	-9154
▁छुपावनो	-9155
▁जलकुंभी	-9156
▁ज़ेब्रा	-9157
▁जाँघिया	-9158
▁जुटूंगे	-9159
▁जुड़्यो	-9160
▁झिलमिला	-9161
▁टर्नओवर	-9162
▁टर्मिनल	-9163
▁टूथब्रश	-9164
▁टूरिज्म	-9165
▁टेलीफोन	-9166
▁डांडिया	-9167
▁डाइनिंग	-9168
▁डाइविंग	-9169
▁डिजिटरु	-9170
▁तड़प्यौ	-9171
▁तनख्वाह	-9172
▁तरोताजा	-9173
▁तसवीरें	-9174
▁तारियां	-9175
▁तालबद्ध	-9176
▁तालियां	-9177
▁तिलमिला	-9178
▁तुम्हरै	-9179
▁तुम्हरौ	-9180
▁तुम्हें	-9181
▁त्रासित	-9182
▁त्रिकटु	-9183
▁त्रिफला	-9184
▁थर्रायौ	-9185
▁थायराइड	-9186
▁थेरुकूथ	-9187
▁दक्खिना	-9188
▁दयारुता	-9189
▁दवाखाना	-9190
▁दवाखाने	-9191
▁दवाखानो	-9192
▁दस्ताने	-9193
▁दानेदार	-9194
▁दारचीनी	-9195
▁दिखावना	-9196
▁दिलावना	-9197
▁दुकानें	-9198
▁दुखहारी	-9199
▁दुपट्टा	-9200
▁नवरातरी	-9201
▁नहाय्यो	-9202
▁नाशपाती	-9203
▁नासपाती	-9204
▁निकल्यो	-9205
▁निकारना	-9206
▁निकालकै	-9207
▁निगरानी	-9208
▁निचोड़त	-9209
▁निचोड़ो	-9210
▁निर्यात	-9211
▁निहारतौ	-9212
▁नेब्यूल	-9213
▁नैतिकता	-9214
▁पकड़्यो	-9215
▁पढ़ैंगे	-9216
▁पदार्थन	-9217
▁परसारित	-9218
▁परीक्षन	-9219
▁परोपकार	-9220
▁पर्यटकन	-9221
▁पसंदीदा	-9222
▁पसुपारन	-9223
▁पहिचानत	-9224
▁पहिरिबौ	-9225
▁पहिर्यो	-9226
▁पहेलियन	-9227
▁पाठशाले	-9228
▁पाबन्दी	-9229
▁पायजामो	-9230
▁पार्ट्स	-9231
▁पिंडदान	-9232
▁पिलाटेस	-9233
▁पिलावना	-9234
▁पीढ़ियन	-9235
▁पुनरजनम	-9236
▁पुरोहित	-9237
▁पूर्वजन	-9238
▁पेंटबॉल	-9239
▁पेंटिंग	-9240
▁पेटीएमु	-9241
▁पेमेंटु	-9242
▁पैकिंगु	-9243
▁पैराग्ल	-9244
▁पोंछ्यो	-9245
▁प्रदूषण	-9246
▁प्रश्नन	-9247
▁प्रसंसा	-9248
▁प्रिंटर	-9249
▁प्रेरणा	-9250
▁प्लांटर	-9251
▁फर्नीचर	-9252
▁फव्वारे	-9253
▁फुहारें	-9254
▁फूलगोभी	-9255
▁फेंक्यो	-9256
▁फेंसिंग	-9257
▁फैशनेबल	-9258
▁बंटवारो	-9259
▁बंदगोभी	-9260
▁बदबूदार	-9261
▁बनाऊंगी	-9262
▁बनाएंगे	-9263
▁बरफबारी	-9264
▁बाँध्यो	-9265
▁बांटैबो	-9266
▁बागवानी	-9267
▁बिटकॉइन	-9268
▁बिनमरता	-9269
▁बिपत्ति	-9270
▁बिल्कुल	-9271
▁बुझावना	-9272
▁बृहसपति	-9273
▁बेईमानी	-9274
▁बेचूंगे	-9275
▁बेस्वाद	-9276
▁बेहतरीन	-9277
▁बोनफायर	-9278
▁ब्रह्मी	-9279
▁ब्लाउज़	-9280
▁ब्लूटूथ	-9281
▁ब्लेज़र	-9282
▁भड़क्यौ	-9283
▁भनभनाहट	-9284
▁भाईचारो	-9285
▁भावनाओं	-9286
▁भृंगराज	-9287
▁भोरेनाथ	-9288
▁भौचक्का	-9289
▁मंगरवार	-9290
▁मंगलवार	-9291
▁मंगवावत	-9292
▁मगरमच्छ	-9293
▁मज़ेदार	-9294
▁मणिपुरी	-9295
▁मनकामना	-9296
▁मनमुटाव	-9297
▁मनोरंजन	-9298
▁मर्यादा	-9299
▁मलेरिया	-9300
▁मल्चिंग	-9301
▁महाआरती	-9302
▁महिलाएं	-9303
▁मांगलिक	-9304
▁मित्रता	-9305
▁मिश्रित	-9306
▁मुनक्का	-9307
▁मुशायरा	-9308
▁मुहल्लो	-9309
▁मूंग्यौ	-9310
▁मेज़पोस	-9311
▁मोनोपली	-9312
▁मोहल्ले	-9313
▁मोहिनीअ	-9314
▁मौजूदगी	-9315
▁यक्षगान	-9316
▁यूरोपीय	-9317
▁योजनाएं	-9318
▁रंगावली	-9319
▁रक्तचाप	-9320
▁राइटिंग	-9321
▁राइडिंग	-9322
▁रासलीला	-9323
▁रिटर्नु	-9324
▁रियलिटी	-9325
▁रीसाइकर	-9326
▁रेफ्रिज	-9327
▁रोमांचक	-9328
▁लक्षादि	-9329
▁लक्ष्मी	-9330
▁लगाऊंगे	-9331
▁लड़कियन	-9332
▁लपेट्यो	-9333
▁लाइसेंस	-9334
▁लाभदायक	-9335
▁लिपट्यो	-9336
▁लोधरासव	-9337
▁वर्चुअल	-9338
▁वर्तमान	-9339
▁वस्तुएं	-9340
▁विश्राम	-9341
▁वेबसाइट	-9342
▁वैक्यूम	-9343
▁व्यवसाय	-9344
▁व्याकुल	-9345
▁शदबिंदु	-9346
▁शिलाजीत	-9347
▁शिशुगृह	-9348
▁शुद्धता	-9349
▁शॉर्टकट	-9350
▁श्रीराम	-9351
▁संजीवनी	-9352
▁संबिधान	-9353
▁संभालकर	-9354
▁संवर्धन	-9355
▁संवेदना	-9356
▁सदभावना	-9357
▁सदाबहार	-9358
▁सद्गुणन	-9359
▁सनसनाहट	-9360
▁सप्तपदी	-9361
▁सप्तसार	-9362
▁सब्सिडी	-9363
▁समृद्धि	-9364
▁सम्मेलन	-9365
▁सराहकार	-9366
▁सर्फिंग	-9367
▁सर्विसु	-9368
▁सवासथ्य	-9369
▁सांतवना	-9370
▁साझीदार	-9371
▁सात्विक	-9372
▁सामान्य	-9373
▁सालगिरह	-9374
▁सिलिंडर	-9375
▁सिवरिंग	-9376
▁सीढ़ियन	-9377
▁सुकरवार	-9378
▁सुखदायक	-9379
▁सुखावना	-9380
▁सुखावने	-9381
▁सुच्छता	-9382
▁सुदर्शन	-9383
▁सुधारने	-9384
▁सुधारनो	-9385
▁सुनैंगे	-9386
▁सुपाच्य	-9387
▁सुलझायो	-9388
▁सुहावनी	-9389
▁सून्यता	-9390
▁सेंकिबौ	-9391
▁सोकातुर	-9392
▁स्ट्रीट	-9393
▁स्तंभित	-9394
▁स्तनपान	-9395
▁स्थानीय	-9396
▁स्नानघर	-9397
▁स्नेहमय	-9398
▁स्पोर्ट	-9399
▁हरियारी	-9400
▁हाइकिंग	-9401
▁हिंग्वा	-9402
▁हितकारी	-9403
▁हियरिंग	-9404
▁हुल्लड़	-9405
▁हेडलाइट	-9406
▁हैंडबैग	-9407
▁होरसेरर	-9408
एक्सपोर्ट	-9409
▁अंगुरियन	-9410
▁अंग्रेजी	-9411
▁अंधियारे	-9412
▁अंधियारो	-9413
▁अकासगंगा	-9414
▁अनुष्ठान	-9415
▁अनुसंधान	-9416
▁अपनाऊंगे	-9417
▁अपराजिता	-9418
▁अल्ट्रास	-9419
▁आकांक्षा	-9420
▁आकाशवाणी	-9421
▁आक्रोसित	-9422
▁आतिशबाजी	-9423
▁आधुनिकता	-9424
▁आनंददायक	-9425
▁आल्हादित	-9426
▁आशीर्वाद	-9427
▁इंजीनियर	-9428
▁इंटरनेटु	-9429
▁इमानदारी	-9430
▁इम्पोर्ट	-9431
▁इयरिंग्स	-9432
▁इस्तेमार	-9433
▁ईमानदारु	-9434
▁उत्फुल्ल	-9435
▁उत्साहित	-9436
▁उद्विग्न	-9437
▁एकाग्रता	-9438
▁एक्सचेंज	-9439
▁एग्जॉस्ट	-9440
▁एयरपोर्ट	-9441
▁एरोबिक्स	-9442
▁कनेक्सनु	-9443
▁कन्फर्मु	-9444
▁कन्फ़र्म	-9445
▁कन्यादान	-9446
▁कपालभाति	-9447
▁कर्तव्यन	-9448
▁कर्मचारी	-9449
▁कांटेदार	-9450
▁कारजक्रम	-9451
▁कार्टिंग	-9452
▁कार्निवल	-9453
▁कुटुंबजन	-9454
▁कुसुमाकर	-9455
▁कैम्पिंग	-9456
▁कोपायमान	-9457
▁क्रिप्टो	-9458
▁क्रेडिटु	-9459
▁क्रॉपिंग	-9460
▁क्रॉसफिट	-9461
▁क्रॉसिंग	-9462
▁क्लासिकल	-9463
▁क्वारिटी	-9464
▁क्षीरबला	-9465
▁खड़खड़ात	-9466
▁खिंचवावत	-9467
▁खिड़कियन	-9468
▁खुसनुमाई	-9469
▁गर्मजोशी	-9470
▁गुणबत्ता	-9471
▁गुनगुनात	-9472
▁गुरुवाणी	-9473
▁गुर्रायौ	-9474
▁ग्राइंडर	-9475
▁ग्रीसिंग	-9476
▁चलावेंगे	-9477
▁चिंघारतौ	-9478
▁चिकित्सक	-9479
▁चित्रकला	-9480
▁चिल्लायो	-9481
▁चूड़ियां	-9482
▁छुट्टियन	-9483
▁जागरूकता	-9484
▁जात्यादि	-9485
▁जूलॉजिकल	-9486
▁टिमटिमात	-9487
▁टेलीविजन	-9488
▁ट्रेकिंग	-9489
▁ट्रेनिंग	-9490
▁ट्विस्टर	-9491
▁डिस्ट्रि	-9492
▁तरोताज़ो	-9493
▁तस्वीरें	-9494
▁तुम्हारौ	-9495
▁तुसारपात	-9496
▁तेजपत्ता	-9497
▁त्यौहारी	-9498
▁दशमूलादि	-9499
▁दस्तावेज	-9500
▁दहाड़्यौ	-9501
▁दिखाऊंगे	-9502
▁दुपहरिया	-9503
▁दुरुपयोग	-9504
▁दुर्गुणन	-9505
▁दुर्घटना	-9506
▁धन्वंतरम	-9507
▁धूपबत्ती	-9508
▁धैर्यवान	-9509
▁निकार्यो	-9510
▁निकाल्यो	-9511
▁नियंत्रण	-9512
▁निष्पक्ष	-9513
▁पबित्रता	-9514
▁परंपराओं	-9515
▁पराकृतिक	-9516
▁परार्थना	-9517
▁पर्यावरन	-9518
▁पवित्रता	-9519
▁पहिचाननी	-9520
▁पहिरावने	-9521
▁पहुंच्यौ	-9522
▁पाइपलाइन	-9523
▁पासवर्डु	-9524
▁पितरपच्छ	-9525
▁पुकार्यो	-9526
▁पुनर्नवा	-9527
▁पुसतकालय	-9528
▁पैम्फरेट	-9529
▁पॉडकास्ट	-9530
▁प्रकुपित	-9531
▁प्रतिदिन	-9532
▁प्रभावित	-9533
▁प्रमुदित	-9534
▁प्रमोदित	-9535
▁प्रस्ताव	-9536
▁प्रस्तुत	-9537
▁प्रातकार	-9538
▁प्राथमिक	-9539
▁प्रेमपास	-9540
▁प्रॉफिटु	-9541
▁फाउंडेशन	-9542
▁फार्मिंग	-9543
▁फैक्ट्री	-9544
▁फोटोकॉपी	-9545
▁बढ़ाऊंगे	-9546
▁बिरालिया	-9547
▁बेकतित्व	-9548
▁बैलगाड़ी	-9549
▁बॉक्सिंग	-9550
▁ब्रॉकचेन	-9551
▁भागीदारी	-9552
▁महाराष्ट	-9553
▁मार्जिनु	-9554
▁मिस्त्री	-9555
▁मुसकरानो	-9556
▁मुसकरावत	-9557
▁मेडिटेशन	-9558
▁मैन्युफै	-9559
▁मोटरबाइक	-9560
▁रसगुल्ला	-9561
▁रसगुल्लो	-9562
▁राइसेंसु	-9563
▁रासायनिक	-9564
▁रिसेप्शन	-9565
▁रुकवावनो	-9566
▁रेगुलेटर	-9567
▁रोटावेटर	-9568
▁वासावलेह	-9569
▁व्यापारी	-9570
▁शिवरातरी	-9571
▁शुक्रवार	-9572
▁संगीतकार	-9573
▁संतुष्टु	-9574
▁संत्रस्त	-9575
▁संस्कारन	-9576
▁सतनारायण	-9577
▁सद्भावना	-9578
▁सन्त्रास	-9579
▁सब्जियां	-9580
▁सर्वधर्म	-9581
▁सवास्थ्य	-9582
▁सहकारिता	-9583
▁सहेलियां	-9584
▁साबूदाना	-9585
▁सिंघाड़े	-9586
▁सिखाएंगे	-9587
▁सिसकियां	-9588
▁सीढ़ियां	-9589
▁सुआभाविक	-9590
▁सुधार्यो	-9591
▁स्कार्फ़	-9592
▁स्क्रैबल	-9593
▁स्टॉपवॉच	-9594
▁हरसिंगार	-9595
▁हानिकारक	-9596
▁हिस्ट्री	-9597
▁होर्डिंग	-9598
वर्टाइजिंग	-9599
▁अकाउंटेंट	-9600
▁आपातकालीन	-9601
▁इंद्रधनुस	-9602
▁इन्वेंटरी	-9603
▁उत्पादकता	-9604
▁उपलब्धियन	-9605
▁उल्कापिंड	-9606
▁एक्वेरियम	-9607
▁एक्सप्रेस	-9608
▁एलेरोपैथी	-9609
▁कम्पीटिशन	-9610
▁कालबेलिया	-9611
▁कुचिपुड़ी	-9612
▁कृष्णलीला	-9613
▁कैलकुरेसन	-9614
▁कैलकुलेटर	-9615
▁कॉन्टैक्ट	-9616
▁क्रॉसवर्ड	-9617
▁क्रोधावेस	-9618
▁गुनगुनायौ	-9619
▁ग्लाइडिंग	-9620
▁घुड़सवारी	-9621
▁चिड़ियाघर	-9622
▁जनमाष्टमी	-9623
▁ट्यूबलाइट	-9624
▁तड़तड़ाने	-9625
▁थर्मामीटर	-9626
▁दिव्यांगन	-9627
▁दुकानदारु	-9628
▁दृष्टिकोण	-9629
▁दृष्टिकोन	-9630
▁निभावेंगे	-9631
▁निरुत्साह	-9632
▁निर्धारित	-9633
▁न्यूजपेपर	-9634
▁पत्तागोभी	-9635
▁परिवारजनन	-9636
▁पहुंचूंगो	-9637
▁पुलिसवालौ	-9638
▁पुस्तकालय	-9639
▁पेनड्राइव	-9640
▁प्रकासमान	-9641
▁प्रक्रिया	-9642
▁प्रतिनिधि	-9643
▁प्रतिबिंब	-9644
▁प्रतिष्ठा	-9645
▁प्रसन्नता	-9646
▁प्रसिक्षन	-9647
▁प्रसिद्धि	-9648
▁प्राइसिंग	-9649
▁प्रेमाकुल	-9650
▁प्रेमातुर	-9651
▁प्रैक्टिस	-9652
▁प्रोजेक्ट	-9653
▁फिसलपट्टी	-9654
▁फुफकार्यौ	-9655
▁फुसफुसायो	-9656
▁फूंकार्यौ	-9657
▁फ्लैसलाइट	-9658
▁बिस्वसनीय	-9659
▁ब्रांडिंग	-9660
▁ब्रांडेडु	-9661
▁मंगलसूत्र	-9662
▁मधुमक्खिन	-9663
▁महानारायण	-9664
▁महाप्रसाद	-9665
▁महायोगराज	-9666
▁मुखशुद्धि	-9667
▁मुबारकबाद	-9668
▁मेदवृद्धि	-9669
▁राजकुमारी	-9670
▁राजस्थानी	-9671
▁राष्ट्रीय	-9672
▁लवणभास्कर	-9673
▁वासतविकता	-9674
▁विजयादशमी	-9675
▁विविधीकरन	-9676
▁वेंटिलेशन	-9677
▁व्हीलचेयर	-9678
▁शिवरात्रि	-9679
▁श्रद्धालु	-9680
▁श्रीकृष्ण	-9681
▁श्वसकुठार	-9682
▁संक्रांति	-9683
▁संभारेंगे	-9684
▁सक्तिसाली	-9685
▁सबमर्सिबल	-9686
▁सम्मानजनक	-9687
▁सर्विसिंग	-9688
▁सहानुभूति	-9689
▁साइक्लिंग	-9690
▁सितोपलादि	-9691
▁सूर्यमुखी	-9692
▁सूर्यास्त	-9693
▁सोकसंतप्त	-9694
▁स्टार्टअप	-9695
▁स्टीयरिंग	-9696
▁स्तब्धकार	-9697
▁स्वावलंबन	-9698
▁हस्तशिल्प	-9699
▁हस्ताक्षर	-9700
▁हिरदयाघात	-9701
साक्षात्कार	-9702
▁अनुपस्थिति	-9703
▁अविपत्तिकर	-9704
▁अव्यवस्थित	-9705
▁अशोकारिष्ट	-9706
▁आवश्यकताओं	-9707
▁इंश्योरेंस	-9708
▁इलेक्ट्रिक	-9709
▁एक्सरसाइज़	-9710
▁एम्यूजमेंट	-9711
▁कंसंट्रेटर	-9712
▁कार्यक्रमन	-9713
▁कुमार्यासव	-9714
▁कॉम्पिटिशन	-9715
▁कॉम्पिटिसन	-9716
▁गुरुद्वारे	-9717
▁ग्लूकोमीटर	-9718
▁चंद्रप्रभा	-9719
▁च्यवनप्राश	-9720
▁ज्वालामुखी	-9721
▁टेक्नोरॉजी	-9722
▁डिस्काउंटु	-9723
▁डुप्रिकेटु	-9724
▁ताइक्वांडो	-9725
▁नुकसानकारक	-9726
▁नेटवर्किंग	-9727
▁पुनर्नवादि	-9728
▁पुष्टिकारक	-9729
▁पैरासेलिंग	-9730
▁प्रतिजैविक	-9731
▁प्रदरान्तक	-9732
▁प्रफुल्लित	-9733
▁प्रमाणपत्र	-9734
▁प्रसंस्करन	-9735
▁प्रास्टिकु	-9736
▁प्रेमबिभोर	-9737
▁प्रोड्यूसर	-9738
▁प्लेटफार्म	-9739
▁प्लेटफॉर्म	-9740
▁फोटोग्राफी	-9741
▁बिलियर्ड्स	-9742
▁बुड्ढाश्रम	-9743
▁बृच्छारोपन	-9744
▁भरतनाट्यम्	-9745
▁भ्रष्टाचार	-9746
▁मंतरोच्चार	-9747
▁मधुमक्खियन	-9748
▁महासुदर्शन	-9749
▁मांसपेशियन	-9750
▁मार्गदर्शक	-9751
▁राष्ट्रगान	-9752
▁रिश्तेदारन	-9753
▁रिस्तेदारन	-9754
▁वाइल्डलाइफ	-9755
▁वृक्षारोपण	-9756
▁व्हाट्सएपु	-9757
▁शल्यक्रिया	-9758
▁सत्यनारायण	-9759
▁समाचारपत्र	-9760
▁स्टेबलाइजर	-9761
▁स्ट्रैटेजी	-9762
▁स्मार्टफोन	-9763
▁अवसादग्रस्त	-9764
▁आत्मविस्वास	-9765
▁आर्गनाइजेसन	-9766
▁आश्चर्यचकित	-9767
▁आश्चर्यप्रद	-9768
▁इंस्टाग्राम	-9769
▁क्रोधान्वित	-9770
▁क्लाइम्बिंग	-9771
▁ट्रैम्पोलिन	-9772
▁दशमूलारिष्ट	-9773
▁नकारात्मकता	-9774
▁नेब्यूलाइजर	-9775
▁पित्तपापड़ा	-9776
▁प्रीतिपूर्ण	-9777
▁प्रेजेंटेशन	-9778
▁प्रोत्साहित	-9779
▁प्लेटफ़ॉर्म	-9780
▁बिषादग्रस्त	-9781
▁रेफ्रिजरेटर	-9782
▁लुकामछुप्पी	-9783
▁सफलतापूर्वक	-9784
▁सुव्यवस्थित	-9785
▁स्नॉर्कलिंग	-9786
▁हिंग्वाष्टक	-9787
▁हैंडराइटिंग	-9788
▁होम्योपैथिक	-9789
▁अल्ट्रासाउंड	-9790
▁आत्मनिर्भरता	-9791
▁आत्मसंतुष्टि	-9792
▁इंटरक्रॉपिंग	-9793
▁इन्वेस्टमेंट	-9794
▁इलेक्ट्रॉनिक	-9795
▁एडवर्टाइजिंग	-9796
▁कॉर्नफ्लेक्स	-9797
▁क्रुद्धावतार	-9798
▁प्लैनेटेरियम	-9799
▁बिस्मयाभिभूत	-9800
▁महाराष्ट्रीय	-9801
▁महाशिवरात्रि	-9802
▁मूर्तिकलाकला	-9803
▁मोहिनीअट्टम्	-9804
▁श्रीमद्भागवत	-9805
▁सरस्वतारिष्ट	-9806
▁इलेक्ट्रिशियन	-9807
▁इलेक्ट्रोलाइट	-9808
▁ट्रांसप्लांटर	-9809
▁न्यूट्रिएंट्स	-9810
▁पैराग्लाइडिंग	-9811
▁मैन्युफैक्चरर	-9812
▁डिस्ट्रिब्यूसन	-9813
ंढ	-9814
ंश	-9815
उष	-9816
एर	-9817
कफ	-9818
खप	-9819
चब	-9820
जक	-9821
डे	-9822
णक	-9823
थम	-9824
नड	-9825
सि	-9826
हँ	-9827
़ह	-9828
़ै	-9829
ुए	-9830
ैच	-9831
ैट	-9832
ैश	-9833
ोइ	-9834
ँखन	-9835
ँधन	-9836
ंछी	-9837
ंडक	-9838
ंती	-9839
ंदु	-9840
ंधक	-9841
इति	-9842
एली	-9843
कट्	-9844
कना	-9845
कनो	-9846
कली	-9847
कॉम	-9848
खकै	-9849
खना	-9850
खिय	-9851
गरे	-9852
चिप	-9853
छली	-9854
जयी	-9855
जोश	-9856
टंग	-9857
टना	-9858
टरक	-9859
डक्	-9860
डेड	-9861
ढ़ै	-9862
णाय	-9863
तना	-9864
तब्	-9865
तिब	-9866
तिय	-9867
तिष	-9868
तिस	-9869
दतै	-9870
दया	-9871
दही	-9872
नकौ	-9873
नक्	-9874
नना	-9875
नाए	-9876
नात	-9877
नार	-9878
नाश	-9879
निध	-9880
निह	-9881
न्फ	-9882
पति	-9883
पतौ	-9884
पैथ	-9885
प्ट	-9886
बिध	-9887
मको	-9888
मछे	-9889
मद्	-9890
मनि	-9891
मीज	-9892
मोद	-9893
म्फ	-9894
यक्	-9895
यान	-9896
रक्	-9897
रबत	-9898
रमन	-9899
इक	-9900
एम	-9901
गज	-9902
टि	-9903
तव	-9904
हॉ	-9905
़क	-9906
ौट	-9907
ंचर	-9908
ंधत	-9909
ंधह	-9910
ंधा	-9911
ंधौ	-9912
ईंध	-9913
ओढ़	-9914
खें	-9915
जनम	-9916
ज़ग	-9917
ज़प	-9918
ज़र	-9919
टेश	-9920
ढ़त	-9921
तरे	-9922
तुर	-9923
थेर	-9924
दंग	-9925
धुम	-9926
फ्ट	-9927
मके	-9928
रास	-9929
लचे	-9930
लना	-9931
लीब	-9932
वजन	-9933
वाश	-9934
▁	-9935
ा	-9936
ह	-9937
र	-9938
क	-9939
ं	-9940
त	-9941
े	-9942
न	-9943
ै	-9944
म	-9945
ो	-9946
ी	-9947
स	-9948
्	-9949
ि	-9950
ल	-9951
ब	-9952
प	-9953
ु	-9954
ग	-9955
द	-9956
व	-9957
ज	-9958
य	-9959
च	-9960
ौ	-9961
ख	-9962
ू	-9963
ड	-9964
ट	-9965
अ	-9966
़	-9967
।	-9968
भ	-9969
आ	-9970
ए	-9971
ध	-9972
फ	-9973
ई	-9974
श	-9975
छ	-9976
उ	-9977
ठ	-9978
इ	-9979
थ	-9980
ढ	-9981
घ	-9982
ष	-9983
-	-9984
ण	-9985
ृ	-9986
u	-9987
झ	-9988
ओ	-9989
ॉ	-9990
ँ	-9991
ऊ	-9992
?	-9993
