<pad>	0
<unk>	0
<s>	0
</s>	0
<START>	0
<END>	0
▁ह	-0
▁क	-1
▁है	-2
▁म	-3
▁स	-4
▁ब	-5
▁प	-6
ता	-7
▁र	-8
ना	-9
ें	-10
▁में	-11
▁द	-12
▁का	-13
▁हैं	-14
▁की	-15
▁कर	-16
▁अ	-17
ार	-18
▁ग	-19
▁च	-20
▁ख	-21
▁ल	-22
▁से	-23
ने	-24
▁आ	-25
ते	-26
▁ज	-27
▁रह	-28
नी	-29
या	-30
▁के	-31
च्	-32
ड़	-33
्र	-34
वा	-35
ैं	-36
ला	-37
▁हू	-38
र्	-39
ती	-40
▁मैं	-41
▁हो	-42
िए	-43
ों	-44
▁हूँ	-45
▁को	-46
▁न	-47
▁चा	-48
▁श	-49
▁सु	-50
▁अप	-51
▁भ	-52
▁सा	-53
ंद	-54
ंग	-55
▁बह	-56
च्च	-57
▁त	-58
▁फ	-59
▁उ	-60
▁खा	-61
ान	-62
▁पर	-63
▁चाह	-64
ाल	-65
स्	-66
▁व	-67
▁बच्च	-68
कर	-69
▁चाहिए	-70
▁पा	-71
िल	-72
ुत	-73
्य	-74
▁लग	-75
▁दे	-76
▁बहुत	-77
रा	-78
क्	-79
▁रही	-80
▁जा	-81
▁घ	-82
री	-83
च्छ	-84
▁मा	-85
▁ध	-86
ली	-87
▁स्	-88
▁बना	-89
ाद	-90
▁मु	-91
▁अच्छ	-92
ूल	-93
ज़	-94
▁य	-95
▁पानी	-96
▁सम	-97
ित	-98
ाई	-99
▁खु	-100
▁रहा	-101
▁रहे	-102
ति	-103
▁प्र	-104
ां	-105
▁रख	-106
▁काम	-107
▁करता	-108
▁बच्चे	-109
रे	-110
▁खुश	-111
▁अपने	-112
▁ड	-113
▁लिए	-114
ढ़	-115
▁यह	-116
▁ट	-117
▁खाना	-118
त्	-119
्ह	-120
▁आज	-121
▁हम	-122
्ट	-123
▁मुझ	-124
▁घर	-125
िक	-126
▁मुझे	-127
▁करते	-128
िया	-129
▁गया	-130
जा	-131
▁मे	-132
िश	-133
▁सब	-134
▁मिल	-135
▁करना	-136
ही	-137
▁ते	-138
▁उस	-139
▁होता	-140
खा	-141
▁खे	-142
▁रो	-143
▁छ	-144
▁मि	-145
जी	-146
▁जी	-147
▁पह	-148
▁ना	-149
▁रा	-150
▁लगा	-151
क्ष	-152
▁गा	-153
▁दु	-154
दी	-155
की	-156
के	-157
ले	-158
▁बु	-159
▁इ	-160
ारी	-161
▁पू	-162
ड़े	-163
▁समय	-164
▁आवा	-165
▁अपनी	-166
ंध	-167
बू	-168
िय	-169
▁अच्छा	-170
▁दि	-171
्या	-172
का	-173
▁गु	-174
▁ता	-175
मान	-176
▁दू	-177
▁मन	-178
▁होती	-179
▁औ	-180
▁फूल	-181
▁साफ	-182
▁और	-183
ंदर	-184
र्म	-185
▁कु	-186
गी	-187
▁बार	-188
भी	-189
▁कम	-190
िर	-191
▁माँ	-192
▁खेल	-193
▁सी	-194
▁सुंदर	-195
हीं	-196
िता	-197
▁दो	-198
▁ले	-199
गा	-200
त्र	-201
▁नहीं	-202
मा	-203
▁हु	-204
▁करो	-205
▁अपना	-206
ठा	-207
▁बा	-208
▁कप	-209
▁देख	-210
▁बाद	-211
▁साथ	-212
▁स्वा	-213
द्	-214
▁पस	-215
ादी	-216
▁दी	-217
था	-218
ीत	-219
▁पी	-220
▁सू	-221
टर	-222
ंड	-223
टी	-224
▁पसंद	-225
ल्	-226
ड़ी	-227
▁खुशबू	-228
हा	-229
वार	-230
▁आवाज़	-231
▁बि	-232
ट्ट	-233
▁पे	-234
▁सफ	-235
▁हवा	-236
▁बच्चों	-237
▁सं	-238
ोग	-239
द्ध	-240
▁कपड़े	-241
बह	-242
रू	-243
लाब	-244
▁अच्छी	-245
ारे	-246
सा	-247
ढ़ा	-248
▁मी	-249
▁सुबह	-250
▁बे	-251
ेश	-252
▁सभी	-253
▁बारिश	-254
▁वा	-255
ृत	-256
▁ए	-257
ंगा	-258
▁तु	-259
▁जला	-260
▁गर्म	-261
से	-262
▁जाता	-263
कार	-264
ड़ा	-265
▁तेल	-266
▁तै	-267
जन	-268
▁गई	-269
▁डाल	-270
▁हूं	-271
ंच	-272
मी	-273
सी	-274
र्य	-275
▁धो	-276
▁बै	-277
▁वि	-278
▁दूध	-279
▁रात	-280
▁सुन	-281
ाम	-282
ार्	-283
▁संग	-284
ेद	-285
स्त	-286
▁पु	-287
ूल्ह	-288
▁सब्	-289
ाव	-290
ेम	-291
गंध	-292
▁ठ	-293
▁मो	-294
▁नदी	-295
▁खाता	-296
▁ने	-297
▁सि	-298
▁पत्	-299
▁रखो	-300
▁सब्जी	-301
▁स्वाद	-302
ाय	-303
ष्ट	-304
▁शि	-305
▁करने	-306
▁शादी	-307
▁सुना	-308
मक	-309
▁कल	-310
▁संगीत	-311
▁सुगंध	-312
▁पढ़	-313
▁शां	-314
▁करनी	-315
▁रंग	-316
▁सीख	-317
ूल्हे	-318
▁खुशी	-319
न्	-320
▁शु	-321
चा	-322
▁नी	-323
▁उसकी	-324
▁फूलों	-325
▁बच्चा	-326
ोल	-327
िंग	-328
▁तैय	-329
▁मृत	-330
▁ला	-331
▁वृ	-332
▁तुम	-333
▁दिन	-334
▁लगता	-335
एं	-336
टा	-337
कान	-338
▁भर	-339
▁लो	-340
▁चाय	-341
▁तुम्ह	-342
▁हमारे	-343
▁सुगंधित	-344
िला	-345
▁कि	-346
▁मह	-347
िवार	-348
▁पेड़	-349
▁वृद्ध	-350
सल	-351
▁जरू	-352
▁ट्र	-353
▁दुल	-354
▁व्य	-355
▁तेज़	-356
▁या	-357
▁ठंड	-358
▁हुआ	-359
टे	-360
्हन	-361
▁मिठ	-362
▁शिक्ष	-363
▁दुल्हन	-364
ड़क	-365
हार	-366
▁गए	-367
▁ची	-368
ट्टी	-369
ियों	-370
▁पहन	-371
▁तालाब	-372
▁झ	-373
▁दुकान	-374
▁आग	-375
▁खाने	-376
▁मेरी	-377
▁मिठाई	-378
वल	-379
▁पै	-380
▁बज	-381
▁बिज	-382
▁भाई	-383
▁फसल	-384
दा	-385
वर	-386
योग	-387
▁उप	-388
▁छो	-389
▁वह	-390
▁शो	-391
▁किया	-392
पक	-393
र्ग	-394
ल्दी	-395
▁भी	-396
▁बजा	-397
▁बां	-398
▁बैठ	-399
▁पूरा	-400
जु	-401
ेन	-402
दार	-403
▁सो	-404
स्था	-405
ित्र	-406
▁दाल	-407
▁बिजली	-408
▁दूल्हे	-409
ंख	-410
▁ती	-411
▁था	-412
▁पड़	-413
▁बाल	-414
▁शिक्षक	-415
ंत	-416
नु	-417
ारा	-418
▁रस	-419
▁निक	-420
▁बात	-421
▁लाल	-422
▁चावल	-423
▁तैयार	-424
▁परिवार	-425
ूप	-426
▁कृ	-427
▁चल	-428
▁मौ	-429
▁शाम	-430
▁आवाज	-431
▁हमें	-432
रु	-433
श्	-434
ुन	-435
ुर	-436
▁चे	-437
▁प्य	-438
▁बहन	-439
▁मीठा	-440
▁सिखा	-441
▁अच्छे	-442
बा	-443
हरा	-444
ियम	-445
▁हा	-446
्यान	-447
▁पास	-448
▁जाती	-449
▁ध्यान	-450
▁सुनाई	-451
वन	-452
शी	-453
▁थ	-454
▁तक	-455
क्ति	-456
त्रा	-457
▁आती	-458
जुर्ग	-459
▁मेरे	-460
▁जरूरी	-461
▁प्रेम	-462
▁बुजुर्ग	-463
ठी	-464
शन	-465
▁ढ	-466
सान	-467
स्थ	-468
क्षा	-469
▁पिता	-470
▁शांति	-471
▁बुजुर्गों	-472
सम	-473
▁भा	-474
▁धूप	-475
▁करके	-476
▁बनाओ	-477
▁बनाने	-478
खी	-479
पे	-480
र्च	-481
्यु	-482
▁एक	-483
ियां	-484
▁आया	-485
▁सम्	-486
▁हुई	-487
▁करती	-488
▁होते	-489
▁गुलाब	-490
▁सामान	-491
▁नि	-492
▁बी	-493
▁कहा	-494
▁चला	-495
▁दीपक	-496
▁देती	-497
▁रखना	-498
▁जलाकर	-499
▁मृत्यु	-500
▁सम्मान	-501
वी	-502
ूं	-503
क्र	-504
▁मध	-505
▁हर	-506
ूंगा	-507
▁कृष	-508
▁बंद	-509
▁हाथ	-510
▁पूजा	-511
▁प्रस	-512
▁रखते	-513
▁प्यार	-514
▁बनाता	-515
▁बनाते	-516
तन	-517
पा	-518
मकी	-519
ेशा	-520
▁जल	-521
▁बस	-522
▁चमक	-523
▁बर्	-524
▁कुएं	-525
▁रोज़	-526
▁सबसे	-527
▁मिलता	-528
पी	-529
शनी	-530
ादा	-531
ृति	-532
▁बन	-533
▁स्क	-534
▁स्ट	-535
▁दादा	-536
▁मिला	-537
▁मौसम	-538
▁सफाई	-539
▁सफेद	-540
▁ट्रेन	-541
▁लगाता	-542
ंस	-543
ूर	-544
ंगे	-545
▁आए	-546
िष्ट	-547
▁दर्	-548
▁दूर	-549
▁फाय	-550
▁मंद	-551
▁उसके	-552
▁खट्ट	-553
▁संस्	-554
▁सड़क	-555
▁रोशनी	-556
प्	-557
म्	-558
िन	-559
्यो	-560
▁आई	-561
▁नई	-562
▁बच	-563
▁क्र	-564
▁धोता	-565
▁बढ़ा	-566
▁मीठी	-567
▁मिलती	-568
ौल	-569
्यू	-570
▁छु	-571
▁रे	-572
▁मना	-573
▁रोज	-574
ढ़ापे	-575
▁गुरु	-576
▁जीवन	-577
▁दादी	-578
▁पीता	-579
▁मधुर	-580
▁माता	-581
▁मिले	-582
▁स्कूल	-583
▁बुढ़ापे	-584
ची	-585
सर	-586
हर	-587
यों	-588
वान	-589
्रा	-590
▁तर	-591
▁बो	-592
स्ता	-593
▁अनु	-594
▁मेह	-595
▁जाते	-596
▁त्यो	-597
▁दिखा	-598
▁व्यव	-599
ावस्था	-600
▁मंदिर	-601
▁सूर्य	-602
▁हमेशा	-603
▁वृद्धावस्था	-604
ओं	-605
दर	-606
भा	-607
ैस	-608
जार	-609
न्न	-610
▁अं	-611
▁कै	-612
▁बद	-613
▁भग	-614
▁आंख	-615
▁दवा	-616
▁पका	-617
▁भजन	-618
▁मां	-619
▁शोक	-620
▁पहले	-621
▁गर्मी	-622
▁जल्दी	-623
▁मिलकर	-624
▁मैंने	-625
▁हमारी	-626
▁त्योहार	-627
रज	-628
भाल	-629
िल्	-630
▁आम	-631
कारी	-632
स्तक	-633
▁अंध	-634
▁कुछ	-635
▁गाय	-636
▁गीत	-637
▁कृषि	-638
▁शांत	-639
▁साफ़	-640
▁भगवान	-641
▁पुस्तक	-642
ंब	-643
रम	-644
िट	-645
चार	-646
लाय	-647
वाह	-648
▁आस	-649
▁जग	-650
▁मद	-651
क्टर	-652
▁कार	-653
▁खेत	-654
▁नहा	-655
▁परो	-656
▁माह	-657
▁स्व	-658
▁पूरी	-659
▁मृतक	-660
▁संस्कार	-661
▁स्वादिष्ट	-662
यो	-663
ुल	-664
तों	-665
नों	-666
र्ण	-667
वाद	-668
▁छा	-669
▁लि	-670
▁सर	-671
ड़ों	-672
▁उसे	-673
▁गैस	-674
▁मदद	-675
▁माल	-676
▁सजा	-677
▁हरी	-678
▁चीनी	-679
▁लगती	-680
▁होगा	-681
▁होगी	-682
▁खट्टा	-683
▁पहनता	-684
ंप	-685
फ़	-686
ूस	-687
ोन	-688
किल	-689
तिम	-690
ांव	-691
▁पक	-692
▁पो	-693
▁फै	-694
कृति	-695
▁जगह	-696
▁दिल	-697
▁बढ़	-698
▁याद	-699
▁रसो	-700
▁सुर	-701
▁बादल	-702
▁शुरू	-703
▁अंतिम	-704
▁माहौल	-705
▁मिर्च	-706
▁मिट्टी	-707
▁यात्रा	-708
ंह	-709
आं	-710
जे	-711
बत्	-712
र्ड	-713
िशु	-714
्री	-715
▁खो	-716
▁दा	-717
▁रि	-718
िताब	-719
▁तेज	-720
▁बजे	-721
▁बेच	-722
बत्ती	-723
▁अंधे	-724
▁उसका	-725
▁उसने	-726
▁पैसे	-727
▁बड़ा	-728
▁बारा	-729
▁मेरा	-730
▁रसोई	-731
▁सूरज	-732
▁कहानी	-733
▁कार्य	-734
▁गाड़ी	-735
▁पढ़ाई	-736
▁देखभाल	-737
▁पेड़ों	-738
ॉल	-739
ोट	-740
ंगी	-741
राम	-742
स्म	-743
▁क्	-744
▁फल	-745
▁आता	-746
▁उठा	-747
▁तरह	-748
▁बैं	-749
▁लोक	-750
▁सूख	-751
▁गांव	-752
▁देना	-753
▁परोस	-754
▁प्रा	-755
▁मुंह	-756
▁यहां	-757
▁शिशु	-758
▁आसमान	-759
▁किसान	-760
▁खेलता	-761
▁निकाल	-762
▁बनाना	-763
ड्	-764
तर	-765
वि	-766
ूट	-767
▁ओ	-768
त्य	-769
र्ट	-770
लाइ	-771
▁उठ	-772
▁गह	-773
▁घी	-774
▁रु	-775
▁सक	-776
▁ही	-777
ऊंगा	-778
▁कर्	-779
▁काट	-780
▁दिख	-781
▁नाच	-782
▁सर्	-783
▁हार	-784
स्थ्य	-785
▁करें	-786
▁किना	-787
▁कुआं	-788
▁डालो	-789
▁धर्म	-790
▁नियम	-791
▁सच्च	-792
▁किताब	-793
▁विवाह	-794
▁सुनकर	-795
▁प्रसन्न	-796
▁तुम्हारी	-797
▁स्वास्थ्य	-798
गे	-799
धा	-800
शा	-801
ंदी	-802
देम	-803
▁उब	-804
▁कॉ	-805
▁चू	-806
▁डर	-807
▁डॉ	-808
▁भू	-809
▁शव	-810
▁हि	-811
ंत्र	-812
ार्थ	-813
▁इंत	-814
▁करा	-815
▁ढोल	-816
▁देर	-817
▁नमक	-818
▁साल	-819
तियों	-820
देमंद	-821
▁आराम	-822
▁गाना	-823
▁जांच	-824
▁नानी	-825
▁नींद	-826
▁बनाए	-827
▁लेते	-828
▁सत्य	-829
▁चेहरा	-830
▁डॉक्टर	-831
▁व्यक्ति	-832
▁फायदेमंद	-833
को	-834
डर	-835
पू	-836
रत	-837
हल	-838
ड्ड	-839
त्म	-840
ेंट	-841
▁कह	-842
▁धी	-843
▁पव	-844
▁पौ	-845
▁मस	-846
▁मै	-847
पिता	-848
मकीन	-849
शीर्	-850
▁उत्	-851
▁नाम	-852
▁बहू	-853
▁मान	-854
▁मोम	-855
▁संत	-856
▁सही	-857
▁ठंडी	-858
▁देता	-859
▁देते	-860
▁लगाओ	-861
ार्थना	-862
▁आशीर्	-863
▁डालकर	-864
▁दोस्त	-865
▁पड़ता	-866
▁चूल्हे	-867
▁पवित्र	-868
▁आशीर्वाद	-869
▁प्रार्थना	-870
णा	-871
फी	-872
लू	-873
वे	-874
सु	-875
ोर	-876
▁ई	-877
▁ऊ	-878
▁अल	-879
▁घं	-880
▁जै	-881
▁फू	-882
▁भो	-883
▁शह	-884
क्रम	-885
योगी	-886
लायम	-887
ार्क	-888
ृत्य	-889
ेदार	-890
▁उगा	-891
▁गिर	-892
▁गुण	-893
▁गूं	-894
▁बगी	-895
▁बदल	-896
▁योग	-897
▁लोग	-898
▁सला	-899
▁उबाल	-900
▁चाचा	-901
▁जाने	-902
▁तीखा	-903
▁दर्द	-904
▁बैठे	-905
▁मसाल	-906
▁रहता	-907
▁लिया	-908
▁वाला	-909
▁सांस	-910
▁देखकर	-911
▁नमकीन	-912
▁नृत्य	-913
▁पत्ते	-914
▁पार्क	-915
▁हल्दी	-916
▁उपयोगी	-917
▁करूंगा	-918
▁किनारे	-919
▁तैयारी	-920
▁नियमित	-921
▁मुलायम	-922
▁तुम्हारे	-923
चे	-924
पो	-925
िस	-926
स्ट	-927
्ते	-928
▁इं	-929
▁जू	-930
▁डि	-931
▁धन	-932
▁बू	-933
इकिल	-934
▁कड़	-935
▁खिल	-936
▁लगे	-937
▁साम	-938
▁साव	-939
▁सिर	-940
▁खिला	-941
▁ठंडा	-942
▁नाना	-943
▁पिला	-944
▁बांट	-945
▁बिना	-946
▁रोटी	-947
▁वाले	-948
▁होकर	-949
▁अंधेरे	-950
▁मोमबत्ती	-951
▁कार्यक्रम	-952
पस	-953
भव	-954
मे	-955
वश	-956
ास	-957
्व	-958
बुन	-959
याम	-960
ांत	-961
▁अभ	-962
▁खि	-963
▁टी	-964
▁धै	-965
▁नव	-966
▁पि	-967
वाली	-968
▁उड़	-969
▁जान	-970
▁तिल	-971
▁नया	-972
▁नार	-973
▁पेट	-974
▁भती	-975
▁भरा	-976
▁भाग	-977
▁सास	-978
▁इत्र	-979
▁कमरे	-980
▁दीया	-981
▁पीला	-982
▁बूंद	-983
▁बेटी	-984
▁मेहन	-985
▁रखनी	-986
▁रहती	-987
▁सेवा	-988
▁धैर्य	-989
▁प्रति	-990
▁बाजार	-991
▁लगाया	-992
▁साबुन	-993
▁मिलेगी	-994
झा	-995
धी	-996
बर	-997
यर	-998
हत	-999
ुट	-1000
ून	-1001
क्स	-1002
बिर	-1003
रती	-1004
लता	-1005
लाई	-1006
ेशन	-1007
्रे	-1008
▁खी	-1009
▁गो	-1010
▁जो	-1011
▁थी	-1012
▁दौ	-1013
▁मज	-1014
▁वो	-1015
कारा	-1016
र्तन	-1017
स्या	-1018
▁चीज	-1019
▁जन्	-1020
▁पार	-1021
▁बीज	-1022
▁रहो	-1023
▁लाभ	-1024
▁हरे	-1025
▁हल्	-1026
▁गुड़	-1027
▁घड़ी	-1028
▁दिया	-1029
▁देखा	-1030
▁पहनी	-1031
▁प्या	-1032
▁मिली	-1033
▁रहते	-1034
▁व्या	-1035
▁सीखा	-1036
▁उपयोग	-1037
▁खेलते	-1038
▁मेहनत	-1039
▁सुनना	-1040
▁दादाजी	-1041
▁पत्तों	-1042
▁पिताजी	-1043
▁रास्ता	-1044
▁खुशबूदार	-1045
▁व्यवस्था	-1046
इल	-1047
गत	-1048
गर	-1049
ब्	-1050
ॉक	-1051
ंगल	-1052
खार	-1053
दरक	-1054
िरण	-1055
ेंक	-1056
▁अध	-1057
▁कू	-1058
▁चि	-1059
▁डू	-1060
वश्य	-1061
▁इस्	-1062
▁कान	-1063
▁कित	-1064
▁खाद	-1065
▁गरम	-1066
▁दही	-1067
▁हुए	-1068
▁अदरक	-1069
▁काली	-1070
▁किरण	-1071
▁गाते	-1072
▁चमकी	-1073
▁छोटी	-1074
▁मामा	-1075
▁रखता	-1076
▁लेता	-1077
▁सकते	-1078
▁सबको	-1079
▁सुखा	-1080
▁उगाता	-1081
▁जरूरत	-1082
▁बुखार	-1083
▁लगाकर	-1084
▁सच्चे	-1085
▁सर्दी	-1086
▁सीखना	-1087
▁तुम्हारा	-1088
ंक	-1089
इट	-1090
ट्	-1091
बल	-1092
हक	-1093
ुप	-1094
ंसी	-1095
कता	-1096
गीत	-1097
त्व	-1098
दाय	-1099
माल	-1100
र्व	-1101
र्ष	-1102
ियो	-1103
▁इस	-1104
▁कट	-1105
▁तब	-1106
▁प्	-1107
▁लह	-1108
एंगे	-1109
ड़ता	-1110
र्या	-1111
ेशान	-1112
▁अना	-1113
▁अभी	-1114
▁कमी	-1115
▁टिक	-1116
▁नीम	-1117
▁भाव	-1118
▁मही	-1119
▁शुभ	-1120
▁शोर	-1121
▁सफ़	-1122
▁सरस	-1123
▁स्म	-1124
▁खेला	-1125
▁ग्रा	-1126
▁छोटे	-1127
▁पक्ष	-1128
▁पड़ा	-1129
▁बेटे	-1130
▁आंखें	-1131
▁आवश्य	-1132
▁चाहता	-1133
▁चित्र	-1134
▁जलाने	-1135
▁देखता	-1136
▁बर्तन	-1137
▁मालिश	-1138
▁शुद्ध	-1139
▁परेशान	-1140
▁लोकगीत	-1141
▁स्वागत	-1142
जर	-1143
जल	-1144
करी	-1145
केट	-1146
क्ट	-1147
धान	-1148
स्क	-1149
ाली	-1150
ोरी	-1151
▁छत	-1152
▁भि	-1153
▁मछ	-1154
▁मू	-1155
▁वी	-1156
▁सह	-1157
ार्म	-1158
▁आने	-1159
▁कला	-1160
▁कोई	-1161
▁गंध	-1162
▁गले	-1163
▁टहल	-1164
▁पंख	-1165
▁मक्	-1166
▁लड़	-1167
▁लाओ	-1168
▁सुख	-1169
क्षित	-1170
▁आरती	-1171
▁आसान	-1172
▁कारण	-1173
▁काले	-1174
▁गाया	-1175
▁गूंज	-1176
▁छाया	-1177
▁तीखी	-1178
▁पूरे	-1179
▁पोते	-1180
▁बनाई	-1181
▁बैंग	-1182
▁बैठा	-1183
▁भोजन	-1184
▁रस्म	-1185
▁लगते	-1186
▁सबके	-1187
▁समान	-1188
▁सलाह	-1189
▁सोने	-1190
▁होली	-1191
▁आंखों	-1192
▁कक्षा	-1193
▁खट्टी	-1194
▁पढ़ता	-1195
▁बगीचे	-1196
▁बजाकर	-1197
▁मंत्र	-1198
▁साड़ी	-1199
▁हमारा	-1200
ड़कियां	-1201
▁मात्रा	-1202
▁समस्या	-1203
▁साइकिल	-1204
▁सुरक्षित	-1205
ग्	-1206
ठे	-1207
दे	-1208
धे	-1209
यल	-1210
सव	-1211
ेज	-1212
चान	-1213
ढ़ी	-1214
दान	-1215
र्स	-1216
लेट	-1217
वरण	-1218
वर्	-1219
वास	-1220
हरे	-1221
ांस	-1222
▁अम	-1223
▁झू	-1224
▁नए	-1225
▁नौ	-1226
▁लौ	-1227
▁हल	-1228
कड़ी	-1229
ज़ार	-1230
डियो	-1231
त्री	-1232
बाइल	-1233
मारी	-1234
स्सी	-1235
▁गेम	-1236
▁तुल	-1237
▁दुख	-1238
▁पहु	-1239
▁पाल	-1240
▁महक	-1241
▁सभा	-1242
▁करवा	-1243
▁कुर्	-1244
▁क्या	-1245
▁ट्रै	-1246
▁ताज़	-1247
▁दांत	-1248
▁पहना	-1249
▁पहने	-1250
▁होने	-1251
▁अनुभव	-1252
▁डालता	-1253
▁फायदा	-1254
▁बजाना	-1255
▁बारात	-1256
▁लगाना	-1257
▁शामिल	-1258
▁कीर्तन	-1259
▁छुट्टी	-1260
▁परोसने	-1261
▁प्रयोग	-1262
▁मोबाइल	-1263
▁जानकारी	-1264
▁बारातियों	-1265
ंट	-1266
गो	-1267
ज्	-1268
फा	-1269
बी	-1270
मु	-1271
रो	-1272
हट	-1273
ीक	-1274
्ण	-1275
ंजी	-1276
तार	-1277
भाव	-1278
मोन	-1279
म्र	-1280
लती	-1281
व्य	-1282
शिश	-1283
साब	-1284
हरी	-1285
ाना	-1286
िटी	-1287
ियल	-1288
▁कव	-1289
▁चौ	-1290
▁जि	-1291
▁झु	-1292
▁तो	-1293
▁मत	-1294
▁सद	-1295
त्ता	-1296
त्मक	-1297
त्मा	-1298
दारी	-1299
लाइन	-1300
सरों	-1301
्वचा	-1302
▁अंग	-1303
▁कमल	-1304
▁ठीक	-1305
▁तान	-1306
▁दान	-1307
▁दाम	-1308
▁पहा	-1309
▁फोन	-1310
▁रखा	-1311
▁रिश	-1312
▁रोग	-1313
▁लें	-1314
▁विक	-1315
▁शहद	-1316
▁समझ	-1317
▁सिल	-1318
▁सोच	-1319
्यादा	-1320
▁कर्म	-1321
▁गहने	-1322
▁चांद	-1323
▁चाची	-1324
▁जन्म	-1325
▁पुरा	-1326
▁बिल्	-1327
▁बेटा	-1328
▁मामी	-1329
▁माला	-1330
▁लगाई	-1331
▁लेकर	-1332
▁लेना	-1333
▁वाली	-1334
▁होना	-1335
मोनियम	-1336
▁आत्मा	-1337
▁कड़वी	-1338
▁कानों	-1339
▁कोशिश	-1340
▁खेलना	-1341
▁तुलसी	-1342
▁त्वचा	-1343
▁बैठकर	-1344
▁मित्र	-1345
▁विचार	-1346
▁शक्ति	-1347
▁हिसाब	-1348
▁जाऊंगा	-1349
▁शिक्षा	-1350
कारात्मक	-1351
▁दोस्तों	-1352
▁लाभकारी	-1353
▁व्यायाम	-1354
▁लड़कियां	-1355
▁हारमोनियम	-1356
डी	-1357
पन	-1358
मो	-1359
ृद	-1360
ेर	-1361
ॉप	-1362
ंबू	-1363
जना	-1364
जात	-1365
ण्य	-1366
धार	-1367
नंद	-1368
बॉल	-1369
रवा	-1370
र्न	-1371
शीन	-1372
िमा	-1373
्रत	-1374
्रि	-1375
▁ओर	-1376
▁कई	-1377
▁ज्	-1378
▁टे	-1379
▁फु	-1380
▁यो	-1381
▁ली	-1382
ड़ने	-1383
दायक	-1384
माटर	-1385
रीके	-1386
र्जा	-1387
ल्ला	-1388
श्ता	-1389
सुरी	-1390
▁आटा	-1391
▁कमज	-1392
▁क्ष	-1393
▁जमी	-1394
▁जाप	-1395
▁डूब	-1396
▁तैर	-1397
▁नाव	-1398
▁पाठ	-1399
▁पाप	-1400
▁बनी	-1401
▁बोल	-1402
▁मोह	-1403
▁राग	-1404
▁लंब	-1405
▁लगी	-1406
▁लिख	-1407
▁विश	-1408
▁समा	-1409
▁हरा	-1410
कृतिक	-1411
तेमाल	-1412
नलाइन	-1413
वत्ता	-1414
स्थित	-1415
▁अचार	-1416
▁आनंद	-1417
▁खाते	-1418
▁धोकर	-1419
▁निभा	-1420
▁पालन	-1421
▁फूफा	-1422
▁बनता	-1423
▁बनवा	-1424
▁बेचो	-1425
▁भीड़	-1426
▁मशीन	-1427
▁रहना	-1428
▁रिक्	-1429
▁लाइट	-1430
▁लेने	-1431
▁व्रत	-1432
▁चीजें	-1433
▁चूर्ण	-1434
▁चेहरे	-1435
▁जलाते	-1436
▁जलाना	-1437
▁टमाटर	-1438
▁डालने	-1439
▁तरीके	-1440
▁दीवार	-1441
▁देखते	-1442
▁धनिया	-1443
▁नवजात	-1444
▁नहाने	-1445
▁नींबू	-1446
▁पढ़ना	-1447
▁पहुंच	-1448
▁प्याज	-1449
▁बनाकर	-1450
▁बालों	-1451
▁बोर्ड	-1452
▁महत्व	-1453
▁महिला	-1454
▁महीने	-1455
▁रक्षा	-1456
▁लगाने	-1457
▁सफ़ेद	-1458
▁आवश्यक	-1459
▁इंतजार	-1460
▁किरणें	-1461
▁ग्राहक	-1462
▁दूसरों	-1463
▁नारियल	-1464
▁नाश्ता	-1465
▁बूंदें	-1466
▁मिलेगा	-1467
▁सुनहरी	-1468
▁बांसुरी	-1469
▁इस्तेमाल	-1470
▁गुणवत्ता	-1471
▁मसालेदार	-1472
गु	-1473
टक	-1474
थी	-1475
पल	-1476
लर	-1477
वट	-1478
ुक	-1479
ेह	-1480
ंबर	-1481
कुल	-1482
क्त	-1483
म्म	-1484
राब	-1485
रों	-1486
सुर	-1487
ोटो	-1488
्रह	-1489
▁अख	-1490
▁अग	-1491
▁कब	-1492
▁गि	-1493
▁दस	-1494
▁शै	-1495
धानी	-1496
लाया	-1497
साला	-1498
ेंगे	-1499
्याल	-1500
्यूम	-1501
▁आलू	-1502
▁कथा	-1503
▁खरी	-1504
▁खीर	-1505
▁गईं	-1506
▁गेह	-1507
▁चेक	-1508
▁जाग	-1509
▁जाम	-1510
▁टूट	-1511
▁ताल	-1512
▁देव	-1513
▁धूल	-1514
▁नाक	-1515
▁पुल	-1516
▁फैन	-1517
▁बचा	-1518
▁बिल	-1519
▁बुआ	-1520
▁भगा	-1521
▁मजा	-1522
▁राम	-1523
▁रेत	-1524
▁श्र	-1525
▁समु	-1526
ष्टिक	-1527
▁गंगा	-1528
▁चढ़ा	-1529
▁छोटा	-1530
▁टिकट	-1531
▁टीवी	-1532
▁ठंडक	-1533
▁दरवा	-1534
▁धीमी	-1535
▁पड़ो	-1536
▁पीने	-1537
▁पीली	-1538
▁बड़े	-1539
▁बुरा	-1540
▁बैंक	-1541
▁भरने	-1542
▁मार्	-1543
▁रंगी	-1544
▁रखने	-1545
▁लिखा	-1546
▁ससुर	-1547
▁सेहत	-1548
▁स्वर	-1549
योगिता	-1550
▁ख्याल	-1551
▁चलाते	-1552
▁देखने	-1553
▁नौकरी	-1554
▁पत्ती	-1555
▁पहचान	-1556
▁पहनती	-1557
▁पुण्य	-1558
▁बनाती	-1559
▁मसाला	-1560
▁महंगा	-1561
▁मिलाओ	-1562
▁लकड़ी	-1563
▁सीखने	-1564
▁सुनने	-1565
▁करेंगे	-1566
▁ज्यादा	-1567
▁बैंगनी	-1568
▁रिश्ते	-1569
▁सावधान	-1570
▁स्मृति	-1571
▁स्वच्छ	-1572
▁प्रकृति	-1573
▁सावधानी	-1574
▁प्रतियोगिता	-1575
इन	-1576
खन	-1577
चन	-1578
चि	-1579
छा	-1580
दल	-1581
नट	-1582
पर	-1583
यन	-1584
ेट	-1585
्ल	-1586
ज़ा	-1587
दर्	-1588
दिन	-1589
नाई	-1590
फली	-1591
बंध	-1592
बूत	-1593
लने	-1594
ल्ब	-1595
वरी	-1596
सुन	-1597
स्प	-1598
ारो	-1599
ोली	-1600
▁आद	-1601
▁कठ	-1602
▁गण	-1603
▁चट	-1604
▁थे	-1605
▁नम	-1606
▁पं	-1607
ंचाई	-1608
क्षण	-1609
ग्री	-1610
ड़की	-1611
त्रि	-1612
मीठा	-1613
मेंट	-1614
ष्टि	-1615
ारों	-1616
ेंडर	-1617
्यास	-1618
्यूज	-1619
▁तड़	-1620
▁तित	-1621
▁तीन	-1622
▁तुर	-1623
▁थाप	-1624
▁परफ	-1625
▁परी	-1626
▁पाउ	-1627
▁पों	-1628
▁बुक	-1629
▁भूख	-1630
▁भेज	-1631
▁शिव	-1632
▁सप्	-1633
▁सफल	-1634
▁हनु	-1635
▁हिल	-1636
जियों	-1637
तावरण	-1638
लायची	-1639
ूल्हा	-1640
▁इंटर	-1641
▁ईमान	-1642
▁कहाँ	-1643
▁काला	-1644
▁खत्म	-1645
▁गर्व	-1646
▁गहरा	-1647
▁गाकर	-1648
▁गाने	-1649
▁घंटे	-1650
▁जाना	-1651
▁जूते	-1652
▁तबला	-1653
▁देने	-1654
▁देवर	-1655
▁धोने	-1656
▁नंबर	-1657
▁पढ़ा	-1658
▁पैदल	-1659
▁पौधे	-1660
▁फोटो	-1661
▁बल्ब	-1662
▁बांध	-1663
▁भाभी	-1664
▁भिगो	-1665
▁मछली	-1666
▁मिनट	-1667
▁मुस्	-1668
▁लक्ष	-1669
▁लोशन	-1670
▁वीणा	-1671
▁सूखे	-1672
▁सेंक	-1673
बिरंगे	-1674
▁ऊर्जा	-1675
▁कार्ड	-1676
▁कृष्ण	-1677
▁गेहूं	-1678
▁चलाता	-1679
▁टहलने	-1680
▁पकाने	-1681
▁प्रिय	-1682
▁भतीजे	-1683
▁भावना	-1684
▁मसाले	-1685
▁मैदान	-1686
▁योजना	-1687
▁रंगीन	-1688
▁लहसुन	-1689
▁सरसों	-1690
▁हल्का	-1691
▁अभ्यास	-1692
▁इलायची	-1693
▁दीवाली	-1694
▁बाज़ार	-1695
▁बादलों	-1696
▁रिक्शा	-1697
▁सिंचाई	-1698
▁स्टेशन	-1699
▁हनुमान	-1700
▁परफ्यूम	-1701
▁महिलाओं	-1702
▁रोज़ाना	-1703
▁वातावरण	-1704
▁सुंदरता	-1705
▁पक्षियों	-1706
▁प्राकृतिक	-1707
▁रिश्तेदार	-1708
ंघ	-1709
इस	-1710
गल	-1711
चक	-1712
तल	-1713
दू	-1714
नल	-1715
पु	-1716
बत	-1717
ीम	-1718
ेड	-1719
ोध	-1720
्स	-1721
ँगा	-1722
कट्	-1723
काश	-1724
छता	-1725
जाम	-1726
जिट	-1727
त्स	-1728
निक	-1729
नीक	-1730
नेस	-1731
बार	-1732
म्प	-1733
श्च	-1734
साह	-1735
सूस	-1736
स्व	-1737
हाय	-1738
ुड़	-1739
ैंड	-1740
ोटी	-1741
ोसा	-1742
्टी	-1743
्मी	-1744
्रो	-1745
▁अह	-1746
▁आप	-1747
▁एल	-1748
▁चम	-1749
▁छह	-1750
▁टा	-1751
▁टै	-1752
▁धु	-1753
▁फे	-1754
▁रव	-1755
▁वॉ	-1756
▁हॉ	-1757
क्शन	-1758
जाला	-1759
जिटल	-1760
ड्डी	-1761
ढ़ाई	-1762
तव्य	-1763
द्धि	-1764
धीरे	-1765
र्ति	-1766
ियाँ	-1767
▁अके	-1768
▁अर्	-1769
▁आपस	-1770
▁कां	-1771
▁काल	-1772
▁कीम	-1773
▁कुत	-1774
▁खुद	-1775
▁खोद	-1776
▁घास	-1777
▁चंद	-1778
▁चली	-1779
▁छुप	-1780
▁जमा	-1781
▁जीत	-1782
▁टपक	-1783
▁तली	-1784
▁नगा	-1785
▁पंच	-1786
▁पिक	-1787
▁बता	-1788
▁भरी	-1789
▁रुक	-1790
▁लहर	-1791
▁स्प	-1792
त्संग	-1793
पूर्ण	-1794
पोर्ट	-1795
श्किल	-1796
ियाली	-1797
ुपयोग	-1798
ुष्टि	-1799
▁अड्ड	-1800
▁अस्प	-1801
▁आश्च	-1802
▁इकट्	-1803
▁उठता	-1804
▁कठिन	-1805
▁कृपा	-1806
▁गहरी	-1807
▁घंटी	-1808
▁चटनी	-1809
▁चालू	-1810
▁चीज़	-1811
▁छोड़	-1812
▁जनों	-1813
▁जीरा	-1814
▁ठंडे	-1815
▁तैरा	-1816
▁दाने	-1817
▁देखो	-1818
▁धीरे	-1819
▁नर्स	-1820
▁पंखा	-1821
▁पड़े	-1822
▁पांच	-1823
▁फेंक	-1824
▁बचने	-1825
▁बर्फ	-1826
▁बाहर	-1827
▁बुरे	-1828
▁मंगल	-1829
▁मिठा	-1830
▁मीटर	-1831
▁मेला	-1832
▁मोटर	-1833
▁मोती	-1834
▁लंबी	-1835
▁लेनी	-1836
▁वापस	-1837
▁सजाओ	-1838
▁समुद	-1839
▁हवाई	-1840
बिरंगी	-1841
रात्रि	-1842
▁उजाला	-1843
▁उत्सव	-1844
▁काढ़ा	-1845
▁कितने	-1846
▁खट्टे	-1847
▁खांसी	-1848
▁गिरने	-1849
▁चलाना	-1850
▁चारों	-1851
▁जामुन	-1852
▁तकनीक	-1853
▁तुरंत	-1854
▁दामाद	-1855
▁दिखाओ	-1856
▁पड़ती	-1857
▁पत्ता	-1858
▁पत्नी	-1859
▁पाउडर	-1860
▁पिलाओ	-1861
▁बर्फ़	-1862
▁बातें	-1863
▁बादाम	-1864
▁मक्खन	-1865
▁मजबूत	-1866
▁मनाते	-1867
▁महसूस	-1868
▁लगाते	-1869
▁विकास	-1870
▁शहनाई	-1871
▁सफलता	-1872
▁सरस्व	-1873
▁सुनते	-1874
▁हाथों	-1875
▁अपनाना	-1876
▁अपनानी	-1877
▁इंतजाम	-1878
▁कुर्ता	-1879
▁खिड़की	-1880
▁गुलाबी	-1881
▁डिजिटल	-1882
▁नगाड़े	-1883
▁पड़ोसी	-1884
▁प्रसाद	-1885
▁मिलाकर	-1886
▁मेहंदी	-1887
▁रविवार	-1888
▁रेडियो	-1889
▁सत्संग	-1890
▁सिखाते	-1891
▁आश्चर्य	-1892
▁कर्तव्य	-1893
▁जन्मदिन	-1894
▁परीक्षा	-1895
▁पहाड़ों	-1896
▁पौष्टिक	-1897
▁बिल्कुल	-1898
▁मुश्किल	-1899
▁मुस्कान	-1900
▁सदुपयोग	-1901
▁सुरक्षा	-1902
▁हरियाली	-1903
▁व्यवस्थित	-1904
आत	-1905
इज	-1906
कु	-1907
टो	-1908
नि	-1909
पण	-1910
ष्	-1911
सफ	-1912
ील	-1913
ुम	-1914
ूथ	-1915
ेष	-1916
ैर	-1917
ौक	-1918
ंडी	-1919
ंबा	-1920
क्क	-1921
जों	-1922
ट्स	-1923
ताल	-1924
तें	-1925
पहर	-1926
मेल	-1927
रीर	-1928
वनी	-1929
वाल	-1930
ष्य	-1931
सार	-1932
िएं	-1933
ोपी	-1934
▁अर	-1935
▁आँ	-1936
▁कच	-1937
▁गर	-1938
▁गल	-1939
▁छि	-1940
▁छू	-1941
▁जु	-1942
▁जे	-1943
▁टॉ	-1944
▁डे	-1945
▁पत	-1946
▁पश	-1947
▁फि	-1948
▁फी	-1949
▁बर	-1950
▁लू	-1951
▁शा	-1952
▁सप	-1953
क्कर	-1954
च्छा	-1955
न्ने	-1956
प्पल	-1957
मोशी	-1958
योजन	-1959
रुआत	-1960
रेटर	-1961
र्बत	-1962
वर्क	-1963
स्तर	-1964
हारा	-1965
ारोह	-1966
ार्ट	-1967
ूल्य	-1968
ृदंग	-1969
्वास	-1970
▁अलग	-1971
▁आटे	-1972
▁आते	-1973
▁आदर	-1974
▁इन्	-1975
▁काग	-1976
▁कूद	-1977
▁खाओ	-1978
▁गति	-1979
▁गाए	-1980
▁घोल	-1981
▁जूस	-1982
▁जोत	-1983
▁झंड	-1984
▁डाय	-1985
▁दीप	-1986
▁पीस	-1987
▁फुट	-1988
▁बिर	-1989
▁बेल	-1990
▁बेह	-1991
▁भंड	-1992
▁भां	-1993
▁भूल	-1994
▁महा	-1995
▁रोम	-1996
▁वजन	-1997
▁विद	-1998
▁व्ह	-1999
▁शौक	-2000
▁संर	-2001
▁सीट	-2002
▁सोल	-2003
▁हटा	-2004
▁होम	-2005
णायाम	-2006
लियां	-2007
स्कुट	-2008
हायता	-2009
▁अगले	-2010
▁इंजन	-2011
▁केला	-2012
▁केसर	-2013
▁कॉपी	-2014
▁कॉफी	-2015
▁खड़ा	-2016
▁खड़े	-2017
▁खराब	-2018
▁खर्च	-2019
▁खिले	-2020
▁खिलौ	-2021
▁खुली	-2022
▁चंदन	-2023
▁चलता	-2024
▁चलना	-2025
▁चूड़	-2026
▁जमीन	-2027
▁जैसा	-2028
▁टेबल	-2029
▁डांस	-2030
▁ढफली	-2031
▁तारे	-2032
▁तिलक	-2033
▁तेजी	-2034
▁थाली	-2035
▁दुर्	-2036
▁दौड़	-2037
▁धोना	-2038
▁नाटक	-2039
▁नीला	-2040
▁पकने	-2041
▁पीना	-2042
▁फूफी	-2043
▁बदबू	-2044
▁बिता	-2045
▁बुला	-2046
▁बोतल	-2047
▁भस्म	-2048
▁भारी	-2049
▁भूरा	-2050
▁मानस	-2051
▁राहत	-2052
▁शरीर	-2053
▁शर्ट	-2054
▁सबका	-2055
▁सलाद	-2056
▁सिता	-2057
▁सुहा	-2058
▁सूजन	-2059
▁हंसी	-2060
▁हलवा	-2061
ार्मिक	-2062
▁अंगूर	-2063
▁आयोजन	-2064
▁इच्छा	-2065
▁कराएं	-2066
▁कराना	-2067
▁कविता	-2068
▁काटता	-2069
▁काटने	-2070
▁कितना	-2071
▁तितली	-2072
▁दर्शन	-2073
▁दोपहर	-2074
▁पकाना	-2075
▁पहनना	-2076
▁पूर्ण	-2077
▁बगीचा	-2078
▁बजाने	-2079
▁बढ़ता	-2080
▁बढ़ती	-2081
▁भक्ति	-2082
▁मिठास	-2083
▁मृदंग	-2084
▁रस्सी	-2085
▁लस्सी	-2086
▁शर्बत	-2087
▁सजावट	-2088
▁सामने	-2089
▁सुधार	-2090
र्यास्त	-2091
▁अलमारी	-2092
▁कपड़ों	-2093
▁कमजोरी	-2094
▁खामोशी	-2095
▁चढ़ाने	-2096
▁चमकीली	-2097
▁चूल्हा	-2098
▁नारंगी	-2099
▁पिकनिक	-2100
▁पेमेंट	-2101
▁प्राप्	-2102
▁फुटबॉल	-2103
▁बढ़ाने	-2104
▁बिस्तर	-2105
▁बूंदों	-2106
▁मजेदार	-2107
▁मेहमान	-2108
▁रंगोली	-2109
▁शुरुआत	-2110
▁श्रद्ध	-2111
▁समारोह	-2112
▁सहायता	-2113
▁स्वस्थ	-2114
▁गुड़िया	-2115
▁धार्मिक	-2116
▁बिस्कुट	-2117
▁विचारों	-2118
▁व्यवहार	-2119
▁संरक्षण	-2120
▁सरस्वती	-2121
▁सामग्री	-2122
▁आरामदायक	-2123
▁संतुष्टि	-2124
▁संस्कृति	-2125
▁स्वच्छता	-2126
▁त्योहारों	-2127
▁प्राणायाम	-2128
▁सकारात्मक	-2129
▁सूर्यास्त	-2130
▁महत्वपूर्ण	-2131
ँद	-2132
ँव	-2133
इक	-2134
एम	-2135
छे	-2136
डो	-2137
थे	-2138
दय	-2139
यण	-2140
शे	-2141
ूम	-2142
ृह	-2143
ेव	-2144
ंगन	-2145
ंटर	-2146
ंबल	-2147
ंसू	-2148
एगा	-2149
कून	-2150
ग्र	-2151
चित	-2152
ज़र	-2153
जूर	-2154
ड़ू	-2155
तरा	-2156
द्य	-2157
नान	-2158
नेट	-2159
पूर	-2160
बाद	-2161
बुक	-2162
ब्ध	-2163
मली	-2164
मार	-2165
लाज	-2166
लान	-2167
वना	-2168
वला	-2169
वीर	-2170
श्न	-2171
सित	-2172
हला	-2173
ायर	-2174
ाला	-2175
िंट	-2176
िका	-2177
िलो	-2178
ेंद	-2179
ेंस	-2180
ेयर	-2181
ेशर	-2182
ैंक	-2183
ैंस	-2184
ोदय	-2185
्टर	-2186
्ता	-2187
▁अव	-2188
▁अश	-2189
▁आक	-2190
▁उन	-2191
▁एड	-2192
▁गू	-2193
▁झा	-2194
▁नल	-2195
▁बॉ	-2196
▁यू	-2197
ंदगी	-2198
ंपरा	-2199
इयों	-2200
क्सी	-2201
ट्टा	-2202
नम्र	-2203
पमान	-2204
पूरा	-2205
फ़िक	-2206
मुखी	-2207
म्पू	-2208
राया	-2209
र्चा	-2210
स्टर	-2211
िकेट	-2212
ुमक्	-2213
्याय	-2214
▁अगर	-2215
▁अहं	-2216
▁आगे	-2217
▁आना	-2218
▁कंघ	-2219
▁कव्	-2220
▁खोज	-2221
▁खोल	-2222
▁गलत	-2223
▁गला	-2224
▁गोद	-2225
▁चुन	-2226
▁चुप	-2227
▁जाओ	-2228
▁जीव	-2229
▁तस्	-2230
▁तौल	-2231
▁दया	-2232
▁धान	-2233
▁धुल	-2234
▁धोए	-2235
▁नरम	-2236
▁नवा	-2237
▁पंद	-2238
▁पंप	-2239
▁पता	-2240
▁पशु	-2241
▁पैर	-2242
▁पॉल	-2243
▁फर्	-2244
▁फिर	-2245
▁बचत	-2246
▁बैग	-2247
▁ब्ल	-2248
▁भरे	-2249
▁भोज	-2250
▁मंच	-2251
▁मचा	-2252
▁मैच	-2253
▁राज	-2254
▁राह	-2255
▁रेट	-2256
▁वटी	-2257
▁विष	-2258
▁संप	-2259
▁सेब	-2260
▁स्त	-2261
▁हंस	-2262
ंजीरे	-2263
दर्शन	-2264
माष्ट	-2265
म्मेद	-2266
र्षित	-2267
स्कार	-2268
िल्ली	-2269
ेशानी	-2270
▁अधिक	-2271
▁अनाज	-2272
▁आंसू	-2273
▁आएगा	-2274
▁आत्म	-2275
▁आहार	-2276
▁इमली	-2277
▁इलाज	-2278
▁उठकर	-2279
▁उड़ा	-2280
▁उतार	-2281
▁एक्स	-2282
▁कंबल	-2283
▁कच्च	-2284
▁कागज	-2285
▁खजूर	-2286
▁खड़ी	-2287
▁खाकर	-2288
▁गणेश	-2289
▁गाँव	-2290
▁गायक	-2291
▁गायन	-2292
▁गूंथ	-2293
▁चाली	-2294
▁चिल्	-2295
▁जंगल	-2296
▁जाकर	-2297
▁झंडे	-2298
▁झूला	-2299
▁टैंक	-2300
▁टोपी	-2301
▁डूबा	-2302
▁ताजी	-2303
▁दाना	-2304
▁दिमा	-2305
▁दिला	-2306
▁नीली	-2307
▁पकाओ	-2308
▁पत्थ	-2309
▁परां	-2310
▁पायल	-2311
▁पिएं	-2312
▁फिसल	-2313
▁बचपन	-2314
▁बजाई	-2315
▁बीता	-2316
▁बुझा	-2317
▁ब्रे	-2318
▁माना	-2319
▁रखती	-2320
▁राखी	-2321
▁रुचि	-2322
▁लंबा	-2323
▁लगने	-2324
▁लोरी	-2325
▁सकता	-2326
▁सबकी	-2327
▁सीखी	-2328
▁सुनी	-2329
▁सुला	-2330
▁सूखा	-2331
▁सोलर	-2332
▁हिला	-2333
▁हेयर	-2334
केटिंग	-2335
साइकिल	-2336
्यात्म	-2337
▁अखबार	-2338
▁अड्डे	-2339
▁आदतें	-2340
▁कड़वा	-2341
▁कीड़े	-2342
▁क्रीम	-2343
▁क्रॉप	-2344
▁क्रोध	-2345
▁गन्ने	-2346
▁चप्पल	-2347
▁चांदी	-2348
▁छिड़क	-2349
▁तड़का	-2350
▁ताज़ी	-2351
▁दिखाई	-2352
▁नहाना	-2353
▁पढ़ते	-2354
▁परोसो	-2355
▁बजाते	-2356
▁बनाया	-2357
▁बुराई	-2358
▁बेहतर	-2359
▁भंडार	-2360
▁भरपूर	-2361
▁मानते	-2362
▁रोमां	-2363
▁लगाएं	-2364
▁लड़के	-2365
▁लहंगा	-2366
▁वाद्य	-2367
▁व्याप	-2368
▁शक्कर	-2369
▁संवार	-2370
▁सरसरा	-2371
▁सहारा	-2372
▁सुकून	-2373
▁स्नान	-2374
▁हल्की	-2375
माष्टमी	-2376
▁उत्साह	-2377
▁उबालकर	-2378
▁उबालते	-2379
▁कलाकार	-2380
▁कुत्ते	-2381
▁कुर्सी	-2382
▁चमकदार	-2383
▁चमकीला	-2384
▁जोड़ों	-2385
▁तस्वीर	-2386
▁तापमान	-2387
▁तैराकी	-2388
▁पंखुड़	-2389
▁पंद्रह	-2390
▁पड़ेगा	-2391
▁परंपरा	-2392
▁पुराना	-2393
▁पोंछता	-2394
▁बाल्टी	-2395
▁बिजनेस	-2396
▁बीमारी	-2397
▁मंजीरे	-2398
▁मधुमक्	-2399
▁विनम्र	-2400
▁शैम्पू	-2401
▁सच्चाई	-2402
▁समुद्र	-2403
▁सिखाया	-2404
▁स्प्रे	-2405
म्मेदारी	-2406
▁अस्पताल	-2407
▁इंटरनेट	-2408
▁इस्त्री	-2409
▁कव्वाली	-2410
▁तानपूरा	-2411
▁तुम्हें	-2412
▁नमस्कार	-2413
▁निकालना	-2414
▁परेशानी	-2415
▁मनाएंगे	-2416
▁सिलेंडर	-2417
▁सुहावना	-2418
▁अगरबत्ती	-2419
▁ईमानदारी	-2420
▁ट्रैफ़िक	-2421
▁पूर्णिमा	-2422
▁सूर्योदय	-2423
▁नकारात्मक	-2424
▁जन्माष्टमी	-2425
▁जिम्मेदारी	-2426
▁मोटरसाइकिल	-2427
अप	-2428
इप	-2429
इम	-2430
एस	-2431
कू	-2432
खे	-2433
चर	-2434
जू	-2435
डम	-2436
ढक	-2437
णी	-2438
तु	-2439
धक	-2440
धर	-2441
धि	-2442
नो	-2443
बे	-2444
भर	-2445
यु	-2446
शक	-2447
शम	-2448
सन	-2449
सि	-2450
ाँ	-2451
ेक	-2452
ैन	-2453
ोक	-2454
ौन	-2455
्म	-2456
ंटी	-2457
ंडा	-2458
ंता	-2459
ंदा	-2460
ंधा	-2461
काए	-2462
काम	-2463
काल	-2464
गरण	-2465
गान	-2466
गुल	-2467
जरा	-2468
जलि	-2469
जिक	-2470
टरी	-2471
टाम	-2472
टें	-2473
दूस	-2474
देव	-2475
धों	-2476
नगु	-2477
नाव	-2478
पात	-2479
पित	-2480
प्र	-2481
फिस	-2482
बों	-2483
भती	-2484
मता	-2485
यां	-2486
यास	-2487
रझा	-2488
राज	-2489
रान	-2490
रिक	-2491
र्ज	-2492
विक	-2493
विध	-2494
षिक	-2495
संत	-2496
सरे	-2497
सुथ	-2498
स्य	-2499
िली	-2500
िशन	-2501
ेला	-2502
ोवे	-2503
्रश	-2504
्रॉ	-2505
▁अस	-2506
▁आं	-2507
▁आध	-2508
▁आल	-2509
▁आह	-2510
▁उग	-2511
▁कफ	-2512
▁खर	-2513
▁ख़	-2514
▁चु	-2515
▁चै	-2516
▁टि	-2517
▁डी	-2518
▁डु	-2519
▁तट	-2520
▁तू	-2521
▁नक	-2522
▁नथ	-2523
▁पग	-2524
▁फा	-2525
▁मर	-2526
▁री	-2527
▁वै	-2528
▁शन	-2529
▁सव	-2530
▁हफ	-2531
ंडित	-2532
ंदेश	-2533
ऊँगा	-2534
क्सर	-2535
गंधा	-2536
चीनी	-2537
टीएम	-2538
ड़ते	-2539
डिंग	-2540
ताओं	-2541
त्ति	-2542
दादी	-2543
द्दू	-2544
न्ना	-2545
बिटी	-2546
मवार	-2547
रोधक	-2548
लाइट	-2549
लीला	-2550
वाला	-2551
शासन	-2552
श्मा	-2553
सिंग	-2554
ांति	-2555
ाट्स	-2556
ानिक	-2557
ार्ड	-2558
िंटन	-2559
िटार	-2560
ुदाय	-2561
्यूब	-2562
्रिज	-2563
्रोल	-2564
▁अधू	-2565
▁अभि	-2566
▁आँख	-2567
▁आईं	-2568
▁आकर	-2569
▁इले	-2570
▁ऊंच	-2571
▁एयर	-2572
▁कने	-2573
▁कभी	-2574
▁कूल	-2575
▁कैम	-2576
▁कैल	-2577
▁खबर	-2578
▁खाई	-2579
▁खास	-2580
▁गरज	-2581
▁गरी	-2582
▁गर्	-2583
▁गृह	-2584
▁गोल	-2585
▁चढ़	-2586
▁चाट	-2587
▁चूस	-2588
▁चॉक	-2589
▁जहा	-2590
▁जेन	-2591
▁टूथ	-2592
▁तवा	-2593
▁तार	-2594
▁दबा	-2595
▁दाह	-2596
▁निय	-2597
▁नेट	-2598
▁नोट	-2599
▁परा	-2600
▁पसी	-2601
▁पिओ	-2602
▁पैक	-2603
▁फिल	-2604
▁बिक	-2605
▁बैल	-2606
▁भेद	-2607
▁मंग	-2608
▁मंड	-2609
▁माफ	-2610
▁मुख	-2611
▁यूज	-2612
▁रसी	-2613
▁लाई	-2614
▁लिप	-2615
▁विज	-2616
▁शंख	-2617
▁शहर	-2618
▁शेव	-2619
▁सां	-2620
▁सार	-2621
▁स्थ	-2622
▁हवन	-2623
▁हृद	-2624
▁हों	-2625
▁होल	-2626
ंध्या	-2627
कार्य	-2628
टामिन	-2629
तियां	-2630
दूसरे	-2631
बिटीज	-2632
स्यों	-2633
▁अंदर	-2634
▁अनार	-2635
▁उचित	-2636
▁उम्र	-2637
▁एकता	-2638
▁कंघी	-2639
▁कटवा	-2640
▁कतार	-2641
▁कहीं	-2642
▁काजल	-2643
▁कीमत	-2644
▁कैरम	-2645
▁खरीद	-2646
▁खाएं	-2647
▁खाया	-2648
▁खींच	-2649
▁खेती	-2650
▁गहरे	-2651
▁गाजर	-2652
▁गाता	-2653
▁गिरी	-2654
▁गुस्	-2655
▁गेंद	-2656
▁घड़ा	-2657
▁चक्र	-2658
▁चलने	-2659
▁चादर	-2660
▁चिड़	-2661
▁टाइम	-2662
▁टीका	-2663
▁ट्रक	-2664
▁डिली	-2665
▁डेटा	-2666
▁तकली	-2667
▁तनाव	-2668
▁तबले	-2669
▁ताली	-2670
▁दवाई	-2671
▁दिखी	-2672
▁दिखे	-2673
▁देखे	-2674
▁देनी	-2675
▁देवी	-2676
▁धीमे	-2677
▁धोते	-2678
▁नहला	-2679
▁नाचा	-2680
▁निकल	-2681
▁पंखे	-2682
▁पड़ी	-2683
▁पाइप	-2684
▁पाचन	-2685
▁पावर	-2686
▁पिने	-2687
▁पीछे	-2688
▁पीते	-2689
▁पीले	-2690
▁पुदी	-2691
▁प्रे	-2692
▁फर्श	-2693
▁फैला	-2694
▁बचना	-2695
▁बजती	-2696
▁बसंत	-2697
▁बासी	-2698
▁बीमा	-2699
▁बुरी	-2700
▁बैठक	-2701
▁बैठी	-2702
▁बैडम	-2703
▁भरकर	-2704
▁भूरी	-2705
▁भूलो	-2706
▁भैंस	-2707
▁मज़ा	-2708
▁मनाई	-2709
▁मांग	-2710
▁मीठे	-2711
▁मेज़	-2712
▁यहाँ	-2713
▁राजा	-2714
▁रोशन	-2715
▁लगाए	-2716
▁लाया	-2717
▁लेती	-2718
▁लौकी	-2719
▁वार्	-2720
▁शुगर	-2721
▁सपने	-2722
▁समझा	-2723
▁सादा	-2724
▁सेवन	-2725
▁स्पी	-2726
▁हर्ष	-2727
▁हींग	-2728
▁हीटर	-2729
▁हैंड	-2730
▁होनी	-2731
कीर्तन	-2732
स्त्री	-2733
ुदायिक	-2734
▁अकेले	-2735
▁आंवला	-2736
▁उठाते	-2737
▁कढ़ाई	-2738
▁कद्दू	-2739
▁कमजोर	-2740
▁कांपा	-2741
▁कूड़ा	-2742
▁खुशनु	-2743
▁खेलकर	-2744
▁गिटार	-2745
▁गुणों	-2746
▁गुनगु	-2747
▁चमकते	-2748
▁चर्चा	-2749
▁चश्मा	-2750
▁चाहते	-2751
▁चिंता	-2752
▁चुनरी	-2753
▁जलाया	-2754
▁जाएगा	-2755
▁जागरण	-2756
▁तेज़ी	-2757
▁दिमाग	-2758
▁दूसरे	-2759
▁देखना	-2760
▁नहाता	-2761
▁नहाया	-2762
▁नाचते	-2763
▁निकला	-2764
▁न्याय	-2765
▁पंडित	-2766
▁पकाते	-2767
▁पक्षी	-2768
▁पट्टी	-2769
▁पढ़ने	-2770
▁पत्थर	-2771
▁पर्या	-2772
▁पहनकर	-2773
▁पुलिस	-2774
▁पॉलिश	-2775
▁प्रसि	-2776
▁फुहार	-2777
▁बड़ों	-2778
▁बांटी	-2779
▁बिंदी	-2780
▁बीमार	-2781
▁बेचते	-2782
▁बैंगन	-2783
▁बैठना	-2784
▁भगाते	-2785
▁भिंडी	-2786
▁भेजते	-2787
▁मक्का	-2788
▁मनाया	-2789
▁मिलते	-2790
▁मुरझा	-2791
▁मेंढक	-2792
▁म्यूज	-2793
▁लगेगा	-2794
▁लहरें	-2795
▁विशेष	-2796
▁संतरा	-2797
▁संदेश	-2798
▁संभाल	-2799
▁सजाया	-2800
▁सवारी	-2801
▁सहयोग	-2802
▁सीखते	-2803
▁सुनता	-2804
▁हफ्ते	-2805
▁हॉर्न	-2806
विधियों	-2807
▁अनुसार	-2808
▁अमूल्य	-2809
▁अलार्म	-2810
▁अहंकार	-2811
▁इकट्ठा	-2812
▁इलेक्ट	-2813
▁कबड्डी	-2814
▁क्षमता	-2815
▁खिलौने	-2816
▁गरीबों	-2817
▁गायिका	-2818
▁गुरुजी	-2819
▁गूंजती	-2820
▁चालीसा	-2821
▁टैक्सी	-2822
▁ट्रांस	-2823
▁ताज़गी	-2824
▁तोड़ता	-2825
▁दरवाजे	-2826
▁दुर्गा	-2827
▁दौड़ता	-2828
▁निकलती	-2829
▁निभाते	-2830
▁पहुंचा	-2831
▁प्रकार	-2832
▁प्रकाश	-2833
▁प्रयास	-2834
▁फिल्टर	-2835
▁बढ़ाता	-2836
▁बढ़ाती	-2837
▁बढ़ाते	-2838
▁बांटते	-2839
▁बिल्ली	-2840
▁बुझाने	-2841
▁बुद्धि	-2842
▁भंडारण	-2843
▁भतीजों	-2844
▁भेदभाव	-2845
▁मानसिक	-2846
▁मूर्ति	-2847
▁वीडियो	-2848
▁व्यस्त	-2849
▁शनिवार	-2850
▁सप्लाई	-2851
▁समाचार	-2852
▁सारंगी	-2853
▁सुनाना	-2854
▁सोमवार	-2855
▁स्टैंड	-2856
▁स्वर्ग	-2857
▁अनुशासन	-2858
▁इंतज़ार	-2859
▁किताबें	-2860
▁क्रिकेट	-2861
▁जेनरेटर	-2862
▁डिलीवरी	-2863
▁दालचीनी	-2864
▁निकालते	-2865
▁बनाएंगे	-2866
▁मछलियां	-2867
▁लक्ष्मी	-2868
▁वार्षिक	-2869
▁विटामिन	-2870
▁विश्वास	-2871
▁व्यापार	-2872
▁व्हाट्स	-2873
▁शुद्धता	-2874
▁सदस्यों	-2875
▁होमवर्क	-2876
▁आवश्यकता	-2877
▁गृहकार्य	-2878
▁ग्राहकों	-2879
▁ट्रैक्टर	-2880
▁डायबिटीज	-2881
▁दुकानदार	-2882
▁नवरात्रि	-2883
▁पत्तियां	-2884
▁पत्तियों	-2885
▁पर्यावरण	-2886
▁पुस्तकों	-2887
▁प्राप्ति	-2888
▁बैडमिंटन	-2889
▁विनम्रता	-2890
▁समस्याओं	-2891
▁प्रतिरोधक	-2892
▁सामुदायिक	-2893
▁गतिविधियों	-2894
ँस	-2895
ँह	-2896
ंज	-2897
आँ	-2898
एप	-2899
कच	-2900
कत	-2901
कॉ	-2902
गम	-2903
गि	-2904
घट	-2905
घल	-2906
छो	-2907
णु	-2908
तम	-2909
तू	-2910
दि	-2911
नद	-2912
पय	-2913
पै	-2914
पौ	-2915
फर	-2916
फल	-2917
फे	-2918
बि	-2919
भू	-2920
यम	-2921
रण	-2922
रब	-2923
रव	-2924
रि	-2925
लह	-2926
लु	-2927
वण	-2928
हच	-2929
हू	-2930
िच	-2931
िण	-2932
ुआ	-2933
ूँ	-2934
ॉग	-2935
्त	-2936
ंती	-2937
ंधी	-2938
ंसा	-2939
कला	-2940
ग्ध	-2941
चना	-2942
छला	-2943
जनी	-2944
जली	-2945
जाऊ	-2946
जीब	-2947
जुक	-2948
टका	-2949
टिक	-2950
ट्य	-2951
तुर	-2952
थरू	-2953
दास	-2954
दित	-2955
धनु	-2956
धाई	-2957
नेह	-2958
पते	-2959
पये	-2960
पाई	-2961
पाठ	-2962
पाद	-2963
पान	-2964
प्त	-2965
फोन	-2966
बहन	-2967
ब्द	-2968
ब्ब	-2969
भोर	-2970
मके	-2971
माव	-2972
यला	-2973
रुष	-2974
रूद	-2975
र्क	-2976
र्त	-2977
लाव	-2978
लाश	-2979
लास	-2980
ल्ल	-2981
ल्श	-2982
वाओ	-2983
श्त	-2984
सास	-2985
सिल	-2986
सेज	-2987
हीन	-2988
ारक	-2989
ारह	-2990
िनी	-2991
ुति	-2992
ूंछ	-2993
ूठी	-2994
ूबर	-2995
ृंग	-2996
ेंच	-2997
ैति	-2998
ौंक	-2999
्ला	-3000
▁आठ	-3001
▁ऊँ	-3002
▁ओस	-3003
▁कन	-3004
▁गम	-3005
▁गी	-3006
▁गौ	-3007
▁घु	-3008
▁घो	-3009
▁जन	-3010
▁जप	-3011
▁जम	-3012
▁ज़	-3013
▁टप	-3014
▁डा	-3015
▁ढक	-3016
▁थो	-3017
▁दह	-3018
▁दृ	-3019
▁पद	-3020
▁फट	-3021
▁फ़	-3022
▁फो	-3023
▁भय	-3024
▁मग	-3025
▁लै	-3026
ंगली	-3027
ंद्र	-3028
इक्र	-3029
कचरा	-3030
क्का	-3031
गुलु	-3032
गोभी	-3033
चानक	-3034
चिंग	-3035
जामा	-3036
ट्रो	-3037
ड़कन	-3038
ड्डू	-3039
तरंज	-3040
तरना	-3041
तुर्	-3042
थरूम	-3043
धनुष	-3044
धवार	-3045
नानी	-3046
नारा	-3047
निया	-3048
नेमा	-3049
पसंद	-3050
पोती	-3051
फ़ान	-3052
ब्रश	-3053
मर्स	-3054
मीठे	-3055
मेली	-3056
म्मत	-3057
म्मी	-3058
रतों	-3059
रानी	-3060
राबर	-3061
रिया	-3062
र्दे	-3063
र्बल	-3064
र्मा	-3065
लिंग	-3066
लेबी	-3067
वाइन	-3068
श्वर	-3069
सफाई	-3070
सबुक	-3071
सायन	-3072
स्टम	-3073
हचहा	-3074
ार्ज	-3075
ित्व	-3076
िलास	-3077
िल्क	-3078
ेनिस	-3079
ैंडल	-3080
ॉर्म	-3081
ोंके	-3082
्ययन	-3083
्यूल	-3084
्राइ	-3085
्राह	-3086
्रेस	-3087
▁अवा	-3088
▁आइस	-3089
▁आशा	-3090
▁ऊपर	-3091
▁कंप	-3092
▁कन्	-3093
▁कम्	-3094
▁कैं	-3095
▁कैश	-3096
▁कोप	-3097
▁खून	-3098
▁गली	-3099
▁गिन	-3100
▁ग्य	-3101
▁घना	-3102
▁घुल	-3103
▁घूं	-3104
▁चना	-3105
▁चरा	-3106
▁चहक	-3107
▁चिक	-3108
▁चोर	-3109
▁चौथ	-3110
▁छान	-3111
▁छिल	-3112
▁छूट	-3113
▁जुट	-3114
▁झां	-3115
▁झूठ	-3116
▁झूम	-3117
▁झूल	-3118
▁डिट	-3119
▁डुब	-3120
▁त्र	-3121
▁दमा	-3122
▁दशम	-3123
▁दुआ	-3124
▁दुप	-3125
▁नुक	-3126
▁पपी	-3127
▁पान	-3128
▁पित	-3129
▁पुन	-3130
▁पूल	-3131
▁पेन	-3132
▁प्ल	-3133
▁फली	-3134
▁फें	-3135
▁फैल	-3136
▁फैस	-3137
▁फ्र	-3138
▁बरत	-3139
▁बाग	-3140
▁बिग	-3141
▁बीत	-3142
▁भवि	-3143
▁भार	-3144
▁भीग	-3145
▁भीत	-3146
▁मरी	-3147
▁मेज	-3148
▁मोग	-3149
▁यूट	-3150
▁रखी	-3151
▁राख	-3152
▁रास	-3153
▁लगन	-3154
▁लोह	-3155
▁वस्	-3156
▁सद्	-3157
▁सूप	-3158
▁सेट	-3159
▁स्न	-3160
ंपरिक	-3161
कामना	-3162
खियों	-3163
दाश्त	-3164
माजिक	-3165
म्पिट	-3166
लीबॉल	-3167
ल्लास	-3168
वर्टर	-3169
स्टिक	-3170
स्तान	-3171
ांजलि	-3172
िष्टी	-3173
्यवाद	-3174
▁अकाल	-3175
▁अक्ट	-3176
▁अजीब	-3177
▁अमाव	-3178
▁आंधी	-3179
▁आकाश	-3180
▁उठते	-3181
▁उधार	-3182
▁ऊंचा	-3183
▁कंगन	-3184
▁कटने	-3185
▁कड़ा	-3186
▁कड़ी	-3187
▁कपूर	-3188
▁कमरा	-3189
▁कलाई	-3190
▁कष्ट	-3191
▁कहती	-3192
▁कहते	-3193
▁कहान	-3194
▁कांप	-3195
▁काजू	-3196
▁काबू	-3197
▁कुंड	-3198
▁कूलर	-3199
▁कोयल	-3200
▁क्रॉ	-3201
▁खतरा	-3202
▁खरबू	-3203
▁खिंच	-3204
▁खेली	-3205
▁गंदा	-3206
▁गंदी	-3207
▁गरबा	-3208
▁गलती	-3209
▁गुग्	-3210
▁गूगल	-3211
▁गोबर	-3212
▁चमके	-3213
▁चाँद	-3214
▁चाबी	-3215
▁चिता	-3216
▁चिपक	-3217
▁चैनल	-3218
▁चोटी	-3219
▁चौंक	-3220
▁छाता	-3221
▁छुपा	-3222
▁जलाओ	-3223
▁जश्न	-3224
▁जाति	-3225
▁जीना	-3226
▁जैसी	-3227
▁जैसे	-3228
▁झुका	-3229
▁टेली	-3230
▁डंडा	-3231
▁डिब्	-3232
▁तरबू	-3233
▁तलने	-3234
▁ताजा	-3235
▁तारी	-3236
▁दक्ष	-3237
▁दीदी	-3238
▁दुखी	-3239
▁नकली	-3240
▁नज़र	-3241
▁नवास	-3242
▁नष्ट	-3243
▁निरा	-3244
▁नीले	-3245
▁नैति	-3246
▁पकती	-3247
▁पढ़ी	-3248
▁पाते	-3249
▁पिघल	-3250
▁पीकर	-3251
▁पीपल	-3252
▁पेंट	-3253
▁पैनल	-3254
▁पोती	-3255
▁पौधा	-3256
▁प्रो	-3257
▁प्ले	-3258
▁फहरा	-3259
▁फिल्	-3260
▁फीका	-3261
▁फुला	-3262
▁फैली	-3263
▁बकरी	-3264
▁बचकर	-3265
▁बचाव	-3266
▁बजकर	-3267
▁बड़ी	-3268
▁बधाई	-3269
▁बनती	-3270
▁बहाव	-3271
▁बांस	-3272
▁बाती	-3273
▁बारह	-3274
▁बिठा	-3275
▁बुआई	-3276
▁भलाई	-3277
▁माँग	-3278
▁माथे	-3279
▁मानी	-3280
▁मारे	-3281
▁मिठे	-3282
▁मुँह	-3283
▁मूंग	-3284
▁मूंछ	-3285
▁मूली	-3286
▁मेथी	-3287
▁रक्त	-3288
▁रखें	-3289
▁रेगि	-3290
▁लंबे	-3291
▁लूडो	-3292
▁वाटर	-3293
▁विजय	-3294
▁विज्	-3295
▁शब्द	-3296
▁शैया	-3297
▁शोभा	-3298
▁श्री	-3299
▁संभव	-3300
▁संयम	-3301
▁सफ़र	-3302
▁समाज	-3303
▁सरगम	-3304
▁सारा	-3305
▁स्टा	-3306
▁स्तर	-3307
▁हीरे	-3308
▁हृदय	-3309
▁होंठ	-3310
क्सरसा	-3311
तुर्थी	-3312
नारायण	-3313
ब्बारे	-3314
र्जेंट	-3315
ल्शियम	-3316
वालिटी	-3317
िवारिक	-3318
▁अकेला	-3319
▁अचानक	-3320
▁अमरूद	-3321
▁आँखों	-3322
▁इंद्र	-3323
▁ईश्वर	-3324
▁उठाना	-3325
▁उड़ते	-3326
▁उपजाऊ	-3327
▁उपहार	-3328
▁उबालो	-3329
▁कराया	-3330
▁करेला	-3331
▁काटकर	-3332
▁काटते	-3333
▁कालीन	-3334
▁कीमती	-3335
▁कैमरे	-3336
▁कोयला	-3337
▁कोहरा	-3338
▁खुलती	-3339
▁खोदने	-3340
▁गार्ड	-3341
▁गिलास	-3342
▁चमकती	-3343
▁चमेली	-3344
▁चहचहा	-3345
▁चार्ज	-3346
▁जलेबी	-3347
▁जहाज़	-3348
▁जानवर	-3349
▁जूड़ा	-3350
▁जैकेट	-3351
▁जैविक	-3352
▁झाड़ू	-3353
▁झुमके	-3354
▁झोंके	-3355
▁टपकने	-3356
▁टहलना	-3357
▁टेनिस	-3358
▁टॉर्च	-3359
▁डूबने	-3360
▁ताज़ा	-3361
▁तौलिए	-3362
▁दयालु	-3363
▁दर्जी	-3364
▁दर्पण	-3365
▁दाढ़ी	-3366
▁दोनों	-3367
▁धड़कन	-3368
▁नहाते	-3369
▁नाजुक	-3370
▁पगड़ी	-3371
▁पड़कर	-3372
▁पराठा	-3373
▁परोसा	-3374
▁पर्दे	-3375
▁पसीना	-3376
▁पहनने	-3377
▁पुरुष	-3378
▁पुलाव	-3379
▁पूंजी	-3380
▁पैरों	-3381
▁प्यास	-3382
▁प्रदर	-3383
▁प्रेर	-3384
▁प्लान	-3385
▁प्लेट	-3386
▁बचाते	-3387
▁बचाने	-3388
▁बदलना	-3389
▁बनानी	-3390
▁बराबर	-3391
▁बाजरा	-3392
▁बुलाओ	-3393
▁बेचता	-3394
▁बेचैन	-3395
▁बॉक्स	-3396
▁बोलना	-3397
▁बोलने	-3398
▁ब्राह	-3399
▁भरोसा	-3400
▁भांजे	-3401
▁मनाने	-3402
▁महीना	-3403
▁मानना	-3404
▁मार्ग	-3405
▁मिलने	-3406
▁मुझसे	-3407
▁मैसेज	-3408
▁यंत्र	-3409
▁रसदार	-3410
▁रहेगी	-3411
▁राजमा	-3412
▁रुपये	-3413
▁रोपाई	-3414
▁लड़की	-3415
▁लड़ाई	-3416
▁लड्डू	-3417
▁लिखता	-3418
▁लोगों	-3419
▁विदाई	-3420
▁वृक्ष	-3421
▁शतरंज	-3422
▁शिष्य	-3423
▁संगति	-3424
▁संतरे	-3425
▁संतुल	-3426
▁सस्ता	-3427
▁सितार	-3428
▁सिलता	-3429
▁सिलाई	-3430
▁सिल्क	-3431
▁सीखनी	-3432
▁सीढ़ी	-3433
▁सूखने	-3434
▁सोचना	-3435
▁स्टॉक	-3436
▁स्टॉप	-3437
▁स्टोर	-3438
▁स्नेह	-3439
▁स्पीड	-3440
▁स्विच	-3441
▁हर्बल	-3442
▁हल्के	-3443
▁हासिल	-3444
देवताओं	-3445
स्त्रीय	-3446
▁अंगूठी	-3447
▁अंधकार	-3448
▁अंधेरा	-3449
▁अंधेरी	-3450
▁अध्ययन	-3451
▁अपनाते	-3452
▁उतारकर	-3453
▁उत्पाद	-3454
▁किराया	-3455
▁कुल्ला	-3456
▁खींचते	-3457
▁गुस्से	-3458
▁ग्यारह	-3459
▁चीज़ें	-3460
▁चॉकलेट	-3461
▁छोड़ने	-3462
▁जाऊँगा	-3463
▁जिंदगी	-3464
▁तालमेल	-3465
▁तूफ़ान	-3466
▁दरवाजा	-3467
▁दिल्ली	-3468
▁दिवाली	-3469
▁दुनिया	-3470
▁निकलने	-3471
▁निकाला	-3472
▁निकाली	-3473
▁निकालो	-3474
▁निभाना	-3475
▁नुकसान	-3476
▁पकड़ने	-3477
▁पढ़ाते	-3478
▁परांठा	-3479
▁परोसते	-3480
▁पिष्टी	-3481
▁पुकारा	-3482
▁पुदीना	-3483
▁पुराने	-3484
▁प्याज़	-3485
▁प्यारा	-3486
▁प्यारी	-3487
▁प्रेशर	-3488
▁फेंकना	-3489
▁फेसबुक	-3490
▁बनूंगा	-3491
▁बर्बाद	-3492
▁बांटकर	-3493
▁बांटने	-3494
▁बांधता	-3495
▁बाथरूम	-3496
▁बिक्री	-3497
▁बिरंगे	-3498
▁बुधवार	-3499
▁भविष्य	-3500
▁भिगोकर	-3501
▁माइक्र	-3502
▁माताजी	-3503
▁मेट्रो	-3504
▁रखेंगे	-3505
▁लक्ष्य	-3506
▁वस्त्र	-3507
▁विकसित	-3508
▁व्यक्त	-3509
▁संध्या	-3510
▁सिखाता	-3511
▁सिखाती	-3512
▁सितारे	-3513
▁सिनेमा	-3514
▁सुखाता	-3515
▁सुखाने	-3516
▁सुनाती	-3517
▁सेंकना	-3518
▁स्ट्रॉ	-3519
▁स्तब्ध	-3520
म्पिटिशन	-3521
▁अक्टूबर	-3522
▁आकर्षित	-3523
▁ईमानदार	-3524
▁एक्सरसा	-3525
▁कनेक्शन	-3526
▁खुशनुमा	-3527
▁गायत्री	-3528
▁चतुर्थी	-3529
▁जरूरतों	-3530
▁टूथब्रश	-3531
▁दवाइयों	-3532
▁दुपट्टा	-3533
▁धन्यवाद	-3534
▁नियंत्र	-3535
▁पेट्रोल	-3536
▁बनाऊंगा	-3537
▁बैंकिंग	-3538
▁भावनाओं	-3539
▁यूट्यूब	-3540
▁रिपोर्ट	-3541
▁वॉलीबॉल	-3542
▁संवारता	-3543
▁सरसराहट	-3544
▁सामाजिक	-3545
▁स्टार्ट	-3546
▁स्मार्ट	-3547
▁अध्यात्म	-3548
▁अमावस्या	-3549
▁कहानियां	-3550
▁कैल्शियम	-3551
▁क्वालिटी	-3552
▁गर्मियों	-3553
▁गुग्गुलु	-3554
▁गुब्बारे	-3555
▁चिल्लाया	-3556
▁चूड़ियाँ	-3557
▁चूड़ियां	-3558
▁ट्रांसफर	-3559
▁पारंपरिक	-3560
▁प्रदर्शन	-3561
▁प्रसिद्ध	-3562
▁भतीजियों	-3563
▁मेहमानों	-3564
▁म्यूजियम	-3565
▁याददाश्त	-3566
▁रोमांटिक	-3567
▁सूरजमुखी	-3568
▁स्केटिंग	-3569
▁इंद्रधनुष	-3570
▁चित्रकारी	-3571
▁डिटर्जेंट	-3572
▁पारिवारिक	-3573
▁रेगिस्तान	-3574
▁व्हाट्सएप	-3575
▁शास्त्रीय	-3576
▁कॉम्पिटिशन	-3577
▁पंखुड़ियां	-3578
▁श्रद्धांजलि	-3579
ँत	-3580
ंफ	-3581
ंभ	-3582
ईं	-3583
कट	-3584
घा	-3585
चो	-3586
चौ	-3587
छी	-3588
जह	-3589
जो	-3590
तख	-3591
थि	-3592
धन	-3593
नर	-3594
फन	-3595
फु	-3596
फ्	-3597
बस	-3598
मन	-3599
कश	-3600
गद	-3601
घर	-3602
मय	-3603
यत	-3604
रक	-3605
लक	-3606
लब	-3607
वॉ	-3608
षण	-3609
ुग	-3610
ेब	-3611
ैल	-3612
ैश	-3613
ोण	-3614
ोम	-3615
ोश	-3616
्थ	-3617
ंचे	-3618
ंडर	-3619
ंधे	-3620
इक्	-3621
इजर	-3622
इटर	-3623
ईडी	-3624
उंट	-3625
कने	-3626
किन	-3627
खाव	-3628
खून	-3629
गुण	-3630
चड़	-3631
चाप	-3632
चिस	-3633
छते	-3634
जाक	-3635
जीर	-3636
जुल	-3637
टकी	-3638
टना	-3639
टों	-3640
डनी	-3641
ड़फ	-3642
ताई	-3643
तान	-3644
तुन	-3645
दीप	-3646
दूर	-3647
धना	-3648
धवा	-3649
धाम	-3650
धीय	-3651
नास	-3652
नीय	-3653
नीर	-3654
पको	-3655
पुण	-3656
पेट	-3657
फिल	-3658
माण	-3659
मिक	-3660
मीण	-3661
रना	-3662
रिग	-3663
रोट	-3664
र्थ	-3665
ल्प	-3666
ल्फ	-3667
वाज	-3668
वाथ	-3669
वाब	-3670
वेत	-3671
शंक	-3672
शनर	-3673
शपा	-3674
श्व	-3675
षेक	-3676
समी	-3677
साव	-3678
सेन	-3679
सों	-3680
हास	-3681
ायत	-3682
ालय	-3683
ाले	-3684
िशम	-3685
ुओं	-3686
ुणा	-3687
ूँढ	-3688
ूबस	-3689
ूरत	-3690
ेंज	-3691
ेटर	-3692
ेली	-3693
ौंफ	-3694
ौनक	-3695
्णु	-3696
्फ़	-3697
्रम	-3698
्वस	-3699
ँट	-3700
मल	-3701
शि	-3702
षा	-3703
करण	-3704
कित	-3705
खाई	-3706
गति	-3707
ज़ी	-3708
डली	-3709
ताह	-3710
दगी	-3711
नकर	-3712
पैर	-3713
फाई	-3714
भाई	-3715
वरक	-3716
साद	-3717
ांड	-3718
िलर	-3719
ुरा	-3720
ूपी	-3721
▁अज	-3722
▁अट	-3723
▁अन	-3724
▁इन	-3725
▁उज	-3726
▁उम	-3727
▁एह	-3728
▁घब	-3729
▁घा	-3730
▁घि	-3731
▁चर	-3732
▁जब	-3733
▁जय	-3734
▁तम	-3735
▁तह	-3736
▁थक	-3737
▁धू	-3738
▁नु	-3739
▁लप	-3740
▁लु	-3741
▁शी	-3742
▁श्	-3743
▁सच	-3744
▁सन	-3745
▁सॉ	-3746
ँचना	-3747
ंकलर	-3748
ंदूर	-3749
इलिश	-3750
उंटर	-3751
काना	-3752
कुले	-3753
क्कन	-3754
क्टस	-3755
खाएं	-3756
गर्म	-3757
गाती	-3758
घर्ष	-3759
चड़ी	-3760
चौली	-3761
च्छर	-3762
जाना	-3763
टाखे	-3764
टाणु	-3765
ठानी	-3766
ड़कर	-3767
ड़ें	-3768
डिटी	-3769
ताफल	-3770
त्तख	-3771
त्तर	-3772
दर्द	-3773
द्रा	-3774
नाहट	-3775
पक्ष	-3776
पुष्	-3777
प्पी	-3778
प्रद	-3779
फ़िस	-3780
बंधन	-3781
बानी	-3782
बारक	-3783
बेरी	-3784
ब्यू	-3785
मजाक	-3786
माने	-3787
मायण	-3788
मालय	-3789
मिला	-3790
मीटर	-3791
मोरी	-3792
यलेट	-3793
याजी	-3794
यानी	-3795
रम्प	-3796
रियम	-3797
रीली	-3798
र्गे	-3799
षी	-3800
ंधन	-3801
उंड	-3802
तीत	-3803
पंप	-3804
फ्ट	-3805
भीत	-3806
ियर	-3807
िसी	-3808
ोता	-3809
▁औष	-3810
▁ग्	-3811
▁तन	-3812
▁पल	-3813
ंतित	-3814
छोटी	-3815
छोटे	-3816
र्जन	-3817
र्जी	-3818
र्डर	-3819
र्भर	-3820
र्रा	-3821
लादि	-3822
लिया	-3823
ल्लू	-3824
वशेष	-3825
वाते	-3826
वाना	-3827
वारे	-3828
विजन	-3829
व्यू	-3830
शलता	-3831
शाला	-3832
ष्ठा	-3833
सलिए	-3834
सुरा	-3835
स्ते	-3836
स्थि	-3837
स्सा	-3838
ानता	-3839
ायरी	-3840
िरोध	-3841
िलोय	-3842
ुद्ध	-3843
ुनिक	-3844
ुलूस	-3845
ूसली	-3846
ेडिट	-3847
ेदिक	-3848
ेशमी	-3849
ैक्ट	-3850
ोटीन	-3851
ोवेव	-3852
ौड़ी	-3853
ौड़े	-3854
्यता	-3855
्याग	-3856
्याण	-3857
्राम	-3858
्रिप	-3859
्रीय	-3860
्रोत	-3861
्वाह	-3862
▁अंक	-3863
▁अंत	-3864
▁अज्	-3865
▁अमी	-3866
▁आंच	-3867
▁आधा	-3868
▁आधी	-3869
▁आधे	-3870
▁आयु	-3871
▁इति	-3872
▁उतर	-3873
▁उबल	-3874
▁उर्	-3875
▁एका	-3876
▁एसि	-3877
▁एसी	-3878
▁ओढ़	-3879
▁ओला	-3880
▁कमर	-3881
▁करी	-3882
▁कलश	-3883
▁कलह	-3884
▁किए	-3885
▁केक	-3886
▁कॉल	-3887
▁गद्	-3888
▁गेज	-3889
▁घने	-3890
▁घाव	-3891
▁घूम	-3892
▁चने	-3893
▁चाब	-3894
▁चेन	-3895
▁चोट	-3896
▁छाए	-3897
▁छील	-3898
▁जिम	-3899
▁जीभ	-3900
▁जेठ	-3901
▁जॉग	-3902
▁जोर	-3903
▁जोश	-3904
▁झड़	-3905
▁झील	-3906
▁टिप	-3907
▁टीम	-3908
▁टूर	-3909
▁ठिक	-3910
▁डरा	-3911
▁डेट	-3912
▁ड्र	-3913
▁ढका	-3914
▁तवे	-3915
▁ताऊ	-3916
▁ताश	-3917
▁तीज	-3918
▁तीस	-3919
▁थ्र	-3920
▁दंग	-3921
▁दहन	-3922
▁दहा	-3923
▁दाय	-3924
▁दिए	-3925
▁दिव	-3926
▁देश	-3927
▁धूम	-3928
▁धोओ	-3929
▁नज़	-3930
▁ननद	-3931
▁नाई	-3932
▁नील	-3933
▁नेक	-3934
▁पके	-3935
▁पजल	-3936
▁पतन	-3937
▁पति	-3938
▁पना	-3939
▁फूट	-3940
▁फेफ	-3941
▁फेर	-3942
▁फ्ल	-3943
▁बचो	-3944
▁बीच	-3945
▁बुझ	-3946
▁बेर	-3947
▁ब्र	-3948
▁भुग	-3949
▁भोग	-3950
▁मज़	-3951
▁मटर	-3952
▁मस्	-3953
▁मूक	-3954
▁मोर	-3955
▁मोल	-3956
▁मौत	-3957
▁मौन	-3958
▁यज्	-3959
▁यूर	-3960
▁रिट	-3961
▁रूप	-3962
▁रेल	-3963
▁रोट	-3964
▁रोष	-3965
▁लेट	-3966
▁लेप	-3967
▁लैव	-3968
▁वचन	-3969
▁वजह	-3970
▁वाई	-3971
▁वोट	-3972
▁शेड	-3973
▁संच	-3974
▁सता	-3975
▁सदा	-3976
▁सबक	-3977
▁सहम	-3978
▁सात	-3979
▁सुध	-3980
▁सें	-3981
▁सेल	-3982
▁सेव	-3983
▁सैर	-3984
▁हाई	-3985
▁हाल	-3986
▁हित	-3987
▁हेड	-3988
▁हॉल	-3989
ंगड़ा	-3990
इसेंस	-3991
काउंट	-3992
किताब	-3993
क्कड़	-3994
क्रीम	-3995
चर्या	-3996
छतावा	-3997
ज़नेस	-3998
टेंशन	-3999
ड़ाहट	-4000
तंत्र	-4001
तरनाक	-4002
पत्ति	-4003
पोतों	-4004
पोस्ट	-4005
पौधों	-4006
फुल्ल	-4007
भावना	-4008
मुग्ध	-4009
म्मीद	-4010
यरिंग	-4011
र्माण	-4012
लांटर	-4013
लाइजर	-4014
लियों	-4015
वर्धन	-4016
वार्थ	-4017
विवाह	-4018
शपाती	-4019
शांति	-4020
सियों	-4021
सुथरा	-4022
हूर्त	-4023
ारंटी	-4024
ारोपण	-4025
ार्वे	-4026
िशमिश	-4027
ूँढना	-4028
ृद्धि	-4029
ॉपिंग	-4030
ोवेरा	-4031
ौंकने	-4032
्यूटर	-4033
▁अखंड	-4034
▁अनाथ	-4035
▁अनुप	-4036
▁अवसर	-4037
▁अश्व	-4038
▁आंगन	-4039
▁आईने	-4040
▁आएगी	-4041
▁आकार	-4042
▁आक्र	-4043
▁आड़ू	-4044
▁आपका	-4045
▁आपको	-4046
▁इडली	-4047
▁इरिग	-4048
▁ईमेल	-4049
▁उंगल	-4050
▁उछला	-4051
▁उठना	-4052
▁उड़द	-4053
▁उदास	-4054
▁उनका	-4055
▁उनके	-4056
▁उपमा	-4057
▁उपाय	-4058
▁उमंग	-4059
▁कंचे	-4060
▁कंडी	-4061
▁कचरा	-4062
▁कटहल	-4063
▁कड़े	-4064
▁कपास	-4065
▁कलगी	-4066
▁किचन	-4067
▁किलो	-4068
▁किसी	-4069
▁कूदा	-4070
▁केले	-4071
▁कोना	-4072
▁कोने	-4073
▁क्रि	-4074
▁खारा	-4075
▁खाली	-4076
▁खीरा	-4077
▁खुला	-4078
▁खूबस	-4079
▁खोदा	-4080
▁गणित	-4081
▁गोभी	-4082
▁गौरव	-4083
▁घंटा	-4084
▁घड़े	-4085
▁चकित	-4086
▁चलते	-4087
▁चारा	-4088
▁चीकू	-4089
▁चीखा	-4090
▁चेरी	-4091
▁छनकर	-4092
▁छांव	-4093
▁जलते	-4094
▁जलाई	-4095
▁जवाब	-4096
▁जाला	-4097
▁जाली	-4098
▁जूता	-4099
▁जूही	-4100
▁झरना	-4101
▁झांझ	-4102
▁झुला	-4103
▁टाइट	-4104
▁टायर	-4105
▁टिलर	-4106
▁ट्रे	-4107
▁डरना	-4108
▁डाला	-4109
▁डाली	-4110
▁डोसा	-4111
▁ढोलक	-4112
▁तकिए	-4113
▁तलाश	-4114
▁ताकत	-4115
▁ताला	-4116
▁ताशे	-4117
▁तोड़	-4118
▁तोरी	-4119
▁त्रा	-4120
▁दाँत	-4121
▁दूरी	-4122
▁धंधा	-4123
▁धारा	-4124
▁धुंध	-4125
▁धुआँ	-4126
▁धुआं	-4127
▁धोती	-4128
▁धोया	-4129
▁नवमी	-4130
▁नाती	-4131
▁निचो	-4132
▁नीचे	-4133
▁पकता	-4134
▁पटरी	-4135
▁पतंग	-4136
▁पतली	-4137
▁पत्र	-4138
▁पनीर	-4139
▁पहली	-4140
▁पागल	-4141
▁पाने	-4142
▁पापा	-4143
▁पाया	-4144
▁पिया	-4145
▁पूछा	-4146
▁पैरा	-4147
▁पैसा	-4148
▁पोछा	-4149
▁पोहा	-4150
▁प्रण	-4151
▁प्लग	-4152
▁फड़फ	-4153
▁फर्ट	-4154
▁फलों	-4155
▁फीके	-4156
▁फ्री	-4157
▁बचें	-4158
▁बजता	-4159
▁बजते	-4160
▁बताओ	-4161
▁बदला	-4162
▁बनकर	-4163
▁बरगद	-4164
▁बहकर	-4165
▁बाइक	-4166
▁बाढ़	-4167
▁बारे	-4168
▁बिछा	-4169
▁बेंच	-4170
▁बोता	-4171
▁बोते	-4172
▁बोला	-4173
▁ब्रह	-4174
▁भटका	-4175
▁भरती	-4176
▁भरते	-4177
▁भरना	-4178
▁भागा	-4179
▁भाती	-4180
▁भारत	-4181
▁भेजो	-4182
▁मंचन	-4183
▁मंडप	-4184
▁मजाक	-4185
▁मातम	-4186
▁मोजे	-4187
▁मोनो	-4188
▁मौके	-4189
▁यूपी	-4190
▁योगा	-4191
▁रखकर	-4192
▁रजनी	-4193
▁रसगु	-4194
▁रहने	-4195
▁रानी	-4196
▁रावण	-4197
▁रिटे	-4198
▁रीति	-4199
▁रोचक	-4200
▁रोलर	-4201
▁रौनक	-4202
▁लहरा	-4203
▁लाता	-4204
▁लाती	-4205
▁लाते	-4206
▁लिखो	-4207
▁लिवर	-4208
▁लोहे	-4209
▁लौंग	-4210
▁वसंत	-4211
▁वस्त	-4212
▁वादा	-4213
▁वादे	-4214
▁विधि	-4215
▁वैज्	-4216
▁शराब	-4217
▁सकती	-4218
▁सपना	-4219
▁सप्त	-4220
▁सांप	-4221
▁साइज	-4222
▁साझा	-4223
▁सीखे	-4224
▁सीटी	-4225
▁सीडी	-4226
▁सीढ़	-4227
▁सीधी	-4228
▁सुधर	-4229
▁सूखी	-4230
▁सूती	-4231
▁सूना	-4232
▁सोया	-4233
▁सौंफ	-4234
▁स्था	-4235
▁हड्ड	-4236
▁हॉकी	-4237
कार्फ़	-4238
कॉमर्स	-4239
क्रवार	-4240
ग्रस्त	-4241
ज्यादा	-4242
द्राएं	-4243
न्नाटा	-4244
पुष्पी	-4245
फेक्शन	-4246
म्रपान	-4247
रम्पार	-4248
र्राया	-4249
स्थिति	-4250
िलाइजर	-4251
ोल्लास	-4252
्राइवर	-4253
▁अंजीर	-4254
▁अखरोट	-4255
▁अड्डा	-4256
▁अत्तर	-4257
▁अधूरा	-4258
▁अनुरा	-4259
▁अभिला	-4260
▁अवशेष	-4261
▁अशांत	-4262
▁अस्थि	-4263
▁आदतों	-4264
▁आलस्य	-4265
▁आहुति	-4266
▁इसलिए	-4267
▁उंगली	-4268
▁उत्तर	-4269
▁एटीएम	-4270
▁एलईडी	-4271
▁एहसास	-4272
▁औषधीय	-4273
▁कच्चा	-4274
▁कच्चे	-4275
▁कड़वे	-4276
▁कन्या	-4277
▁कपड़ा	-4278
▁करुणा	-4279
▁कर्कश	-4280
▁कार्ट	-4281
▁किडनी	-4282
▁कितनी	-4283
▁किस्म	-4284
▁कीचड़	-4285
▁कूदना	-4286
▁कैंडल	-4287
▁कैंडी	-4288
▁क्लास	-4289
▁क्वाथ	-4290
▁क्षमा	-4291
▁खरीदी	-4292
▁ख़त्म	-4293
▁खिन्न	-4294
▁खिलता	-4295
▁खिलते	-4296
▁खुजली	-4297
▁खुदवा	-4298
▁खेलने	-4299
▁खोदते	-4300
▁खोलता	-4301
▁गंदगी	-4302
▁गर्जा	-4303
▁गर्मा	-4304
▁गहराई	-4305
▁गाढ़ा	-4306
▁गाढ़ी	-4307
▁गिफ्ट	-4308
▁गिलोय	-4309
▁गेम्स	-4310
▁गोल्फ	-4311
▁घूंघट	-4312
▁घोलकर	-4313
▁चमकता	-4314
▁चराता	-4315
▁चलाकर	-4316
▁चिकित	-4317
▁चूड़ा	-4318
▁छिलके	-4319
▁छुट्ट	-4320
▁जगाती	-4321
▁जड़ें	-4322
▁जनवरी	-4323
▁जयंती	-4324
▁जलाता	-4325
▁जागकर	-4326
▁जागता	-4327
▁जीतना	-4328
▁जीवंत	-4329
▁जीवों	-4330
▁जुलूस	-4331
▁जोतते	-4332
▁झूमते	-4333
▁टपकता	-4334
▁टहलता	-4335
▁टाइमर	-4336
▁टूटने	-4337
▁टैक्स	-4338
▁डालती	-4339
▁डिस्क	-4340
▁डुबकी	-4341
▁ड्रिप	-4342
▁ढक्कन	-4343
▁तकलीफ	-4344
▁तकिया	-4345
▁तरबूज	-4346
▁तरोता	-4347
▁त्याग	-4348
▁थोड़ा	-4349
▁दर्शक	-4350
▁दशमूल	-4351
▁दस्ता	-4352
▁दातुन	-4353
▁दिव्य	-4354
▁दुलार	-4355
▁देखती	-4356
▁दौड़ा	-4357
▁नवासे	-4358
▁नाखून	-4359
▁नाचने	-4360
▁नाट्य	-4361
▁नापते	-4362
▁निपुण	-4363
▁निबंध	-4364
▁निभाई	-4365
▁नैतिक	-4366
▁न्यूज	-4367
▁पंचमी	-4368
▁पटाखे	-4369
▁पढ़कर	-4370
▁पपीता	-4371
▁पल्लू	-4372
▁पशुओं	-4373
▁पहनते	-4374
▁पहनीं	-4375
▁पहाड़	-4376
▁पीढ़ी	-4377
▁पूछते	-4378
▁पूर्व	-4379
▁पौधों	-4380
▁प्रमु	-4381
▁प्रेस	-4382
▁फार्म	-4383
▁फिल्म	-4384
▁फैसला	-4385
▁फ्रिज	-4386
▁फ्रॉक	-4387
▁बचाना	-4388
▁बजाईं	-4389
▁बढ़ाओ	-4390
▁बताता	-4391
▁बत्तख	-4392
▁बदलते	-4393
▁बदलने	-4394
▁बरतनी	-4395
▁बर्फी	-4396
▁बस्ता	-4397
▁बांटो	-4398
▁बांधा	-4399
▁बैटरी	-4400
▁बैठता	-4401
▁ब्रेक	-4402
▁ब्रेड	-4403
▁ब्लॉक	-4404
▁भगाना	-4405
▁भतीजी	-4406
▁भागते	-4407
▁मकड़ी	-4408
▁मचाते	-4409
▁मजदूर	-4410
▁मनाना	-4411
▁मरीज़	-4412
▁महकता	-4413
▁महफिल	-4414
▁महिमा	-4415
▁माचिस	-4416
▁मानती	-4417
▁मालिक	-4418
▁माहिर	-4419
▁मिलना	-4420
▁मुख्य	-4421
▁मूंगा	-4422
▁मूल्य	-4423
▁मूसली	-4424
▁मोक्ष	-4425
▁मोगरा	-4426
▁मोहित	-4427
▁मौसमी	-4428
▁यात्र	-4429
▁यादों	-4430
▁योग्य	-4431
▁रसायन	-4432
▁रसीला	-4433
▁रसीले	-4434
▁रहेगा	-4435
▁राष्ट	-4436
▁रुकना	-4437
▁रेशमी	-4438
▁लपटें	-4439
▁लाइटर	-4440
▁लेकिन	-4441
▁विजयी	-4442
▁विदेश	-4443
▁विधवा	-4444
▁विभोर	-4445
▁विरोध	-4446
▁विषाद	-4447
▁विस्म	-4448
▁व्हील	-4449
▁शायरी	-4450
▁श्वेत	-4451
▁संबंध	-4452
▁सच्चा	-4453
▁सजाते	-4454
▁समझते	-4455
▁समोसा	-4456
▁सर्वि	-4457
▁सांस्	-4458
▁सामना	-4459
▁सिखाई	-4460
▁सुनार	-4461
▁सूखते	-4462
▁सॉकेट	-4463
▁स्थान	-4464
▁स्मरण	-4465
▁स्रोत	-4466
▁हानिक	-4467
▁हास्य	-4468
▁हैरान	-4469
▁होंगे	-4470
कामनाएं	-4471
तंत्रता	-4472
पोतियों	-4473
र्वेदिक	-4474
लाइडिंग	-4475
ष्टिकोण	-4476
्रिंकलर	-4477
▁अजवाइन	-4478
▁अनानास	-4479
▁अपनाने	-4480
▁अभिषेक	-4481
▁अर्पित	-4482
▁आधुनिक	-4483
▁इकट्ठे	-4484
▁इतिहास	-4485
▁उड़ाना	-4486
▁उबालने	-4487
▁उम्मीद	-4488
▁एकाग्र	-4489
▁एलर्जी	-4490
▁कचौड़ी	-4491
▁करवाते	-4492
▁करेंसी	-4493
▁कल्याण	-4494
▁काउंटर	-4495
▁किनारा	-4496
▁किरणों	-4497
▁किशमिश	-4498
▁कीटाणु	-4499
▁कुत्ता	-4500
▁कुशलता	-4501
▁कैक्टस	-4502
▁खतरनाक	-4503
▁खरीदते	-4504
▁खिचड़ी	-4505
▁खिलाते	-4506
▁खुबानी	-4507
▁गंगाजल	-4508
▁गर्जना	-4509
▁गिल्ली	-4510
▁गुड़हल	-4511
▁गुड्डी	-4512
▁गुणगान	-4513
▁गूंथकर	-4514
▁घुमाने	-4515
▁चढ़ाता	-4516
▁चरित्र	-4517
▁चिंतित	-4518
▁चिल्ला	-4519
▁छोड़ना	-4520
▁जाएंगे	-4521
▁जेठानी	-4522
▁जॉगिंग	-4523
▁झुकाया	-4524
▁झुलाया	-4525
▁टॉयलेट	-4526
▁ठिकाना	-4527
▁डरावनी	-4528
▁डिब्बा	-4529
▁ढूँढना	-4530
▁तकलीफ़	-4531
▁तानसेन	-4532
▁तायाजी	-4533
▁तौलिया	-4534
▁थ्रेशर	-4535
▁दक्षिण	-4536
▁दिखाता	-4537
▁दिखाते	-4538
▁दिखाना	-4539
▁दूल्हा	-4540
▁धूमधाम	-4541
▁नहलाना	-4542
▁निकलता	-4543
▁पंचायत	-4544
▁पकड़ता	-4545
▁पकड़ते	-4546
▁पकौड़े	-4547
▁पछतावा	-4548
▁परांठे	-4549
▁पहनाया	-4550
▁पहाड़ी	-4551
▁पाएंगे	-4552
▁पार्टी	-4553
▁पिलाना	-4554
▁पिलाने	-4555
▁पिस्ता	-4556
▁पुनर्न	-4557
▁पुरानी	-4558
▁पेटीएम	-4559
▁प्रगति	-4560
▁प्रभाव	-4561
▁प्रमाण	-4562
▁प्रश्न	-4563
▁प्रेमा	-4564
▁प्लेटफ	-4565
▁फहराने	-4566
▁फोड़ने	-4567
▁बढ़ाना	-4568
▁बढ़ावा	-4569
▁बनवाकर	-4570
▁बनवाना	-4571
▁बनवाया	-4572
▁बिताया	-4573
▁बुलाया	-4574
▁बेसुरा	-4575
▁भाइयों	-4576
▁भुगतान	-4577
▁भौंकने	-4578
▁मंगवाओ	-4579
▁मतवाला	-4580
▁मनपसंद	-4581
▁मशीनें	-4582
▁महानता	-4583
▁मानसून	-4584
▁मामाजी	-4585
▁मिचौली	-4586
▁मिलाता	-4587
▁मुक्ति	-4588
▁मुबारक	-4589
▁मुर्गे	-4590
▁मेमोरी	-4591
▁रस्में	-4592
▁रामायण	-4593
▁रास्ते	-4594
▁रिक्शे	-4595
▁रिश्ता	-4596
▁लिखावट	-4597
▁विष्णु	-4598
▁शाखाएं	-4599
▁श्रृंग	-4600
▁संग्रह	-4601
▁संघर्ष	-4602
▁संपर्क	-4603
▁सप्ताह	-4604
▁सब्ज़ी	-4605
▁समझाया	-4606
▁समानता	-4607
▁सिंदूर	-4608
▁सिखाना	-4609
▁सिस्टम	-4610
▁सीताफल	-4611
▁सुखाकर	-4612
▁सुखाते	-4613
▁सुखाना	-4614
▁सुनहरा	-4615
▁सुनहरे	-4616
▁सुनाते	-4617
▁सुरीली	-4618
▁सुलाती	-4619
▁सेंकते	-4620
▁स्वर्ण	-4621
▁हार्वे	-4622
▁हिमालय	-4623
▁हिम्मत	-4624
▁हिलाते	-4625
▁हिस्सा	-4626
भतीजियों	-4627
्यात्मिक	-4628
▁अस्पष्ट	-4629
▁इरिगेशन	-4630
▁उत्पादन	-4631
▁एलोवेरा	-4632
▁एसिडिटी	-4633
▁कंडीशनर	-4634
▁कार्यों	-4635
▁किताबों	-4636
▁कैलकुले	-4637
▁क्रुद्ध	-4638
▁क्रेडिट	-4639
▁खरीदारी	-4640
▁खूबसूरत	-4641
▁गुनगुना	-4642
▁गुनगुने	-4643
▁गुरुवार	-4644
▁ग्रामीण	-4645
▁चहचहाना	-4646
▁छायादार	-4647
▁ड्राइवर	-4648
▁तालियां	-4649
▁दरवाज़ा	-4650
▁दायित्व	-4651
▁देखेंगे	-4652
▁देवरानी	-4653
▁नाशपाती	-4654
▁निकालकर	-4655
▁निर्माण	-4656
▁नुक्कड़	-4657
▁नेटवर्क	-4658
▁पहनूंगा	-4659
▁पहुँचना	-4660
▁पहुंचना	-4661
▁पुरुषों	-4662
▁प्राप्त	-4663
▁प्रेरित	-4664
▁प्रोटीन	-4665
▁बढ़ूंगा	-4666
▁बालियाँ	-4667
▁बिज़नेस	-4668
▁बिरयानी	-4669
▁भांगड़ा	-4670
▁मंगलवार	-4671
▁महिलाएं	-4672
▁मार्केट	-4673
▁मित्रता	-4674
▁मुहूर्त	-4675
▁मूंगफली	-4676
▁मेंढकों	-4677
▁मोतियों	-4678
▁रामलीला	-4679
▁लाइसेंस	-4680
▁लाभदायक	-4681
▁लैवेंडर	-4682
▁शेड्यूल	-4683
▁श्रद्धा	-4684
▁संतुलित	-4685
▁संपत्ति	-4686
▁सन्नाटा	-4687
▁समझदारी	-4688
▁समुद्री	-4689
▁सिरदर्द	-4690
▁सीखूंगा	-4691
▁स्वार्थ	-4692
▁हैंडपंप	-4693
▁अपरम्पार	-4694
▁अश्वगंधा	-4695
▁आइसक्रीम	-4696
▁इंटरव्यू	-4697
▁इन्वर्टर	-4698
▁इलेक्ट्र	-4699
▁उंगलियों	-4700
▁उत्साहित	-4701
▁कंप्यूटर	-4702
▁कम्पोस्ट	-4703
▁चिड़ियों	-4704
▁टेलीविजन	-4705
▁तस्वीरें	-4706
▁दिनचर्या	-4707
▁धर्मशाला	-4708
▁धूम्रपान	-4709
▁नवासियों	-4710
▁परिवारजन	-4711
▁पवित्रता	-4712
▁पहुंचाते	-4713
▁पार्किंग	-4714
▁पुस्तकें	-4715
▁ब्राह्मी	-4716
▁भांजियों	-4717
▁मधुमक्खी	-4718
▁मुद्राएं	-4719
▁रजनीगंधा	-4720
▁रसगुल्ला	-4721
▁लिपस्टिक	-4722
▁शुक्रवार	-4723
▁सद्भावना	-4724
▁स्कार्फ़	-4725
▁स्टाइलिश	-4726
▁स्वादहीन	-4727
▁हड्डियों	-4728
▁हानिकारक	-4729
▁इन्फेक्शन	-4730
▁एक्सटेंशन	-4731
▁एक्सरसाइज	-4732
▁खिड़कियां	-4733
▁दृष्टिकोण	-4734
▁नियंत्रित	-4735
▁पड़ोसियों	-4736
▁पुस्तकालय	-4737
▁फड़फड़ाहट	-4738
▁मूर्तिकला	-4739
▁यात्रियों	-4740
▁रक्षाबंधन	-4741
▁शंखपुष्पी	-4742
▁शिवरात्रि	-4743
▁आध्यात्मिक	-4744
▁आयुर्वेदिक	-4745
▁पंखुड़ियों	-4746
▁फर्टिलाइजर	-4747
▁मंत्रमुग्ध	-4748
▁माइक्रोवेव	-4749
▁मार्केटिंग	-4750
▁वृक्षारोपण	-4751
▁शुभकामनाएं	-4752
▁सत्यनारायण	-4753
▁सांस्कृतिक	-4754
▁स्ट्रॉबेरी	-4755
▁स्प्रिंकलर	-4756
▁स्वतंत्रता	-4757
▁हर्षोल्लास	-4758
▁हार्वेस्टर	-4759
▁मधुमक्खियों	-4760
▁रिश्तेदारों	-4761
ँधे	-4762
उधर	-4763
कअप	-4764
कुठ	-4765
कूथ	-4766
खेल	-4767
ख्त	-4768
ग्ज	-4769
ग्न	-4770
चंभ	-4771
छुआ	-4772
टकॉ	-4773
तंक	-4774
थवॉ	-4775
दबि	-4776
पैथ	-4777
पैल	-4778
फलर	-4779
यरस	-4780
रकु	-4781
रवे	-4782
लझा	-4783
लहन	-4784
लोम	-4785
वॉच	-4786
ष्ठ	-4787
सफु	-4788
सुक	-4789
होश	-4790
ाधि	-4791
ीयत	-4792
ुभू	-4793
ैबल	-4794
ोरं	-4795
्चक	-4796
्तक	-4797
्मण	-4798
ंभित	-4799
शाक	-4800
ेलर	-4801
आरती	-4802
इंडर	-4803
उंसी	-4804
एक्स	-4805
एसटी	-4806
काली	-4807
कावट	-4808
कासव	-4809
कूथु	-4810
कॉपी	-4811
गलें	-4812
गीचे	-4813
गुले	-4814
ग्नल	-4815
ग्नि	-4816
ग्ला	-4817
चकित	-4818
चिपु	-4819
जरने	-4820
जाइन	-4821
जोकर	-4822
ज्जा	-4823
टकों	-4824
टिमा	-4825
ट्ठी	-4826
डरते	-4827
ड्डे	-4828
तूरा	-4829
थवॉश	-4830
थेरे	-4831
दमिक	-4832
दूषण	-4833
नाफा	-4834
नियर	-4835
पेपर	-4836
पेयर	-4837
पैथी	-4838
पोछा	-4839
पौधे	-4840
फलेट	-4841
फ्ले	-4842
बाइक	-4843
बिंब	-4844
भवती	-4845
मकुम	-4846
मपात	-4847
मुना	-4848
मेडी	-4849
मेलन	-4850
मोहक	-4851
मोहर	-4852
याघा	-4853
यादि	-4854
याबी	-4855
रबंद	-4856
रवरी	-4857
रवेल	-4858
रीगर	-4859
रेंस	-4860
रोहर	-4861
र्सत	-4862
लब्ध	-4863
लीनर	-4864
लूको	-4865
ल्फी	-4866
वाणी	-4867
शंसा	-4868
संबर	-4869
साइक	-4870
साइट	-4871
सिपी	-4872
सुमा	-4873
हलहा	-4874
हांत	-4875
ांभर	-4876
ावणी	-4877
िंटर	-4878
िंसा	-4879
िणाम	-4880
ुटाव	-4881
ुपाल	-4882
ेंदे	-4883
ैंपू	-4884
ैकेट	-4885
ैरवी	-4886
ैलरी	-4887
ॉजिक	-4888
ॉर्क	-4889
ोपीय	-4890
ोमिन	-4891
ोस्ट	-4892
ौंजी	-4893
्तपा	-4894
्रैल	-4895
्लाउ	-4896
्लाद	-4897
्लोक	-4898
▁अणु	-4899
मोट	-4900
विज	-4901
्वि	-4902
्सक	-4903
▁ओड	-4904
▁ओण	-4905
द्वि	-4906
मेज़	-4907
लाइड	-4908
लाइफ	-4909
वर्ट	-4910
शर्ट	-4911
ॉर्ट	-4912
ोटोग	-4913
▁अनो	-4914
▁अबी	-4915
▁अमर	-4916
▁अमृ	-4917
▁अरब	-4918
▁अवस	-4919
▁अवि	-4920
▁अशो	-4921
▁असं	-4922
▁असफ	-4923
▁आपू	-4924
▁आयर	-4925
▁इधर	-4926
▁ईसा	-4927
▁उफन	-4928
▁एरो	-4929
▁कटौ	-4930
▁कॉप	-4931
▁कौन	-4932
▁गजल	-4933
▁गूद	-4934
▁घंट	-4935
▁घाट	-4936
▁घेर	-4937
▁घोष	-4938
▁चको	-4939
▁चखे	-4940
▁चौद	-4941
▁छँट	-4942
▁जंक	-4943
▁जिद	-4944
▁जिस	-4945
▁जूझ	-4946
▁जेब	-4947
▁झलक	-4948
▁टैग	-4949
▁डाइ	-4950
▁डाक	-4951
▁डिम	-4952
▁डेब	-4953
▁तनख	-4954
▁तूफ	-4955
▁दफ्	-4956
▁नब्	-4957
▁नरक	-4958
▁नशे	-4959
▁पतं	-4960
▁पतझ	-4961
▁पलट	-4962
▁पिछ	-4963
▁फ़त	-4964
▁फाइ	-4965
▁फुफ	-4966
▁फूड	-4967
▁बंट	-4968
▁भटक	-4969
▁भूक	-4970
▁मको	-4971
▁मगन	-4972
▁मलह	-4973
▁मैन	-4974
▁मैप	-4975
▁यमन	-4976
▁रुच	-4977
▁रुझ	-4978
▁रूम	-4979
▁रॉक	-4980
▁लॉक	-4981
▁वेव	-4982
▁वैक	-4983
▁वॉश	-4984
▁शूट	-4985
▁शून	-4986
▁श्म	-4987
▁सनस	-4988
▁सहे	-4989
ंगीठी	-4990
ंघिया	-4991
ंचलता	-4992
ंट्रे	-4993
इक्वा	-4994
इजिंग	-4995
इटिंग	-4996
इनिंग	-4997
इसिंग	-4998
कढ़ाई	-4999
ॉलर	-5000
ोटल	-5001
गरिक	-5002
चनों	-5003
रक्त	-5004
र्णन	-5005
ायोट	-5006
्रीट	-5007
▁खोख	-5008
▁छाछ	-5009
▁जंप	-5010
▁टिफ	-5011
▁दाग	-5012
▁फैश	-5013
▁फॉल	-5014
▁भून	-5015
▁सरप	-5016
कातुर	-5017
क्कों	-5018
खट्टा	-5019
खेलना	-5020
गरानी	-5021
ग्राम	-5022
चप्पल	-5023
ज़रना	-5024
जुलकर	-5025
टकॉइन	-5026
टनाशक	-5027
ट्यम्	-5028
तावरी	-5029
त्वना	-5030
त्साह	-5031
दबिंद	-5032
धान्व	-5033
नक्का	-5034
नमकीन	-5035
पत्ता	-5036
पलादि	-5037
पूर्व	-5038
पेस्ट	-5039
बट्टा	-5040
बादाम	-5041
बायोट	-5042
मटिमा	-5043
मोदित	-5044
म्पोल	-5045
म्यूज	-5046
यजामा	-5047
याघात	-5048
रकुरी	-5049
रबारी	-5050
रवाहा	-5051
राधना	-5052
रिवाज	-5053
र्जला	-5054
र्थिक	-5055
र्धार	-5056
लझाया	-5057
लाइम्	-5058
लिकेट	-5059
लेज़र	-5060
ल्लड़	-5061
वर्टा	-5062
विकता	-5063
विधान	-5064
श्नों	-5065
सर्जन	-5066
सांभर	-5067
सावले	-5068
सुथरी	-5069
स्करण	-5070
स्टमर	-5071
स्पति	-5072
हलाया	-5073
ांडेड	-5074
ान्तक	-5075
ावेटर	-5076
िटेशन	-5077
ियर्ड	-5078
ियाँव	-5079
िरकने	-5080
िलेशन	-5081
ुड़ती	-5082
ुपालन	-5083
ुभूति	-5084
ूलादि	-5085
ृपक्ष	-5086
ेकिंग	-5087
ेजेंट	-5088
ॉजिकल	-5089
ोरंजन	-5090
ोस्टर	-5091
्चकोल	-5092
्तपाप	-5093
्रप्र	-5094
्राइव	-5095
्रेजी	-5096
्लानि	-5097
्वारे	-5098
▁अँधे	-5099
ंबई	-5100
गरम	-5101
फिट	-5102
भाग	-5103
ंजार	-5104
चाची	-5105
न्नक	-5106
न्नत	-5107
न्यू	-5108
भागव	-5109
भाति	-5110
वरहर	-5111
वेंट	-5112
शिल्	-5113
हतरी	-5114
ाचार	-5115
ॉफिट	-5116
्ट्स	-5117
▁असर	-5118
▁कूक	-5119
▁चिट	-5120
▁छुह	-5121
▁दफन	-5122
▁बदन	-5123
▁रेफ	-5124
डलाइफ	-5125
पजामा	-5126
भागवत	-5127
भ्यता	-5128
रमच्छ	-5129
रूकता	-5130
शिल्प	-5131
हतरीन	-5132
्यूसर	-5133
्रासा	-5134
▁अंधा	-5135
▁अतीत	-5136
▁अनुस	-5137
▁अबीर	-5138
▁अभ्र	-5139
▁अमीर	-5140
▁अरबी	-5141
▁अरहर	-5142
▁अर्थ	-5143
▁अलवि	-5144
▁अल्ट	-5145
▁अवाक	-5146
▁अव्य	-5147
▁अशोक	-5148
▁असली	-5149
▁आयरन	-5150
▁आर्ट	-5151
▁आलोक	-5152
▁आल्ह	-5153
▁आशंक	-5154
▁आसपा	-5155
▁इंजी	-5156
▁इंजे	-5157
▁इंस्	-5158
▁इन्ह	-5159
▁ईंधन	-5160
▁उठने	-5161
▁उतरा	-5162
▁उपास	-5163
▁ऊँची	-5164
▁ऊंची	-5165
▁एलपी	-5166
▁ओट्स	-5167
▁ओढ़ी	-5168
▁ओणम्	-5169
▁कंधा	-5170
▁कंधे	-5171
▁कंबा	-5172
▁कचाल	-5173
▁कछुआ	-5174
▁कढ़ी	-5175
▁कन्फ	-5176
▁कलछी	-5177
▁कल्प	-5178
▁कहता	-5179
▁कहने	-5180
▁कहां	-5181
▁काँट	-5182
▁कूदे	-5183
▁कैथा	-5184
▁कैरो	-5185
▁कैसल	-5186
▁कैसा	-5187
▁कैसे	-5188
▁कॉले	-5189
▁कोमल	-5190
▁क्षण	-5191
▁क्षी	-5192
▁खीरे	-5193
▁खोली	-5194
▁गंधक	-5195
▁गरजा	-5196
▁गीजर	-5197
▁गुलक	-5198
▁गोरा	-5199
ंसप	-5200
इंस	-5201
जिन	-5202
पाश	-5203
प्प	-5204
लम्	-5205
सरत	-5206
िनय	-5207
िनर	-5208
ूमे	-5209
ेतन	-5210
कलम्	-5211
प्पा	-5212
श्यो	-5213
सेप्	-5214
सेलर	-5215
ूटूथ	-5216
ूरता	-5217
▁इम्	-5218
▁खौल	-5219
▁छपा	-5220
▁जेल	-5221
▁हरि	-5222
ंसपेश	-5223
ट्टम्	-5224
त्विक	-5225
प्पें	-5226
भनाहट	-5227
्रिएं	-5228
▁अरथी	-5229
▁आतंक	-5230
▁कसरत	-5231
▁कुआँ	-5232
▁क्यू	-5233
▁क्री	-5234
▁गोली	-5235
▁गौरी	-5236
▁घाटी	-5237
▁घुड़	-5238
▁घुली	-5239
▁घूमे	-5240
▁चढ़े	-5241
▁चमत्	-5242
▁चम्म	-5243
▁चरती	-5244
▁चाकू	-5245
▁चिप्	-5246
▁चूना	-5247
▁चूमा	-5248
▁चोरी	-5249
▁चोली	-5250
▁चौंध	-5251
▁चौकी	-5252
▁चौदस	-5253
▁छुपी	-5254
▁छुपे	-5255
▁छुप्	-5256
▁छूती	-5257
▁छूना	-5258
▁छौंक	-5259
▁जताई	-5260
▁जलकु	-5261
▁जलवा	-5262
▁जहाज	-5263
▁ज़मी	-5264
▁ज़रू	-5265
▁जादू	-5266
▁जींस	-5267
▁जीपी	-5268
▁जुडो	-5269
▁जुम्	-5270
▁जूसर	-5271
▁झूले	-5272
▁टंगी	-5273
▁टीचर	-5274
▁टूरि	-5275
▁टोटल	-5276
▁टोली	-5277
▁ट्वि	-5278
▁ठेला	-5279
▁डिनर	-5280
▁डिमर	-5281
▁डियो	-5282
▁डीटी	-5283
▁डॉलर	-5284
▁ढककर	-5285
▁तड़प	-5286
▁तत्व	-5287
▁तमिल	-5288
▁ताजे	-5289
▁दलहन	-5290
▁दहेज	-5291
▁धोबी	-5292
▁नब्ज	-5293
▁नसों	-5294
▁नापी	-5295
▁नियु	-5296
▁निष्	-5297
▁नेचर	-5298
▁पंचर	-5299
रुप	-5300
वनप	-5301
वनि	-5302
वीप	-5303
शबा	-5304
समझ	-5305
समस	-5306
ूबा	-5307
▁ढो	-5308
ग्जॉ	-5309
नेबल	-5310
पेटा	-5311
बाने	-5312
मुंह	-5313
रेशन	-5314
समती	-5315
सर्च	-5316
्वनि	-5317
्वीप	-5318
▁आँग	-5319
▁उठी	-5320
▁चहल	-5321
▁थके	-5322
▁धुन	-5323
▁नवी	-5324
▁नशी	-5325
▁निख	-5326
▁रुख	-5327
▁हंट	-5328
ंतरिक	-5329
क्रमण	-5330
जियां	-5331
तिशबा	-5332
परेशन	-5333
र्चरी	-5334
समझकर	-5335
समिया	-5336
ॉकिंग	-5337
्यवनप	-5338
▁आँगन	-5339
▁ऊँचा	-5340
▁कनेर	-5341
▁करूं	-5342
▁कुशन	-5343
▁केंद	-5344
▁चर्च	-5345
▁ढोते	-5346
▁नवीन	-5347
▁निखर	-5348
▁पंछी	-5349
▁पगला	-5350
▁परोप	-5351
▁पर्व	-5352
▁पलाश	-5353
▁पुरो	-5354
▁पेंस	-5355
▁पेनड	-5356
▁पेपर	-5357
▁पैम्	-5358
▁पोकर	-5359
▁प्ला	-5360
▁फाइल	-5361
▁फाड़	-5362
▁फीकी	-5363
▁फूला	-5364
▁फूली	-5365
▁फेरी	-5366
▁फ्लश	-5367
▁बंधन	-5368
▁बंधे	-5369
▁बचते	-5370
▁बचाओ	-5371
▁बढ़ई	-5372
▁बढ़े	-5373
▁बदलो	-5374
▁बनते	-5375
▁बरकत	-5376
▁बरतन	-5377
▁बर्ड	-5378
▁बर्थ	-5379
▁बाँस	-5380
▁बाधा	-5381
▁बाबा	-5382
▁बायो	-5383
▁बिहू	-5384
▁बीपी	-5385
▁बैंड	-5386
▁बैनर	-5387
▁बोया	-5388
▁बोली	-5389
▁ब्रश	-5390
▁ब्लड	-5391
▁भक्त	-5392
▁भागी	-5393
▁भाषा	-5394
▁भिंच	-5395
▁भूखे	-5396
▁भोले	-5397
▁मजदू	-5398
▁मटका	-5399
ंतन	-5400
कुप	-5401
कूप	-5402
रबत	-5403
वंत	-5404
िवल	-5405
्वल	-5406
▁झग	-5407
▁झन	-5408
क्शा	-5409
चारा	-5410
दाना	-5411
रादा	-5412
र्गु	-5413
ह्वल	-5414
▁झिल	-5415
▁फेन	-5416
▁मची	-5417
▁येन	-5418
▁सोश	-5419
कुपित	-5420
चिंतन	-5421
जल्दी	-5422
न्वंत	-5423
पट्टी	-5424
र्गुण	-5425
वलिंग	-5426
हारता	-5427
▁अगला	-5428
▁कड़क	-5429
▁कर्ज	-5430
▁क्रो	-5431
▁चलकर	-5432
▁छाती	-5433
▁छूते	-5434
▁झारा	-5435
▁तोते	-5436
▁दुखद	-5437
▁परवल	-5438
▁बजने	-5439
▁बालक	-5440
▁बैठो	-5441
▁मटकी	-5442
▁मफलर	-5443
▁मलाई	-5444
▁मसूर	-5445
▁मस्ज	-5446
▁मेधा	-5447
▁मैरा	-5448
▁मैला	-5449
▁मोशन	-5450
▁मौजू	-5451
▁रसोइ	-5452
▁रामध	-5453
▁रियल	-5454
▁रिवर	-5455
▁रीपर	-5456
▁रुकी	-5457
▁रेंज	-5458
▁रेंट	-5459
▁लपेट	-5460
▁लिखे	-5461
▁लीटर	-5462
▁लीला	-5463
▁लुका	-5464
▁लेजर	-5465
▁लैडर	-5466
▁लौटे	-5467
▁वर्च	-5468
▁वर्ष	-5469
▁वाणी	-5470
▁वायु	-5471
▁विलो	-5472
▁विवि	-5473
▁विषय	-5474
▁वीडर	-5475
▁वेंट	-5476
▁वॉटर	-5477
▁शरबत	-5478
▁शहतू	-5479
▁शीशा	-5480
▁श्मश	-5481
▁संकट	-5482
▁सत्व	-5483
▁समझो	-5484
▁सरसो	-5485
▁सर्क	-5486
▁सर्द	-5487
▁सर्प	-5488
▁सर्व	-5489
▁सशंक	-5490
▁सहमा	-5491
▁सहला	-5492
▁साइन	-5493
▁सिंक	-5494
▁सिंघ	-5495
▁सिरप	-5496
▁सिलि	-5497
▁सीधा	-5498
▁सुडो	-5499
ँटा	-5500
टेक	-5501
नोल	-5502
वेज	-5503
किंग	-5504
टाने	-5505
टापा	-5506
नोलॉ	-5507
बिंग	-5508
विंग	-5509
शिंग	-5510
ष्टक	-5511
ुष्ट	-5512
▁आमच	-5513
▁कलम	-5514
▁छटा	-5515
▁टोल	-5516
▁डोर	-5517
▁मरह	-5518
▁लाऊ	-5519
▁लीन	-5520
▁लोध	-5521
▁लोन	-5522
▁सन्	-5523
बिक्स	-5524
ायमान	-5525
ोड़ों	-5526
▁अर्क	-5527
▁घिरे	-5528
▁जाएं	-5529
▁टांग	-5530
▁निडर	-5531
▁पकड़	-5532
▁पाचक	-5533
▁प्लै	-5534
▁बँटा	-5535
▁भरता	-5536
▁मरहम	-5537
▁मेवे	-5538
▁रंगम	-5539
▁लाऊं	-5540
▁लाना	-5541
▁लाने	-5542
▁लावा	-5543
▁शुक्	-5544
▁सीखो	-5545
▁सुखद	-5546
▁सुलह	-5547
▁सेमल	-5548
▁सेलर	-5549
▁सोता	-5550
▁सोना	-5551
▁सोलह	-5552
▁सोशल	-5553
▁स्टे	-5554
▁स्तन	-5555
▁स्नू	-5556
▁स्नै	-5557
▁हंसा	-5558
▁हाइक	-5559
▁हिंग	-5560
▁हियर	-5561
▁हीरक	-5562
▁हैरो	-5563
ंडक्टर	-5564
ंडक्शन	-5565
ंस्करण	-5566
कुमारी	-5567
क्ट्री	-5568
क्नोलॉ	-5569
क्रैबल	-5570
क्षगान	-5571
क्षात्	-5572
क्सीजन	-5573
गुलेटर	-5574
ग्लासे	-5575
टीरिया	-5576
टेरियम	-5577
ट्रिएं	-5578
ड्यूसर	-5579
तीक्षा	-5580
दबिंदु	-5581
नभनाहट	-5582
निर्भर	-5583
न्नकूट	-5584
फ़ॉर्म	-5585
बूदाना	-5586
ब्यूशन	-5587
मार्या	-5588
म्पिंग	-5589
रुकूथु	-5590
रुपयोग	-5591
र्जन्म	-5592
र्निवल	-5593
ल्चिंग	-5594
वस्थित	-5595
वार्ता	-5596
वाष्टक	-5597
वेंटरी	-5598
व्वारे	-5599
कमी	-5600
चाव	-5601
जनक	-5602
पाय	-5603
भूत	-5604
वेद	-5605
शाम	-5606
श्म	-5607
सीह	-5608
चावल	-5609
जनीय	-5610
भूषण	-5611
मामी	-5612
वणभा	-5613
सीटी	-5614
ावली	-5615
िभूत	-5616
ीदार	-5617
▁डजन	-5618
▁नेल	-5619
▁पोष	-5620
▁फाव	-5621
▁लंच	-5622
▁सिग	-5623
▁सिस	-5624
कमीज़	-5625
झीदार	-5626
भिभूत	-5627
वेदना	-5628
श्मनी	-5629
स्तुत	-5630
▁उठती	-5631
▁काफी	-5632
▁टर्न	-5633
▁टार्	-5634
▁डरते	-5635
▁तैरे	-5636
▁दस्त	-5637
▁देसी	-5638
▁नेकी	-5639
▁न्यू	-5640
▁पूजन	-5641
▁पोषक	-5642
▁फैले	-5643
▁बैक्	-5644
▁बैसा	-5645
▁मसीह	-5646
▁मूर्	-5647
▁विरा	-5648
▁विशु	-5649
▁संगम	-5650
▁सर्फ	-5651
▁सिक्	-5652
▁सिसक	-5653
वणभास्	-5654
शिक्षण	-5655
संतप्त	-5656
संध्या	-5657
सावलेह	-5658
सिंगार	-5659
सीटीवी	-5660
सेप्शन	-5661
स्थानी	-5662
ांक्षा	-5663
ांडिया	-5664
ानिकों	-5665
ार्थों	-5666
ालभाति	-5667
ृंगराज	-5668
ेबसाइट	-5669
ेलियों	-5670
ैक्टिस	-5671
ॉर्टकट	-5672
ोकामना	-5673
ोग्राम	-5674
ोपलादि	-5675
्योपैथ	-5676
्लाउज़	-5677
्लेज़र	-5678
्वसकुठ	-5679
▁अंगड़	-5680
▁अगस्त	-5681
▁अधूरी	-5682
▁अधूरे	-5683
▁अनुपम	-5684
▁अनोखा	-5685
▁अपनों	-5686
▁अपराज	-5687
▁अभिनय	-5688
▁अभिया	-5689
▁अभ्रक	-5690
▁अमर्ष	-5691
▁अमलता	-5692
▁अमृता	-5693
▁अरमान	-5694
▁अर्जु	-5695
▁अलर्ट	-5696
▁अल्ला	-5697
▁अवश्य	-5698
▁अवाक्	-5699
ंसे	-5700
कृत	-5701
वेश	-5702
साय	-5703
ोसे	-5704
▁एश	-5705
▁एस	-5706
एमएस	-5707
तड़ा	-5708
बहार	-5709
सफिट	-5710
सानी	-5711
साया	-5712
ालसा	-5713
ियोग	-5714
ेड़ा	-5715
▁अनम	-5716
▁एली	-5717
▁एले	-5718
▁एस्	-5719
▁कवि	-5720
▁घृत	-5721
▁तुष	-5722
▁फँस	-5723
▁मीट	-5724
▁मीम	-5725
▁वाइ	-5726
▁वात	-5727
▁वाल	-5728
▁संक	-5729
इडिंग	-5730
भाविक	-5731
▁आर्ग	-5732
▁गीले	-5733
▁गोलू	-5734
▁ग्री	-5735
▁चीड़	-5736
▁जलाए	-5737
▁पिंड	-5738
▁बेस्	-5739
▁संचय	-5740
▁संजी	-5741
▁सहान	-5742
▁सारे	-5743
▁हंसे	-5744
कारिता	-5745
डिटेशन	-5746
तड़ाने	-5747
स्ट्री	-5748
्वसनीय	-5749
▁अनमोल	-5750
▁अवाज़	-5751
▁अहसास	-5752
▁आँखें	-5753
▁आऊंगा	-5754
▁आकर्ष	-5755
▁आत्मव	-5756
▁आमचूर	-5757
▁आर्डर	-5758
▁आसपास	-5759
▁आसानी	-5760
▁इन्वे	-5761
▁इरादा	-5762
▁उगाते	-5763
▁उठाता	-5764
▁उठाती	-5765
▁उठाने	-5766
▁उठाया	-5767
▁उड़ाई	-5768
▁उतरना	-5769
▁उद्वि	-5770
▁उन्नत	-5771
▁उर्वर	-5772
▁एकत्र	-5773
▁एक्सच	-5774
▁एग्जॉ	-5775
▁एरिया	-5776
▁एलेरो	-5777
▁एशिया	-5778
▁एस्के	-5779
▁ओडिसी	-5780
▁ओढ़कर	-5781
▁ओढ़ाई	-5782
▁औरतों	-5783
▁ककड़ी	-5784
▁कचालू	-5785
▁कच्ची	-5786
▁कटौती	-5787
▁करवाई	-5788
▁करवाओ	-5789
▁कराटे	-5790
▁कराते	-5791
▁कर्जे	-5792
▁कांटा	-5793
▁कांटे	-5794
▁कांसे	-5795
▁कागज़	-5796
▁कानून	-5797
▁कालबे	-5798
▁कालमे	-5799
ंडो	-5800
बटी	-5801
वटी	-5802
्सा	-5803
चेयर	-5804
टकता	-5805
टकाए	-5806
टर्र	-5807
तवार	-5808
नवटी	-5809
मलता	-5810
ल्का	-5811
ल्ले	-5812
वारा	-5813
शाली	-5814
हड़ी	-5815
्रोक	-5816
▁कंस	-5817
▁गटर	-5818
▁टाव	-5819
▁पीठ	-5820
▁बेई	-5821
▁भरत	-5822
▁रिब	-5823
▁शटर	-5824
▁सटी	-5825
▁सूट	-5826
गाड़ी	-5827
ट्टान	-5828
पतवार	-5829
लमोहर	-5830
ल्काप	-5831
हरीला	-5832
▁उड़ी	-5833
▁गिरा	-5834
▁गुल्	-5835
▁टावर	-5836
▁पीढ़	-5837
▁बदले	-5838
▁राइस	-5839
▁रिबन	-5840
▁लड़ी	-5841
▁सहजन	-5842
▁सोते	-5843
▁स्टी	-5844
ल्कापि	-5845
ारिष्ट	-5846
▁अवसाद	-5847
▁एकांत	-5848
▁काटना	-5849
▁कुंडल	-5850
▁कुटकी	-5851
▁कुट्ट	-5852
▁कुपित	-5853
▁कुरान	-5854
▁कूदता	-5855
▁कूदते	-5856
▁कैंसर	-5857
▁कॉर्न	-5858
▁कॉलेज	-5859
▁क्यूआ	-5860
▁खजाना	-5861
▁खर्चा	-5862
▁ख़राब	-5863
▁ख़ाली	-5864
▁खिड़क	-5865
▁खिलाई	-5866
▁खिलाओ	-5867
▁खींची	-5868
▁खोखला	-5869
▁खोजता	-5870
▁खोजनी	-5871
▁खोदता	-5872
▁ख्वाह	-5873
▁गद्दा	-5874
▁गद्दे	-5875
▁गन्ना	-5876
▁गरजकर	-5877
▁गरिमा	-5878
▁गिनते	-5879
▁गुड़ी	-5880
▁गूंजी	-5881
▁गेंदे	-5882
▁गैलरी	-5883
▁ग्राम	-5884
▁घंटों	-5885
▁घनवटी	-5886
▁घेरकर	-5887
▁घोलती	-5888
▁चक्कर	-5889
▁चढ़ता	-5890
▁चबाने	-5891
▁चमकाए	-5892
▁चम्मच	-5893
▁चहकना	-5894
▁चालीस	-5895
▁चाशनी	-5896
▁चींटी	-5897
▁चुनते	-5898
▁चुपके	-5899
चीत	-5900
च्य	-5901
ड़ो	-5902
मद्	-5903
माज	-5904
लनी	-5905
ष्ण	-5906
साथ	-5907
ानी	-5908
्रै	-5909
▁जौ	-5910
▁मट	-5911
▁रज	-5912
चकचा	-5913
नवास	-5914
नेगा	-5915
ूत्र	-5916
ृष्ण	-5917
ेत्र	-5918
ोशित	-5919
▁अद्	-5920
▁खटा	-5921
▁खया	-5922
▁चैर	-5923
▁ढको	-5924
▁दीं	-5925
▁दीए	-5926
▁फिज	-5927
▁बाइ	-5928
▁बाज	-5929
▁भगद	-5930
▁शीत	-5931
▁सखी	-5932
कृष्ण	-5933
पाच्य	-5934
सूत्र	-5935
्रैटे	-5936
▁अद्भ	-5937
▁उगता	-5938
▁खटास	-5939
▁खयाल	-5940
▁खानी	-5941
▁छलनी	-5942
▁देखी	-5943
▁नमाज	-5944
▁बनने	-5945
▁बांग	-5946
▁बाकी	-5947
▁मटके	-5948
▁रजाई	-5949
▁राधा	-5950
▁लिपट	-5951
▁शीतल	-5952
▁हजार	-5953
▁हितै	-5954
▁हिले	-5955
चकचाकर	-5956
सेलिंग	-5957
ूंकारा	-5958
▁एकसाथ	-5959
▁कमीज़	-5960
▁करोड़	-5961
▁चुभती	-5962
▁चूसता	-5963
▁चेकअप	-5964
▁चोरों	-5965
▁चौड़ी	-5966
▁चौथाई	-5967
▁छानकर	-5968
▁छापते	-5969
▁छीलकर	-5970
▁छुपाई	-5971
▁जंगली	-5972
▁जलकुं	-5973
▁ज़मीन	-5974
▁जांची	-5975
▁जाओगे	-5976
▁जागना	-5977
▁जिसकी	-5978
▁जीवित	-5979
▁जुकाम	-5980
▁जुटते	-5981
▁जुड़े	-5982
▁जुताई	-5983
▁जुलाई	-5984
▁जूझते	-5985
▁जोतता	-5986
▁जोतने	-5987
▁झलकती	-5988
▁झांकी	-5989
▁झूलना	-5990
▁टर्नओ	-5991
▁टार्च	-5992
▁टिफिन	-5993
▁ट्यूब	-5994
▁ट्राई	-5995
▁ट्रैक	-5996
▁ट्रैप	-5997
▁डायपर	-5998
▁डायरी	-5999
खो	-6000
शै	-6001
चरर	-6002
ज्म	-6003
त्थ	-6004
दीय	-6005
र्फ	-6006
लका	-6007
लोक	-6008
वेक	-6009
▁आफ	-6010
▁ईद	-6011
▁गै	-6012
▁चं	-6013
▁चख	-6014
▁नू	-6015
त्थक	-6016
बाशी	-6017
शैली	-6018
ौंदा	-6019
▁क्य	-6020
▁गुर	-6021
▁नूड	-6022
▁शेक	-6023
क्चरर	-6024
रांती	-6025
लकाता	-6026
िमानी	-6027
▁किड्	-6028
▁गीता	-6029
▁गूंध	-6030
▁गैसर	-6031
▁चंपा	-6032
▁जीरे	-6033
▁दंगभ	-6034
▁नाला	-6035
▁बॉयल	-6036
▁भागे	-6037
▁लहरी	-6038
▁शीशम	-6039
▁सालग	-6040
▁हिना	-6041
च्छरों	-6042
त्यादि	-6043
वेरियम	-6044
ैक्चरर	-6045
▁आफ्टर	-6046
▁आसक्त	-6047
▁उत्तम	-6048
▁कत्थक	-6049
▁किड्स	-6050
▁क्यों	-6051
▁खरीदा	-6052
▁चाटता	-6053
▁छोड़ी	-6054
▁डालते	-6055
▁डूबकर	-6056
▁डेबिट	-6057
▁डोमिन	-6058
▁तबीयत	-6059
▁ताकता	-6060
▁तारों	-6061
▁तीर्थ	-6062
▁तुलना	-6063
▁तुषार	-6064
▁तूफान	-6065
▁तैरते	-6066
▁त्योह	-6067
▁त्रिक	-6068
▁थोड़ी	-6069
▁दफ्तर	-6070
▁दबाकर	-6071
▁दहाड़	-6072
▁दिखता	-6073
▁दिखीं	-6074
▁दिनों	-6075
▁दुखता	-6076
▁दुर्ल	-6077
▁दोहरा	-6078
▁दौड़े	-6079
▁दौरान	-6080
▁धक्का	-6081
▁धतूरा	-6082
▁धुलते	-6083
▁धुलाई	-6084
▁ध्वनि	-6085
▁नक्शा	-6086
▁नज़दी	-6087
▁ननदों	-6088
▁नलकूप	-6089
▁नवासी	-6090
▁नशीले	-6091
▁निकली	-6092
▁निकले	-6093
▁निराई	-6094
▁निराश	-6095
▁निवार	-6096
▁निवेश	-6097
▁नूडल्	-6098
▁नेकले	-6099
टु	-6100
नाथ	-6101
न्ट	-6102
रेट	-6103
वात	-6104
हना	-6105
ुत्	-6106
्चा	-6107
▁आओ	-6108
▁उत	-6109
▁तल	-6110
▁बब	-6111
ँवार	-6112
नदेन	-6113
बूँद	-6114
र्गी	-6115
िरने	-6116
्रिफ	-6117
▁चाल	-6118
▁जें	-6119
▁तरफ	-6120
▁दार	-6121
▁बरस	-6122
▁भाए	-6123
▁रहम	-6124
▁राय	-6125
▁रिल	-6126
ंजीरा	-6127
फिरने	-6128
राहना	-6129
ावतार	-6130
िरुत्	-6131
▁उजली	-6132
▁उतरे	-6133
▁क्ले	-6134
▁घबरा	-6135
▁चिकन	-6136
▁टपका	-6137
▁दारू	-6138
▁बबूल	-6139
▁मुरा	-6140
▁रहमत	-6141
▁रिले	-6142
▁सजाए	-6143
्रिफला	-6144
्रॉनिक	-6145
▁अर्थी	-6146
▁आमलेट	-6147
▁कॉन्ट	-6148
▁क्लेम	-6149
▁खिलती	-6150
▁गोदाम	-6151
▁घोड़ी	-6152
▁घोड़े	-6153
▁जीवनी	-6154
▁जेंगा	-6155
▁ड्रेस	-6156
▁थर्मा	-6157
▁नोट्स	-6158
▁पंखों	-6159
▁पकवान	-6160
▁पकाती	-6161
▁पढ़ती	-6162
▁पतझड़	-6163
▁पन्ने	-6164
▁पपीहा	-6165
▁परसों	-6166
▁पराठे	-6167
▁पलटते	-6168
▁पसीने	-6169
▁पहनाई	-6170
▁पहेली	-6171
▁पालतू	-6172
▁पिछले	-6173
▁पीड़ा	-6174
▁पीसकर	-6175
▁पीसते	-6176
▁पुकार	-6177
▁पुराण	-6178
▁पुरोह	-6179
▁पेपैल	-6180
▁पेस्ट	-6181
▁पोंगल	-6182
▁पोंछा	-6183
▁पोतों	-6184
▁पोशाक	-6185
▁प्रात	-6186
▁प्राथ	-6187
▁फरवरी	-6188
▁फर्नी	-6189
▁फाइबर	-6190
▁फाउंड	-6191
▁फालसा	-6192
▁फुसफु	-6193
▁फेंका	-6194
▁फेंको	-6195
▁फेंटे	-6196
▁फेरिस	-6197
▁फैक्स	-6198
▁फैलता	-6199
एफ	-6200
खब	-6201
ाओ	-6202
एफए	-6203
छार	-6204
ुशी	-6205
▁मं	-6206
▁वन	-6207
ंधान	-6208
इएगा	-6209
एफएल	-6210
खबरी	-6211
खुशी	-6212
रुड़	-6213
लवार	-6214
ितरण	-6215
ूँगा	-6216
ौछार	-6217
▁अटल	-6218
▁घनी	-6219
▁ढूं	-6220
▁तोल	-6221
▁बसा	-6222
▁बोन	-6223
▁रबर	-6224
▁लाए	-6225
▁सेम	-6226
चक्का	-6227
साइकल	-6228
ेब्रा	-6229
▁अर्घ	-6230
▁उड़े	-6231
▁एकाद	-6232
▁कबूल	-6233
▁कमाओ	-6234
▁कलरव	-6235
▁कुकी	-6236
▁जीती	-6237
▁ढूंढ	-6238
▁तीली	-6239
▁नेता	-6240
▁पूजी	-6241
▁बोनफ	-6242
▁मंज़	-6243
▁मेंह	-6244
▁लेखन	-6245
▁वन्य	-6246
त्रस्त	-6247
बलाइजर	-6248
र्यादा	-6249
िश्वास	-6250
ौचक्का	-6251
▁आइएगा	-6252
▁कराणी	-6253
▁गरुड़	-6254
▁गिरीं	-6255
▁चलाया	-6256
▁झगड़े	-6257
▁डालना	-6258
▁नवासा	-6259
▁पहनें	-6260
▁पाउंड	-6261
▁फिसलन	-6262
▁फैसले	-6263
▁फॉर्म	-6264
▁फ्यूज	-6265
▁फ्लैश	-6266
▁बढ़ने	-6267
▁बताया	-6268
▁बदलनी	-6269
▁बदलें	-6270
▁बनाएं	-6271
▁बनेगा	-6272
▁बप्पा	-6273
▁बरबटी	-6274
▁बरसने	-6275
▁बांधी	-6276
▁बाइबल	-6277
▁बागवा	-6278
▁बातों	-6279
▁बावला	-6280
▁बिगड़	-6281
▁बिताए	-6282
▁बीजों	-6283
▁बुझती	-6284
▁बुद्ध	-6285
▁बुनाई	-6286
▁बेताल	-6287
▁बॉयलर	-6288
▁बोलते	-6289
▁बौछार	-6290
▁ब्रां	-6291
▁ब्रिज	-6292
▁ब्लॉग	-6293
▁भगदड़	-6294
▁भगाती	-6295
▁भटकता	-6296
▁भटकाव	-6297
▁भयभीत	-6298
▁भरतना	-6299
एँ	-6300
ओड	-6301
ढे	-6302
बै	-6303
सत	-6304
ॉस	-6305
णेश	-6306
बैग	-6307
शाय	-6308
िबल	-6309
ुएं	-6310
ैनी	-6311
▁अब	-6312
▁आय	-6313
ओडोर	-6314
क्कत	-6315
गणेश	-6316
घटना	-6317
ड़का	-6318
ड्ढे	-6319
बंदी	-6320
▁अति	-6321
▁जैत	-6322
▁दें	-6323
▁लॉस	-6324
उथवॉश	-6325
कास्ट	-6326
चिंडा	-6327
शायरा	-6328
ष्ठान	-6329
ेंचुआ	-6330
▁आतुर	-6331
▁आपके	-6332
▁उगाओ	-6333
▁उठाओ	-6334
▁कांच	-6335
▁कुएँ	-6336
▁क्षु	-6337
▁खेले	-6338
▁चुका	-6339
▁डिस्	-6340
▁डूबे	-6341
▁पासव	-6342
▁लेवल	-6343
▁संगठ	-6344
▁सीपी	-6345
▁हस्त	-6346
डकास्ट	-6347
ेंसिंग	-6348
▁अतिथि	-6349
▁आकाशग	-6350
▁उजाले	-6351
▁कराने	-6352
▁खोजने	-6353
▁गड्ढे	-6354
▁जूतों	-6355
▁जैतून	-6356
▁जोतना	-6357
▁डेस्क	-6358
▁तारीख	-6359
▁प्रसव	-6360
▁फैलती	-6361
▁बच्ची	-6362
▁बोलकर	-6363
▁भड़का	-6364
▁भावुक	-6365
▁भिगोओ	-6366
▁भीगना	-6367
▁भूकंप	-6368
▁भूनने	-6369
▁भैरवी	-6370
▁भोगना	-6371
▁मंगनी	-6372
▁मंडरा	-6373
▁मंडली	-6374
▁मच्छर	-6375
▁मदहोश	-6376
▁मनाता	-6377
▁मस्जि	-6378
▁मस्ती	-6379
▁महकते	-6380
▁महाशि	-6381
▁महासु	-6382
▁मांगा	-6383
▁मानता	-6384
▁मानें	-6385
▁मार्च	-6386
▁मास्क	-6387
▁मिलीं	-6388
▁मुंबई	-6389
▁मुग्ध	-6390
▁मुदित	-6391
▁मुस्क	-6392
▁मूर्ख	-6393
▁मेकअप	-6394
▁मैराथ	-6395
▁मोगरे	-6396
▁मोनोप	-6397
▁यमुना	-6398
▁यादें	-6399
अल	-6400
्न	-6401
कंद	-6402
कड़	-6403
ज़्	-6404
राए	-6405
सीन	-6406
िकल	-6407
ुअल	-6408
▁तय	-6409
▁पच	-6410
ंवार	-6411
मानी	-6412
रखाव	-6413
रासव	-6414
ारकर	-6415
ृप्त	-6416
▁अटै	-6417
▁आयल	-6418
▁कंट	-6419
▁कॉट	-6420
▁चयन	-6421
▁डोल	-6422
▁नमी	-6423
▁भया	-6424
करकंद	-6425
कराना	-6426
ज़्ज़	-6427
र्मिन	-6428
संवार	-6429
▁अकड़	-6430
▁अटैक	-6431
▁आईडी	-6432
▁कॉटन	-6433
▁धरती	-6434
▁पचने	-6435
▁बंधा	-6436
▁बाबू	-6437
▁बोने	-6438
▁भव्य	-6439
▁शोहर	-6440
ज़्ज़त	-6441
थेरेपी	-6442
र्तमान	-6443
र्मिनल	-6444
▁आएंगे	-6445
▁उगादी	-6446
▁उतरकर	-6447
▁ओढ़ती	-6448
▁किराए	-6449
▁गरारे	-6450
▁छात्र	-6451
▁जोड़ा	-6452
▁डोलती	-6453
▁तुवरक	-6454
▁तृप्त	-6455
▁दक्षि	-6456
▁दालें	-6457
▁द्वीप	-6458
▁पापड़	-6459
▁बैठने	-6460
▁मारकर	-6461
▁यूपीआ	-6462
▁रम्मी	-6463
▁रामफल	-6464
▁रिटेल	-6465
▁रिमोट	-6466
▁रिवाज	-6467
▁रिसाव	-6468
▁रिस्क	-6469
▁रुझान	-6470
▁रुष्ट	-6471
▁रैकेट	-6472
▁रोगों	-6473
▁रोषित	-6474
▁लगवाओ	-6475
▁लगेगी	-6476
▁लटकाए	-6477
▁लपेटा	-6478
▁लावणी	-6479
▁लिखकर	-6480
▁लिखना	-6481
▁लिपटा	-6482
▁लिस्ट	-6483
▁लुहार	-6484
▁लूँगा	-6485
▁लोहार	-6486
▁लौटना	-6487
▁वाइल्	-6488
▁वायरस	-6489
▁वास्त	-6490
▁विकेट	-6491
▁विजया	-6492
▁वितरण	-6493
▁विधान	-6494
▁वियोग	-6495
▁विवाद	-6496
▁विवेक	-6497
▁विशाल	-6498
▁वैक्स	-6499
उच	-6500
बक	-6501
खेर	-6502
चेन	-6503
नाह	-6504
राश	-6505
सला	-6506
िति	-6507
ीदा	-6508
खड़ा	-6509
निधि	-6510
वादि	-6511
ोंघा	-6512
ौसला	-6513
▁कोट	-6514
▁खुर	-6515
▁चूह	-6516
▁नकद	-6517
▁पती	-6518
▁मीड	-6519
▁मूल	-6520
▁रूट	-6521
▁रें	-6522
▁लदा	-6523
कालीन	-6524
खेरते	-6525
जराती	-6526
त्रास	-6527
मच्छर	-6528
विभोर	-6529
▁अगली	-6530
▁कुकर	-6531
▁केवल	-6532
▁खराश	-6533
▁खुरद	-6534
▁छकने	-6535
▁दुबक	-6536
▁पूछो	-6537
▁बनाऊ	-6538
▁मिल्	-6539
▁मोची	-6540
▁यूवी	-6541
▁रेंग	-6542
▁हैंग	-6543
ड़खड़ा	-6544
▁असहाय	-6545
▁आभूषण	-6546
▁खोलना	-6547
▁गुनाह	-6548
▁गेहूँ	-6549
▁घोंघा	-6550
▁चिप्स	-6551
▁चूहों	-6552
▁चैत्र	-6553
▁टांगो	-6554
▁टिकता	-6555
▁निर्म	-6556
▁पतीला	-6557
▁मांगल	-6558
▁मिल्क	-6559
▁लड़ते	-6560
▁शिविर	-6561
▁शुक्ल	-6562
▁शैंपू	-6563
▁शैवाल	-6564
▁श्राव	-6565
▁श्लोक	-6566
▁श्वास	-6567
▁सँवार	-6568
▁संकरी	-6569
▁संक्र	-6570
▁संगठन	-6571
▁संसार	-6572
▁सजाना	-6573
▁सप्तप	-6574
▁सफ़ाई	-6575
▁सफारी	-6576
▁सफेदा	-6577
▁सब्सि	-6578
▁समझकर	-6579
▁समझता	-6580
▁समझना	-6581
▁समाता	-6582
▁समापन	-6583
▁समोसे	-6584
▁सरकार	-6585
▁सरपंच	-6586
▁सर्वध	-6587
▁सहमति	-6588
▁सांभर	-6589
▁साइंस	-6590
▁साइक्	-6591
▁साकार	-6592
▁सादगी	-6593
▁साधना	-6594
▁सिखाओ	-6595
▁सिर्फ	-6596
▁सीखती	-6597
▁सीटें	-6598
▁सुखमय	-6599
कि	-6600
दश	-6601
रल	-6602
रह	-6603
ीस	-6604
ोच	-6605
भरी	-6606
यरा	-6607
र्र	-6608
लाल	-6609
शरा	-6610
सोच	-6611
ीली	-6612
▁कण	-6613
▁टं	-6614
▁म्	-6615
ंगों	-6616
दशमी	-6617
पुरी	-6618
यराइ	-6619
र्पण	-6620
ुतला	-6621
▁इना	-6622
▁कहर	-6623
▁ग्र	-6624
▁चेस	-6625
▁दूं	-6626
▁भात	-6627
▁रैश	-6628
▁वॉल	-6629
▁सड़	-6630
च्चीस	-6631
जेक्ट	-6632
पुण्य	-6633
भतीजी	-6634
यराइड	-6635
शराबा	-6636
सोचते	-6637
िपुरी	-6638
▁इनाम	-6639
▁एंटी	-6640
▁कैरल	-6641
▁क्लब	-6642
▁ग्रं	-6643
▁घूंघ	-6644
▁टंकी	-6645
▁टर्र	-6646
▁तेरह	-6647
▁पाना	-6648
▁बसता	-6649
▁बहती	-6650
▁भीतर	-6651
▁मलने	-6652
▁रुखस	-6653
▁शिला	-6654
▁सीडर	-6655
णिपुरी	-6656
पूर्वक	-6657
▁अरदास	-6658
▁एक्सप	-6659
▁कन्फ़	-6660
▁कहरवा	-6661
▁क्रिप	-6662
▁खिंची	-6663
▁खोदना	-6664
▁गुलाल	-6665
▁ग्रंथ	-6666
▁चराने	-6667
▁छोटों	-6668
▁डिस्ट	-6669
▁धरोहर	-6670
▁नाचती	-6671
▁पुतला	-6672
▁बजाती	-6673
▁बेचकर	-6674
▁म्लान	-6675
▁समझने	-6676
▁सुन्न	-6677
▁सूचना	-6678
▁सेंटर	-6679
▁सेंसर	-6680
▁सेकता	-6681
▁सेवईं	-6682
▁सेहरा	-6683
▁सैंडल	-6684
▁सोचता	-6685
▁सोचते	-6686
▁सोचने	-6687
▁स्कैन	-6688
▁स्टाक	-6689
▁स्टॉल	-6690
▁स्थिर	-6691
▁हंसना	-6692
▁हटाता	-6693
▁हटाना	-6694
▁हड़ता	-6695
▁हलवाई	-6696
▁हारते	-6697
▁हार्ट	-6698
▁हार्ड	-6699
छल	-6700
ाए	-6701
ठली	-6702
ठें	-6703
पीट	-6704
भरे	-6705
▁आर	-6706
▁रू	-6707
बूला	-6708
्युफ	-6709
▁आरओ	-6710
▁उछल	-6711
▁कफन	-6712
▁कैब	-6713
▁क्ल	-6714
▁खुल	-6715
▁दरी	-6716
▁देन	-6717
▁बृह	-6718
▁मेल	-6719
▁शेर	-6720
▁सजी	-6721
ांठें	-6722
▁गवार	-6723
▁घिरा	-6724
▁तुरई	-6725
▁परिश	-6726
▁पर्स	-6727
▁बजाओ	-6728
▁बहाए	-6729
▁मेड़	-6730
▁मोज़	-6731
▁रोगन	-6732
▁हैरत	-6733
पीटिशन	-6734
▁उड़ती	-6735
▁कैमरा	-6736
▁क्लॉक	-6737
▁खेलती	-6738
▁गुठली	-6739
▁जाननी	-6740
▁झूलता	-6741
▁दीपों	-6742
▁देखिए	-6743
▁निवास	-6744
▁बबूला	-6745
▁बेहाल	-6746
▁मोज़े	-6747
▁रूमाल	-6748
▁वालों	-6749
▁विलास	-6750
▁सर्कस	-6751
▁सिंघा	-6752
▁स्किन	-6753
▁हिंग्	-6754
▁हिंदी	-6755
▁हिलती	-6756
▁हीरों	-6757
▁होर्ड	-6758
▁हौसला	-6759
ंट्रेटर	-6760
उचक्कों	-6761
ओडोरेंट	-6762
चिपुड़ी	-6763
टाग्राम	-6764
तिशबाजी	-6765
त्साहित	-6766
धान्वित	-6767
न्वंतरम	-6768
पत्तिकर	-6769
पायजामा	-6770
प्लांटर	-6771
प्लिकेट	-6772
फुल्लित	-6773
फ्लेक्स	-6774
बायोटिक	-6775
मकोड़ों	-6776
मर्सिबल	-6777
मानदारी	-6778
म्पोलिन	-6779
यरिंग्स	-6780
राइटिंग	-6781
र्धारित	-6782
र्यटकों	-6783
वरात्रि	-6784
ष्टाचार	-6785
समृद्धि	-6786
स्टमेंट	-6787
स्ताक्ष	-6788
ांजियों	-6789
ियर्ड्स	-6790
ॉडकास्ट	-6791
ोटोग्रा	-6792
्यांगों	-6793
्रप्रभा	-6794
्रेचिंग	-6795
्रोलाइट	-6796
▁अँधेरा	-6797
▁अंगीठी	-6798
▁अंतर्म	-6799
ंछ	-6800
दन	-6801
बु	-6802
सॉ	-6803
ाश	-6804
गरा	-6805
नार	-6806
▁लत	-6807
चंभे	-6808
बुरे	-6809
रबला	-6810
▁आदत	-6811
▁कठप	-6812
▁केत	-6813
▁ढेर	-6814
▁नाप	-6815
▁बुन	-6816
▁लाख	-6817
▁लार	-6818
इजेशन	-6819
ारकोल	-6820
ाश्रम	-6821
ेरियम	-6822
▁क्रम	-6823
▁चर्म	-6824
▁जपता	-6825
▁तरफ़	-6826
▁ताले	-6827
▁धनते	-6828
▁पूंछ	-6829
▁भूसा	-6830
▁मतलब	-6831
▁मरीज	-6832
▁मेले	-6833
▁मौका	-6834
▁रस्क	-6835
▁रागी	-6836
▁लागत	-6837
▁सख्त	-6838
▁समतल	-6839
▁सीसॉ	-6840
▁स्टो	-6841
थेरियम	-6842
▁अचंभे	-6843
▁असंभव	-6844
▁उगाना	-6845
▁कचनार	-6846
▁कठपुत	-6847
▁केतली	-6848
▁गर्दन	-6849
▁जमाकर	-6850
▁झनकाए	-6851
▁ड्रिल	-6852
▁त्रास	-6853
▁धनतेर	-6854
▁नागरा	-6855
▁पहननी	-6856
▁बदलता	-6857
▁महंगी	-6858
▁स्टोव	-6859
▁हाईवे	-6860
नाइजेशन	-6861
▁अकाउंट	-6862
▁अखंडता	-6863
▁अद्भुत	-6864
▁अनुबंध	-6865
▁अनुराग	-6866
▁अनुलोम	-6867
▁अन्याय	-6868
▁अप्रैल	-6869
▁अभिमान	-6870
▁अभियान	-6871
▁अभिराम	-6872
▁अमलतास	-6873
▁अमीरों	-6874
▁अर्घ्य	-6875
▁अलविदा	-6876
▁अवसरों	-6877
▁अशांति	-6878
▁अशोकार	-6879
▁असमिया	-6880
▁अहिंसा	-6881
▁आंतरिक	-6882
▁आकर्षक	-6883
▁आनंदित	-6884
▁आराधना	-6885
▁आर्चरी	-6886
▁आर्थिक	-6887
▁आलोकित	-6888
▁आल्हाद	-6889
▁आशंकित	-6890
▁आह्लाद	-6891
▁इंश्यो	-6892
▁इकट्ठी	-6893
▁उठावनी	-6894
▁उड़ाता	-6895
▁उतारना	-6896
▁उत्सुक	-6897
▁उपलब्ध	-6898
▁उपासना	-6899
एच	-6900
ंबन	-6901
इज़	-6902
काओ	-6903
गौन	-6904
टेन	-6905
वाई	-6906
ुवा	-6907
ैंप	-6908
▁आश	-6909
▁दश	-6910
▁सग	-6911
खावज	-6912
बारी	-6913
ावेश	-6914
▁आशं	-6915
▁कोड	-6916
▁गणप	-6917
▁गुड	-6918
▁पैं	-6919
▁फिट	-6920
▁बाँ	-6921
▁शनि	-6922
त्रिम	-6923
मेज़न	-6924
र्यात	-6925
वलंबन	-6926
्रगान	-6927
▁कराई	-6928
▁गुडू	-6929
▁चटाई	-6930
▁चलती	-6931
▁छाले	-6932
▁डीडी	-6933
▁दौरे	-6934
▁नापा	-6935
▁नीची	-6936
▁पीसा	-6937
▁पैंट	-6938
▁बंजी	-6939
▁युवा	-6940
▁लेटा	-6941
▁लैंप	-6942
▁सगाई	-6943
▁सुंद	-6944
▁हॉबी	-6945
योगराज	-6946
लेक्टर	-6947
लेरिया	-6948
सायनिक	-6949
▁आशंका	-6950
▁कटोरी	-6951
▁कुद्ध	-6952
▁क्विज	-6953
▁गणपति	-6954
▁चढ़ाई	-6955
▁चमकाओ	-6956
▁दशहरा	-6957
▁पकड़ा	-6958
▁पखावज	-6959
▁पड़वा	-6960
▁पात्र	-6961
▁बाँधा	-6962
▁मक्खी	-6963
▁लगवाई	-6964
▁वचनों	-6965
▁शोहरत	-6966
▁सागौन	-6967
ग्लासेस	-6968
▁अमेज़न	-6969
▁उबालता	-6970
▁उमंगित	-6971
▁उर्वरक	-6972
▁उल्लास	-6973
▁एकतारा	-6974
▁एकादशी	-6975
▁एड्रेस	-6976
▁एम्यूज	-6977
▁एलपीजी	-6978
▁एसएमएस	-6979
▁एस्केप	-6980
▁कंबाइन	-6981
▁कटवाता	-6982
▁कटवाने	-6983
▁कड़ाही	-6984
▁कनकासव	-6985
▁कमरबंद	-6986
▁करवाना	-6987
▁करवानी	-6988
▁करवाने	-6989
▁करवाया	-6990
▁करौंदा	-6991
▁कर्मों	-6992
▁कलौंजी	-6993
▁कल्पना	-6994
▁कस्टमर	-6995
▁कांपता	-6996
▁कारपेट	-6997
▁कारीगर	-6998
▁कार्ति	-6999
टेस	-7000
तीय	-7001
निह	-7002
ोंच	-7003
▁मई	-7004
लावा	-7005
िशिय	-7006
▁कूट	-7007
▁कोच	-7008
▁चाक	-7009
▁जलन	-7010
▁टकर	-7011
▁दिश	-7012
▁बला	-7013
▁सती	-7014
▁होज	-7015
खियां	-7016
निहाल	-7017
सुथरे	-7018
िशियन	-7019
▁करों	-7020
▁घोलो	-7021
▁चुना	-7022
▁चोंच	-7023
▁टकरा	-7024
▁डुबो	-7025
▁दिशा	-7026
▁दुखा	-7027
▁पदवी	-7028
▁पाता	-7029
▁पाती	-7030
▁पालक	-7031
▁प्री	-7032
▁फ़तह	-7033
▁भगाओ	-7034
▁लानी	-7035
▁वेतन	-7036
▁सन्न	-7037
▁होड़	-7038
बिरंगा	-7039
▁अलावा	-7040
▁उपवास	-7041
▁कर्मच	-7042
▁कूटने	-7043
▁तुमसे	-7044
▁देवता	-7045
▁नहाकर	-7046
▁प्रणय	-7047
▁फ़ोटो	-7048
▁महकती	-7049
▁महारा	-7050
▁मिलिए	-7051
▁मुराद	-7052
▁लगाती	-7053
र्गुणों	-7054
ष्ट्रीय	-7055
्रैटेजी	-7056
▁अंकलेट	-7057
▁अल्लाह	-7058
▁करोंदा	-7059
▁कालमेघ	-7060
▁किनारी	-7061
▁कीड़ों	-7062
▁कीर्ति	-7063
▁कुकीज़	-7064
▁कुट्टू	-7065
▁कुल्फी	-7066
▁कुसुमा	-7067
▁केंचुआ	-7068
▁केंद्र	-7069
▁कैलोरी	-7070
▁कॉमेडी	-7071
▁कोमलता	-7072
▁कोस्टर	-7073
▁क्यूआर	-7074
▁क्रॉसव	-7075
▁क्लीनर	-7076
▁खरबूजा	-7077
▁खरबूजे	-7078
▁खरीदता	-7079
▁खाऊंगा	-7080
▁खिंचवा	-7081
▁खिलाती	-7082
▁खिलाना	-7083
▁खिलौना	-7084
▁खुशनुम	-7085
▁गप्पें	-7086
▁गर्मजो	-7087
▁गांठें	-7088
▁गारंटी	-7089
▁गार्डन	-7090
▁गिराते	-7091
▁गिराया	-7092
▁गुंजार	-7093
▁गुजरने	-7094
▁गुडूची	-7095
▁गुड्डे	-7096
▁गुरुद्	-7097
▁गुलकंद	-7098
▁गुल्ली	-7099
हस	-7100
ंगर	-7101
ज़ल	-7102
टाई	-7103
पहल	-7104
▁तप	-7105
▁ति	-7106
▁शू	-7107
ंदरू	-7108
पत्र	-7109
र्मी	-7110
ुआरे	-7111
ोच्च	-7112
▁ऊबर	-7113
▁कंक	-7114
▁खाए	-7115
▁गाल	-7116
▁चले	-7117
▁तंग	-7118
▁तने	-7119
▁परम	-7120
▁बंग	-7121
▁भला	-7122
▁भ्र	-7123
▁महल	-7124
▁रखे	-7125
▁सित	-7126
धीकरण	-7127
स्ताव	-7128
ियाघर	-7129
▁उनकी	-7130
▁केबल	-7131
▁खटाई	-7132
▁खाती	-7133
▁झूमा	-7134
▁टॉफी	-7135
▁तिथि	-7136
▁पंचम	-7137
▁पज़ल	-7138
▁बनना	-7139
▁बहता	-7140
▁बांज	-7141
▁बूँद	-7142
▁लंगर	-7143
▁शर्म	-7144
▁साया	-7145
▁साहस	-7146
▁सुने	-7147
ोच्चार	-7148
▁असत्य	-7149
▁उफनने	-7150
▁औरतें	-7151
▁कंकड़	-7152
▁कामना	-7153
▁कैशोर	-7154
▁खुलने	-7155
▁चलेगा	-7156
▁चाहती	-7157
▁परलोक	-7158
▁पोंछे	-7159
▁बनवाओ	-7160
▁बिकती	-7161
▁बेकार	-7162
▁लहलहा	-7163
▁वर्मी	-7164
▁विलोम	-7165
▁वॉलेट	-7166
▁हटाकर	-7167
तिपूर्ण	-7168
याभिभूत	-7169
▁कटवाकर	-7170
▁करवाती	-7171
▁कुंदरू	-7172
▁गुस्सा	-7173
▁गूंथता	-7174
▁गूंथने	-7175
▁गेजिंग	-7176
▁ग्राफी	-7177
▁ग्लूको	-7178
▁घबराया	-7179
▁घूंघरू	-7180
▁चकोतरा	-7181
▁चट्टान	-7182
▁चढ़ाते	-7183
▁चमकाना	-7184
▁चमकीले	-7185
▁चरवाहा	-7186
▁चाँदनी	-7187
▁चांदनी	-7188
▁चारकोल	-7189
▁चित्रण	-7190
▁चुकाना	-7191
▁चुपचाप	-7192
▁चैरिटी	-7193
▁च्यवनप	-7194
▁छात्रा	-7195
▁छिड़की	-7196
▁छिड़को	-7197
▁छुट्टे	-7198
▁छुपाना	-7199
दक	-7200
गार	-7201
ालु	-7202
िरह	-7203
▁छऊ	-7204
▁ये	-7205
▁वश	-7206
जड़ी	-7207
भैंस	-7208
मोजे	-7209
िश्र	-7210
▁कबू	-7211
▁कसी	-7212
▁कही	-7213
▁कैच	-7214
▁गजन	-7215
▁जाए	-7216
▁पेज	-7217
▁मकर	-7218
▁माय	-7219
▁मास	-7220
गुणों	-7221
सवारी	-7222
▁आपात	-7223
▁एलान	-7224
▁कंघा	-7225
▁कीवी	-7226
▁खोला	-7227
▁गिरे	-7228
▁जलता	-7229
▁टहला	-7230
▁नीयत	-7231
▁फेरे	-7232
▁बेला	-7233
▁मादक	-7234
▁सवाल	-7235
▁साँस	-7236
▁सीमा	-7237
▁सोफे	-7238
▁स्या	-7239
▁हरड़	-7240
▁हुईं	-7241
िश्रित	-7242
▁उपाधि	-7243
▁कबूतर	-7244
▁कामों	-7245
▁ज्वार	-7246
▁दलिया	-7247
▁पहनाए	-7248
▁पिकअप	-7249
▁फसलों	-7250
▁बरतते	-7251
▁मांगे	-7252
▁मायका	-7253
▁रंगों	-7254
▁सताती	-7255
▁सहेली	-7256
तारिष्ट	-7257
ूलॉजिकल	-7258
▁कुमकुम	-7259
▁क्रीमी	-7260
▁खेजड़ी	-7261
▁घबराहट	-7262
▁छुपाया	-7263
▁छुप्पी	-7264
▁छुहारा	-7265
▁छुहारे	-7266
▁छोड़ते	-7267
▁छोड़नी	-7268
▁छोड़ें	-7269
▁जंपिंग	-7270
▁जनरेटर	-7271
▁जलवायु	-7272
▁जहरीला	-7273
▁ज़रूरत	-7274
▁जांचना	-7275
▁जांचनी	-7276
▁जात्रा	-7277
▁जीएसटी	-7278
▁जीपीएस	-7279
▁जुड़ती	-7280
▁जुम्बा	-7281
▁ज्वरहर	-7282
▁ज्वाइन	-7283
▁ज्वाला	-7284
▁झाड़कर	-7285
▁झाड़ता	-7286
▁झुलाने	-7287
▁टोस्टर	-7288
▁ट्रस्ट	-7289
▁ट्रेजर	-7290
▁डाकिया	-7291
▁डिग्री	-7292
▁डिजाइन	-7293
▁डिब्बे	-7294
▁डीटीएच	-7295
▁डुबोकर	-7296
▁डोमिनो	-7297
▁ड्रायर	-7298
▁ढूंढने	-7299
पोश	-7300
मित	-7301
म्ह	-7302
ादि	-7303
्टो	-7304
्ठी	-7305
▁छप	-7306
▁टब	-7307
▁यश	-7308
त्पर	-7309
बिया	-7310
ारित	-7311
्राश	-7312
▁कवर	-7313
▁चलो	-7314
▁जाल	-7315
▁टाई	-7316
▁डां	-7317
▁दाई	-7318
▁बोझ	-7319
▁राई	-7320
▁लौट	-7321
▁हां	-7322
मुटाव	-7323
म्हार	-7324
▁अक्ष	-7325
▁ऊँचे	-7326
▁छुरी	-7327
▁डांट	-7328
▁डीजे	-7329
▁पाला	-7330
▁फॉलो	-7331
▁मलहम	-7332
▁मिठी	-7333
▁लीची	-7334
▁हमने	-7335
क्रिया	-7336
प्रसाद	-7337
▁अक्षय	-7338
▁अग्नि	-7339
▁कराहा	-7340
▁डालनी	-7341
▁तड़पा	-7342
▁तत्पर	-7343
▁पड़ते	-7344
▁बहुओं	-7345
▁बाजरे	-7346
▁महँगा	-7347
▁मिलेज	-7348
▁वर्णन	-7349
▁शहतूत	-7350
▁संचयन	-7351
▁संतूर	-7352
▁समभाव	-7353
▁सीमित	-7354
▁हड्डी	-7355
▁अच्छाई	-7356
▁अनुपात	-7357
▁असफलता	-7358
▁खिंचाव	-7359
▁चंचलता	-7360
▁चिट्ठी	-7361
▁छुप्पन	-7362
▁तत्वों	-7363
▁तमन्ना	-7364
▁तरबूज़	-7365
▁तारीफ़	-7366
▁तीखाहट	-7367
▁तैराते	-7368
▁तोड़ते	-7369
▁तोड़ने	-7370
▁त्रसित	-7371
▁त्रस्त	-7372
▁थिरकने	-7373
▁दंगभंग	-7374
▁दरबारी	-7375
▁दरांती	-7376
▁दहाड़ा	-7377
▁दिक्कत	-7378
▁दिखानी	-7379
▁दिखाने	-7380
▁दिमागी	-7381
▁दिलाता	-7382
▁दिलाते	-7383
▁दिलाना	-7384
▁दिलासा	-7385
▁दिसंबर	-7386
▁दुर्लभ	-7387
▁देवदार	-7388
▁देहांत	-7389
▁दौड़ती	-7390
▁दौड़ते	-7391
▁दौड़ने	-7392
▁धनतेरस	-7393
▁धर्मों	-7394
▁धुंधला	-7395
▁धुंधले	-7396
▁नज़दीक	-7397
▁नज़ारा	-7398
▁ननिहाल	-7399
केस	-7400
जाज	-7401
जीत	-7402
▁छठ	-7403
▁दम	-7404
रोते	-7405
िनीअ	-7406
▁चखा	-7407
▁चिर	-7408
▁छाल	-7409
▁जली	-7410
▁तले	-7411
▁दूज	-7412
▁कक्ष	-7413
▁कापी	-7414
▁चौथे	-7415
▁जीता	-7416
▁जीने	-7417
▁डरने	-7418
▁दिवस	-7419
▁नाली	-7420
▁पहरा	-7421
▁बारी	-7422
▁मिनी	-7423
▁मिलो	-7424
▁यूरो	-7425
▁रेजर	-7426
▁रोता	-7427
▁रोते	-7428
▁रोया	-7429
▁लेजी	-7430
▁सड़े	-7431
▁सिला	-7432
नापसंद	-7433
▁अनादर	-7434
▁उगाने	-7435
▁उजाली	-7436
▁उड़ान	-7437
▁एग्री	-7438
▁कूड़े	-7439
▁खाओगे	-7440
▁खोजते	-7441
▁घूमते	-7442
▁छिलका	-7443
▁झुकाए	-7444
▁दबाने	-7445
▁दूंगा	-7446
▁पूड़ी	-7447
▁पूड़े	-7448
▁फुलाए	-7449
▁बांटे	-7450
▁बिठाए	-7451
▁भगाता	-7452
▁मांगी	-7453
▁मिजाज	-7454
▁मिलनी	-7455
▁रुमाल	-7456
▁शोकेस	-7457
▁सलवार	-7458
▁सुखाए	-7459
▁स्टार	-7460
▁अर्जुन	-7461
▁अवसन्न	-7462
▁उठूंगा	-7463
▁उतारता	-7464
▁कुकिंग	-7465
▁खाएंगे	-7466
▁चाचाजी	-7467
▁दिखाती	-7468
▁नर्सरी	-7469
▁नवाचार	-7470
▁नवासों	-7471
▁नहलाने	-7472
▁नहलाया	-7473
▁नागरिक	-7474
▁नारदीय	-7475
▁निकलते	-7476
▁निकलना	-7477
▁निखरता	-7478
▁निगलें	-7479
▁निभाता	-7480
▁निभाने	-7481
▁निराशा	-7482
▁निरुत्	-7483
▁निर्भर	-7484
▁निर्मल	-7485
▁निवारक	-7486
▁निष्ठा	-7487
▁नूडल्स	-7488
▁नेकलेस	-7489
▁नेब्यू	-7490
▁नोटबुक	-7491
▁पंचगुण	-7492
▁पच्चीस	-7493
▁पढ़ाता	-7494
▁पतंजलि	-7495
▁परिणाम	-7496
▁पहनाने	-7497
▁पहियों	-7498
▁पाबंदी	-7499
▁एक्	-7500
▁औरत	-7501
▁लेख	-7502
▁सीड	-7503
दर्शक	-7504
▁आँधी	-7505
▁झंडा	-7506
▁लेंस	-7507
▁सीने	-7508
▁घोषणा	-7509
▁तारीफ	-7510
▁पिछला	-7511
▁दृष्टि	-7512
▁पिघलकर	-7513
▁पिज्जा	-7514
▁पितरों	-7515
▁पियानो	-7516
▁पिलाता	-7517
▁पिलाया	-7518
▁पुदीने	-7519
▁पूकलम्	-7520
▁पूजनीय	-7521
▁पेंसिल	-7522
▁पैकिंग	-7523
▁पैराग्	-7524
▁पॉलिसी	-7525
▁प्यारे	-7526
▁प्रणाम	-7527
▁प्रबंध	-7528
▁प्रमुख	-7529
▁प्रवाल	-7530
▁प्रवाह	-7531
▁प्रिंट	-7532
▁प्लेयर	-7533
▁प्लैने	-7534
▁फ़्यूल	-7535
▁फावड़े	-7536
▁फिजियो	-7537
▁फिल्मी	-7538
▁फिसलने	-7539
▁फुर्सत	-7540
▁फुलाकर	-7541
▁फुलाते	-7542
▁फूलदान	-7543
▁फेंकते	-7544
▁फेफड़े	-7545
▁फैलाता	-7546
▁फैलाने	-7547
▁फैलेगी	-7548
▁फोड़कर	-7549
▁फ्रांस	-7550
▁बंगाली	-7551
▁बढ़ेगी	-7552
▁बनवाईं	-7553
▁बनवाते	-7554
▁बनवाने	-7555
▁बहेड़ा	-7556
▁बांटता	-7557
▁बांधती	-7558
▁बांधनी	-7559
▁बांधने	-7560
▁बाउंसी	-7561
▁बागीचे	-7562
▁बातचीत	-7563
▁बाबूजी	-7564
▁बालकनी	-7565
▁बासमती	-7566
▁बिछाकर	-7567
▁बिठाते	-7568
▁बिठाना	-7569
▁बिताना	-7570
▁बिरंगी	-7571
▁बुझाना	-7572
▁बुलाकर	-7573
▁बुलाते	-7574
▁बेचैनी	-7575
▁बैठाकर	-7576
▁बैसाखी	-7577
▁बॉर्डर	-7578
▁बोरवेल	-7579
▁बोलिंग	-7580
▁ब्रह्म	-7581
▁ब्रेकर	-7582
▁भंडारे	-7583
▁भयप्रद	-7584
▁भयाकुल	-7585
▁भरवाना	-7586
▁भांजों	-7587
▁भारतीय	-7588
▁भिगोना	-7589
▁भीतभीत	-7590
▁भैंसों	-7591
▁मंज़िल	-7592
▁मछुआरे	-7593
▁मजदूरी	-7594
▁मज़बूत	-7595
▁मनमोहक	-7596
▁मरम्मत	-7597
▁मसालों	-7598
▁मस्जिद	-7599
▁महीनों	-7600
▁मालिनी	-7601
▁मिक्सर	-7602
▁मिटाने	-7603
▁मियाँव	-7604
▁मिर्गी	-7605
▁मिलजुल	-7606
▁मिलाते	-7607
▁मिलाने	-7608
▁मीटिंग	-7609
▁मीडिया	-7610
▁मुखिया	-7611
▁मुट्ठी	-7612
▁मुनाफा	-7613
▁मूंछें	-7614
▁मेंहदी	-7615
▁मेन्यू	-7616
▁मेहनती	-7617
▁मैराथन	-7618
▁मोटापा	-7619
▁म्लानि	-7620
▁यूपीआई	-7621
▁यूपीएस	-7622
▁योगदान	-7623
▁योगराज	-7624
▁रंगमंच	-7625
▁रंगीले	-7626
▁रखरखाव	-7627
▁रखवाली	-7628
▁रखूँगा	-7629
▁रसोइया	-7630
▁रागिनी	-7631
▁रामदेव	-7632
▁रामधुन	-7633
▁रिटर्न	-7634
▁रिटायर	-7635
▁रिटेलर	-7636
▁रिदमिक	-7637
▁रिसर्च	-7638
▁रुकावट	-7639
▁रुखसती	-7640
▁रेसिपी	-7641
▁रेहड़ी	-7642
▁रोजगार	-7643
▁रोटेशन	-7644
▁रोमांच	-7645
▁रोमांस	-7646
▁लाऊंगा	-7647
▁लालटेन	-7648
▁लेनदेन	-7649
▁लोबिया	-7650
▁लोहड़ी	-7651
▁वाईफाई	-7652
▁वारंटी	-7653
▁वाशिंग	-7654
▁विदेशी	-7655
▁विद्या	-7656
▁विरासत	-7657
▁विस्मय	-7658
▁विह्वल	-7659
▁वॉकिंग	-7660
▁वॉचिंग	-7661
▁व्यतीत	-7662
▁शकरकंद	-7663
▁शतावरी	-7664
▁शाबाशी	-7665
▁शूटिंग	-7666
▁शेविंग	-7667
▁शॉपिंग	-7668
▁श्मशान	-7669
▁श्रावण	-7670
▁संकल्प	-7671
▁संजोकर	-7672
▁संतप्त	-7673
▁संतुलन	-7674
▁संपन्न	-7675
▁संवारे	-7676
▁सटीकता	-7677
▁सड़कें	-7678
▁सड़कों	-7679
▁सफ़रजन	-7680
▁सभ्यता	-7681
▁समझदार	-7682
▁समर्पण	-7683
▁समाधान	-7684
▁समुंदर	-7685
▁समुचित	-7686
▁सराहना	-7687
▁सर्विस	-7688
▁ससुराल	-7689
▁सिक्के	-7690
▁सिखाईं	-7691
▁सिगरेट	-7692
▁सिग्नल	-7693
▁सिलिंग	-7694
▁सीएफएल	-7695
▁सीखेगा	-7696
▁सुखाया	-7697
▁सुडोकू	-7698
▁सुधरता	-7699
▁सुधारा	-7700
▁सुधारी	-7701
▁सुनसान	-7702
▁सुनाकर	-7703
▁सुनाता	-7704
▁सुनाने	-7705
▁सुनामी	-7706
▁सुलाने	-7707
▁सुलाया	-7708
▁सूनापन	-7709
▁सेंकने	-7710
▁सेवाओं	-7711
▁स्कूबा	-7712
▁स्कैनर	-7713
▁स्तुति	-7714
▁स्थिति	-7715
▁स्नूकर	-7716
▁स्पीकर	-7717
▁स्पेयर	-7718
▁स्याही	-7719
▁स्लाइड	-7720
▁स्वेटर	-7721
▁हड़ताल	-7722
▁हर्षित	-7723
▁हांकता	-7724
▁हितैषी	-7725
▁हिमपात	-7726
▁हिलाता	-7727
▁हेडफोन	-7728
▁हैप्पी	-7729
▁होंठों	-7730
▁होलिका	-7731
इक्वांडो	-7732
क्नोलॉजी	-7733
क्रॉपिंग	-7734
नवासियों	-7735
निर्भरता	-7736
भांजियों	-7737
मद्भागवत	-7738
मार्यासव	-7739
ल्कापिंड	-7740
वणभास्कर	-7741
संतुष्टि	-7742
साक्षात्	-7743
स्ताक्षर	-7744
ेजेंटेशन	-7745
ॉर्कलिंग	-7746
्तपापड़ा	-7747
्योपैथिक	-7748
्रासाउंड	-7749
्रिजरेटर	-7750
्वसकुठार	-7751
▁अंगड़ाई	-7752
▁अंतर्मन	-7753
▁अकेलापन	-7754
▁अकेलेपन	-7755
▁अचकचाकर	-7756
▁अनुरक्त	-7757
▁अनुरागी	-7758
▁अन्नकूट	-7759
▁अभिलाषा	-7760
▁अभिलाषी	-7761
▁अमर्षित	-7762
▁अर्थहीन	-7763
▁अहंकारी	-7764
▁आक्रांत	-7765
▁आपूर्ति	-7766
▁आवाज़ें	-7767
▁आवाज़ों	-7768
▁इंडक्शन	-7769
▁इज़्ज़त	-7770
▁इथेरियम	-7771
▁इनवर्टर	-7772
▁इन्हेलर	-7773
▁उर्वरता	-7774
▁एडवर्टा	-7775
▁कंट्रोल	-7776
▁कंडक्टर	-7777
▁कंपोस्ट	-7778
▁कठपुतली	-7779
▁कन्फर्म	-7780
▁कन्याओं	-7781
▁कन्वर्ट	-7782
▁कराऊंगा	-7783
▁कलेक्टर	-7784
▁कल्याणक	-7785
▁कांजीरा	-7786
▁कामयाबी	-7787
▁कार्टून	-7788
▁कार्तिक	-7789
▁कीटनाशक	-7790
▁कुम्हार	-7791
▁कुरकुरी	-7792
▁कृत्रिम	-7793
▁कैरोसीन	-7794
▁कैलेंडर	-7795
▁कॉपियां	-7796
▁कोलकाता	-7797
▁क्योंकि	-7798
▁क्रिसमस	-7799
▁क्रूरता	-7800
▁क्लाइम्	-7801
▁क्षुब्ध	-7802
▁क्षेत्र	-7803
▁खड़खड़ा	-7804
▁खरपतवार	-7805
▁खरबूज़ा	-7806
▁खिन्नता	-7807
▁खिलौनों	-7808
▁खुदवाया	-7809
▁खुरदुरा	-7810
▁खुलवाते	-7811
▁खुशखबरी	-7812
▁खुशियां	-7813
▁खुशियों	-7814
▁खेलेंगे	-7815
▁खोलूंगा	-7816
▁ख्वाहिश	-7817
▁गर्भवती	-7818
▁गर्माहट	-7819
▁गुजराती	-7820
▁गुज़रना	-7821
▁गुलमोहर	-7822
▁गूदेदार	-7823
▁गोवर्धन	-7824
▁ग्रंथों	-7825
▁घंटियों	-7826
▁चक्रवात	-7827
▁चमत्कृत	-7828
▁चलाएंगे	-7829
▁चहचहाहट	-7830
▁चाबियां	-7831
▁चाबियों	-7832
▁चिचिंडा	-7833
▁चौंधिया	-7834
▁चौकीदार	-7835
▁छिड़कता	-7836
▁छिड़कते	-7837
▁छिड़कना	-7838
▁जलकुंभी	-7839
▁ज़ेब्रा	-7840
▁जांघिया	-7841
▁जानवरों	-7842
▁जुटूंगा	-7843
▁झिलमिला	-7844
▁टर्नओवर	-7845
▁टर्मिनल	-7846
▁टिमटिमा	-7847
▁टूरिज्म	-7848
▁टेलीफोन	-7849
▁डांडिया	-7850
▁डाइनिंग	-7851
▁डाइविंग	-7852
▁तनख्वाह	-7853
▁तरोताजा	-7854
▁तिलमिला	-7855
▁त्यागने	-7856
▁त्रासित	-7857
▁त्रिकटु	-7858
▁त्रिफला	-7859
▁थर्राया	-7860
▁थायराइड	-7861
▁दक्षिणा	-7862
▁दयालुता	-7863
▁दर्शकों	-7864
▁दस्ताने	-7865
▁दानेदार	-7866
▁दीपावली	-7867
▁दीवारें	-7868
▁दीवारों	-7869
▁दुकानें	-7870
▁दुश्मनी	-7871
▁देवताओं	-7872
▁नज़रिया	-7873
▁निकालता	-7874
▁निकालने	-7875
▁निगरानी	-7876
▁निचोड़ो	-7877
▁निर्जला	-7878
▁निर्यात	-7879
▁निहारता	-7880
▁नैतिकता	-7881
▁पढ़ूंगा	-7882
▁पत्थरों	-7883
▁परिश्रम	-7884
▁परीक्षण	-7885
▁परोपकार	-7886
▁पशुपालन	-7887
▁पसंदीदा	-7888
▁पहचानता	-7889
▁पहचानना	-7890
▁पहुंचती	-7891
▁पहुंचते	-7892
▁पायजामा	-7893
▁पार्ट्स	-7894
▁पासवर्ड	-7895
▁पिंडदान	-7896
▁पिलाटेस	-7897
▁पुरोहित	-7898
▁पेंटबॉल	-7899
▁पेंटिंग	-7900
▁पोतियों	-7901
▁प्रदूषण	-7902
▁प्रशंसा	-7903
▁प्रिंटर	-7904
▁प्रेरणा	-7905
▁प्रॉफिट	-7906
▁प्लांटर	-7907
▁फर्नीचर	-7908
▁फव्वारे	-7909
▁फुफकारा	-7910
▁फुहारें	-7911
▁फूंकारा	-7912
▁फूलगोभी	-7913
▁फेंसिंग	-7914
▁फेफड़ों	-7915
▁फैशनेबल	-7916
▁बंटवारा	-7917
▁बंदगोभी	-7918
▁बदबूदार	-7919
▁बनाऊंगी	-7920
▁बागवानी	-7921
▁बिखेरते	-7922
▁बिगड़ता	-7923
▁बिगड़ते	-7924
▁बिटकॉइन	-7925
▁बेईमानी	-7926
▁बेचूंगा	-7927
▁बेस्वाद	-7928
▁बेहतरीन	-7929
▁बोनफायर	-7930
▁ब्रह्मी	-7931
▁ब्लाउज़	-7932
▁ब्लूटूथ	-7933
▁ब्लेज़र	-7934
▁भनभनाहट	-7935
▁भाईचारा	-7936
▁भृंगराज	-7937
▁भोलेनाथ	-7938
▁भौचक्का	-7939
▁मंगवाते	-7940
▁मकोड़ों	-7941
▁मगरमच्छ	-7942
▁मच्छरों	-7943
▁मजदूरों	-7944
▁मज़ेदार	-7945
▁मणिपुरी	-7946
▁मनमुटाव	-7947
▁मनोरंजन	-7948
▁मरीज़ों	-7949
▁मर्यादा	-7950
▁मलेरिया	-7951
▁मल्चिंग	-7952
▁महाआरती	-7953
▁मांगलिक	-7954
▁मांसपेश	-7955
▁माइक्रो	-7956
▁माउथवॉश	-7957
▁मार्जिन	-7958
▁मित्रों	-7959
▁मिश्रित	-7960
▁मुनक्का	-7961
▁मुशायरा	-7962
▁मूर्खता	-7963
▁मूल्यों	-7964
▁मेज़पोश	-7965
▁मैन्युफ	-7966
▁मोनोपली	-7967
▁मोहल्ला	-7968
▁मोहल्ले	-7969
▁मोहिनीअ	-7970
▁मौजूदगी	-7971
▁म्यूजिक	-7972
▁यंत्रों	-7973
▁यक्षगान	-7974
▁यूरोपीय	-7975
▁योजनाएं	-7976
▁योजनाओं	-7977
▁रक्तचाप	-7978
▁राइडिंग	-7979
▁रासलीला	-7980
▁रियलिटी	-7981
▁रीसाइकल	-7982
▁रुकवाना	-7983
▁रुचियों	-7984
▁रोमांचक	-7985
▁लक्षादि	-7986
▁लगाऊंगा	-7987
▁लगाएंगे	-7988
▁लाइटिंग	-7989
▁लोधरासव	-7990
▁वर्चुअल	-7991
▁वर्तमान	-7992
▁वस्तुएं	-7993
▁वस्तुओं	-7994
▁विधवाओं	-7995
▁विपत्ति	-7996
▁विसर्जन	-7997
▁वेबसाइट	-7998
▁वैक्यूम	-7999
▁व्यवसाय	-8000
▁शदबिंदु	-8001
▁शिलाजीत	-8002
▁शिवलिंग	-8003
▁शून्यता	-8004
▁शॉर्टकट	-8005
▁शोकातुर	-8006
▁श्रीराम	-8007
▁संक्रमण	-8008
▁संजीवनी	-8009
▁संतुष्ट	-8010
▁संभालकर	-8011
▁संभालते	-8012
▁संवर्धन	-8013
▁संविधान	-8014
▁संवेदना	-8015
▁सदाबहार	-8016
▁सनसनाहट	-8017
▁सप्तपदी	-8018
▁सप्तसार	-8019
▁सब्सिडी	-8020
▁समृद्धि	-8021
▁सम्मेलन	-8022
▁सर्फिंग	-8023
▁सलाहकार	-8024
▁साझीदार	-8025
▁सात्विक	-8026
▁सामान्य	-8027
▁सालगिरह	-8028
▁सिलिंडर	-8029
▁सुखदायक	-8030
▁सुदर्शन	-8031
▁सुधारती	-8032
▁सुधारना	-8033
▁सुधारने	-8034
▁सुनेंगे	-8035
▁सुपाच्य	-8036
▁सुलझाया	-8037
▁सुहावनी	-8038
▁स्ट्रीट	-8039
▁स्ट्रोक	-8040
▁स्तंभित	-8041
▁स्तनपान	-8042
▁स्थानीय	-8043
▁स्थापित	-8044
▁स्नेहमय	-8045
▁स्नैक्स	-8046
▁स्पोर्ट	-8047
▁हाइकिंग	-8048
▁हितकारी	-8049
▁हियरिंग	-8050
▁हुल्लड़	-8051
▁हेडलाइट	-8052
▁हैंडबैग	-8053
▁होलसेलर	-8054
एक्सपोर्ट	-8055
ट्रिएंट्स	-8056
ोटोग्राफी	-8057
्रिब्यूशन	-8058
▁अंग्रेजी	-8059
▁अधिकारों	-8060
▁अनुष्ठान	-8061
▁अनुसंधान	-8062
▁अपनाऊंगा	-8063
▁अपराजिता	-8064
▁आकांक्षा	-8065
▁आकाशगंगा	-8066
▁आक्रोशित	-8067
▁आतिशबाजी	-8068
▁आधुनिकता	-8069
▁आनंददायक	-8070
▁आल्हादित	-8071
▁इंजीनियर	-8072
▁इंजेक्शन	-8073
▁इमानदारी	-8074
▁इम्पोर्ट	-8075
▁इयरिंग्स	-8076
▁उत्फुल्ल	-8077
▁उद्विग्न	-8078
▁उपस्थिति	-8079
▁एकाग्रता	-8080
▁एक्सचेंज	-8081
▁एग्जॉस्ट	-8082
▁एयरपोर्ट	-8083
▁एरोबिक्स	-8084
▁कन्फ़र्म	-8085
▁कन्यादान	-8086
▁कपालभाति	-8087
▁करवाऊँगा	-8088
▁कर्मचारी	-8089
▁काँटेदार	-8090
▁कार्टिंग	-8091
▁कार्निवल	-8092
▁कुसुमाकर	-8093
▁कैम्पिंग	-8094
▁कोपायमान	-8095
▁क्रिप्टो	-8096
▁क्रॉपिंग	-8097
▁क्रॉसफिट	-8098
▁क्रॉसिंग	-8099
▁क्लासिकल	-8100
▁क्षीरबला	-8101
▁खुशनुमाई	-8102
▁गर्मजोशी	-8103
▁गुरुवाणी	-8104
▁गुर्राया	-8105
▁ग्राइंडर	-8106
▁ग्रीसिंग	-8107
▁चिकित्सक	-8108
▁चिकित्सा	-8109
▁चिड़ियाँ	-8110
▁चित्रकला	-8111
▁चिल्लाता	-8112
▁जागरूकता	-8113
▁जात्यादि	-8114
▁जीवनशैली	-8115
▁जूलॉजिकल	-8116
▁टूथपेस्ट	-8117
▁ट्रेकिंग	-8118
▁ट्रेनिंग	-8119
▁ट्विस्टर	-8120
▁तरोताज़ा	-8121
▁तितलियां	-8122
▁तितलियों	-8123
▁तुषारपात	-8124
▁तेजपत्ता	-8125
▁त्योहारी	-8126
▁थेरुकूथु	-8127
▁दशमूलादि	-8128
▁दस्तावेज	-8129
▁दिखाऊंगा	-8130
▁दुरुपयोग	-8131
▁दुर्घटना	-8132
▁धन्वंतरम	-8133
▁धूपबत्ती	-8134
▁धैर्यवान	-8135
▁निचोड़ता	-8136
▁निभाएंगे	-8137
▁नियंत्रण	-8138
▁नियुक्ति	-8139
▁निष्पक्ष	-8140
▁पदार्थों	-8141
▁परंपराओं	-8142
▁पर्यटकों	-8143
▁पहुंचाता	-8144
▁पहेलियों	-8145
▁पाइपलाइन	-8146
▁पितृपक्ष	-8147
▁पीढ़ियों	-8148
▁पुनर्नवा	-8149
▁पूर्वजों	-8150
▁पैम्फलेट	-8151
▁पॉडकास्ट	-8152
▁प्रकुपित	-8153
▁प्रतिदिन	-8154
▁प्रभावित	-8155
▁प्रमुदित	-8156
▁प्रमोदित	-8157
▁प्रश्नों	-8158
▁प्रसारित	-8159
▁प्रस्ताव	-8160
▁प्रस्तुत	-8161
▁प्राथमिक	-8162
▁प्रेमपाश	-8163
▁फाउंडेशन	-8164
▁फार्मिंग	-8165
▁फैक्ट्री	-8166
▁फोटोकॉपी	-8167
▁बढ़ाऊंगा	-8168
▁बर्फ़ीली	-8169
▁बांटेंगे	-8170
▁बृहस्पति	-8171
▁बैलगाड़ी	-8172
▁बॉक्सिंग	-8173
▁ब्रांडेड	-8174
▁ब्राह्मण	-8175
▁ब्लॉकचेन	-8176
▁भागीदारी	-8177
▁मक्खियों	-8178
▁मनोकामना	-8179
▁मिस्त्री	-8180
▁मुस्कुरा	-8181
▁मेडिटेशन	-8182
▁मोटरबाइक	-8183
▁रासायनिक	-8184
▁रिसेप्शन	-8185
▁रेगुलेटर	-8186
▁रोटावेटर	-8187
▁वासावलेह	-8188
▁व्यापारी	-8189
▁श्रृंगार	-8190
▁संगीतकार	-8191
▁संत्रस्त	-8192
▁सद्गुणों	-8193
▁सन्त्रास	-8194
▁सब्जियां	-8195
▁सर्दियों	-8196
▁सर्वधर्म	-8197
▁सहकारिता	-8198
▁सहेलियां	-8199
▁सांत्वना	-8200
▁साबूदाना	-8201
▁सिंघाड़े	-8202
▁सिखाएंगे	-8203
▁सिसकियां	-8204
▁सीढ़ियां	-8205
▁सीढ़ियों	-8206
▁सीसीटीवी	-8207
▁स्क्रैबल	-8208
▁स्टॉपवॉच	-8209
▁हरसिंगार	-8210
▁हिस्ट्री	-8211
▁हृदयाघात	-8212
▁होर्डिंग	-8213
▁अकाउंटेंट	-8214
▁आपातकालीन	-8215
▁इन्वेंटरी	-8216
▁उत्पादकता	-8217
▁उल्कापिंड	-8218
▁एक्वेरियम	-8219
▁एक्सप्रेस	-8220
▁एलेरोपैथी	-8221
▁कम्पीटिशन	-8222
▁कर्तव्यों	-8223
▁कालबेलिया	-8224
▁कुचिपुड़ी	-8225
▁कृष्णलीला	-8226
▁कैलकुलेटर	-8227
▁कैलकुलेशन	-8228
▁कॉन्टैक्ट	-8229
▁क्रॉसवर्ड	-8230
▁क्रोधावेश	-8231
▁खिड़कियों	-8232
▁गर्मागर्म	-8233
▁गुनगुनाया	-8234
▁ग्लाइडिंग	-8235
▁घुड़सवारी	-8236
▁चिड़ियाघर	-8237
▁छुट्टियों	-8238
▁ट्यूबलाइट	-8239
▁डिओडोरेंट	-8240
▁डिस्काउंट	-8241
▁डुप्लिकेट	-8242
▁तड़तड़ाने	-8243
▁तैयारियां	-8244
▁थर्मामीटर	-8245
▁दुर्गुणों	-8246
▁निरुत्साह	-8247
▁निर्धारित	-8248
▁न्यूजपेपर	-8249
▁पत्तागोभी	-8250
▁पहुंचूंगा	-8251
▁पुनर्जन्म	-8252
▁पुलिसवाला	-8253
▁पेनड्राइव	-8254
▁प्रकाशमान	-8255
▁प्रक्रिया	-8256
▁प्रतिनिधि	-8257
▁प्रतिबिंब	-8258
▁प्रतिष्ठा	-8259
▁प्रतीक्षा	-8260
▁प्रशिक्षण	-8261
▁प्रसन्नता	-8262
▁प्रसिद्धि	-8263
▁प्राइसिंग	-8264
▁प्रेमाकुल	-8265
▁प्रेमातुर	-8266
▁प्रैक्टिस	-8267
▁प्रोग्राम	-8268
▁प्रोजेक्ट	-8269
▁प्लास्टिक	-8270
▁फिसलपट्टी	-8271
▁फुसफुसाया	-8272
▁फ्लैशलाइट	-8273
▁बर्फ़बारी	-8274
▁ब्रांडिंग	-8275
▁मंगलसूत्र	-8276
▁महानारायण	-8277
▁महाप्रसाद	-8278
▁महायोगराज	-8279
▁मुबारकबाद	-8280
▁मुस्कराना	-8281
▁राजकुमारी	-8282
▁राजस्थानी	-8283
▁राष्ट्रीय	-8284
▁लवणभास्कर	-8285
▁विजयादशमी	-8286
▁विविधीकरण	-8287
▁विश्वसनीय	-8288
▁वेंटिलेशन	-8289
▁व्हीलचेयर	-8290
▁शक्तिशाली	-8291
▁शोकसंतप्त	-8292
▁श्रद्धालु	-8293
▁श्रीकृष्ण	-8294
▁श्वसकुठार	-8295
▁संक्रांति	-8296
▁संभालेंगे	-8297
▁संस्कारों	-8298
▁सनग्लासेस	-8299
▁सबमर्सिबल	-8300
▁सम्मानजनक	-8301
▁सर्विसिंग	-8302
▁सहानुभूति	-8303
▁साइक्लिंग	-8304
▁सितोपलादि	-8305
▁सूर्यमुखी	-8306
▁स्टार्टअप	-8307
▁स्टीयरिंग	-8308
▁स्तब्धकार	-8309
▁स्वाभाविक	-8310
▁स्वावलंबन	-8311
▁हस्तशिल्प	-8312
▁हस्ताक्षर	-8313
साक्षात्कार	-8314
▁अनुपस्थिति	-8315
▁अविपत्तिकर	-8316
▁अव्यवस्थित	-8317
▁अशोकारिष्ट	-8318
▁आवश्यकताओं	-8319
▁इंश्योरेंस	-8320
▁इलेक्ट्रिक	-8321
▁उपलब्धियों	-8322
▁एक्सरसाइज़	-8323
▁एम्यूजमेंट	-8324
▁कंसंट्रेटर	-8325
▁कुमार्यासव	-8326
▁गुरुद्वारे	-8327
▁ग्लूकोमीटर	-8328
▁चंद्रप्रभा	-8329
▁च्यवनप्राश	-8330
▁ज्वालामुखी	-8331
▁टेक्नोलॉजी	-8332
▁ताइक्वांडो	-8333
▁दिव्यांगों	-8334
▁नेटवर्किंग	-8335
▁परिवारजनों	-8336
▁पुनर्नवादि	-8337
▁पैरासेलिंग	-8338
▁प्रदरान्तक	-8339
▁प्रफुल्लित	-8340
▁प्रमाणपत्र	-8341
▁प्रसंस्करण	-8342
▁प्रेमविभोर	-8343
▁प्रोड्यूसर	-8344
▁प्लेटफार्म	-8345
▁प्लेटफॉर्म	-8346
▁फोटोग्राफी	-8347
▁बिलियर्ड्स	-8348
▁बुद्धिमानी	-8349
▁बैक्टीरिया	-8350
▁भरतनाट्यम्	-8351
▁भ्रष्टाचार	-8352
▁महासुदर्शन	-8353
▁मार्गदर्शक	-8354
▁राष्ट्रगान	-8355
▁वाइल्डलाइफ	-8356
▁वास्तविकता	-8357
▁वृद्धाश्रम	-8358
▁व्यक्तित्व	-8359
▁स्टेबलाइजर	-8360
▁स्ट्रेचिंग	-8361
▁स्ट्रैटेजी	-8362
▁स्मार्टफोन	-8363
▁अवसादग्रस्त	-8364
▁आत्मविश्वास	-8365
▁आर्गनाइजेशन	-8366
▁आश्चर्यचकित	-8367
▁आश्चर्यप्रद	-8368
▁इंस्टाग्राम	-8369
▁एंटीबायोटिक	-8370
▁कार्यक्रमों	-8371
▁क्रोधान्वित	-8372
▁क्लाइम्बिंग	-8373
▁ट्रैम्पोलिन	-8374
▁दशमूलारिष्ट	-8375
▁नकारात्मकता	-8376
▁नेब्यूलाइजर	-8377
▁पित्तपापड़ा	-8378
▁प्रीतिपूर्ण	-8379
▁प्रेजेंटेशन	-8380
▁प्रोत्साहित	-8381
▁प्लेटफ़ॉर्म	-8382
▁मंत्रोच्चार	-8383
▁मधुमक्खियां	-8384
▁मांसपेशियों	-8385
▁रेफ्रिजरेटर	-8386
▁विषादग्रस्त	-8387
▁सफलतापूर्वक	-8388
▁स्नॉर्कलिंग	-8389
▁हिंग्वाष्टक	-8390
▁हैंडराइटिंग	-8391
▁होम्योपैथिक	-8392
▁अल्ट्रासाउंड	-8393
▁आत्मनिर्भरता	-8394
▁आत्मसंतुष्टि	-8395
▁इंटरक्रॉपिंग	-8396
▁इन्वेस्टमेंट	-8397
▁इलेक्ट्रॉनिक	-8398
▁एडवर्टाइजिंग	-8399
▁कॉर्नफ्लेक्स	-8400
▁क्रुद्धावतार	-8401
▁प्लैनेटेरियम	-8402
▁फिजियोथेरेपी	-8403
▁महाराष्ट्रीय	-8404
▁महाशिवरात्रि	-8405
▁मोहिनीअट्टम्	-8406
▁विस्मयाभिभूत	-8407
▁श्रीमद्भागवत	-8408
▁सरस्वतारिष्ट	-8409
▁इलेक्ट्रिशियन	-8410
▁इलेक्ट्रोलाइट	-8411
▁ट्रांसप्लांटर	-8412
▁न्यूट्रिएंट्स	-8413
▁पैराग्लाइडिंग	-8414
▁मैन्युफैक्चरर	-8415
▁डिस्ट्रिब्यूशन	-8416
ँचे	-8417
ँधी	-8418
ंघी	-8419
ंजल	-8420
ंटन	-8421
ंट्	-8422
ंपर	-8423
ंभर	-8424
इमर	-8425
उडर	-8426
एमए	-8427
कंप	-8428
कॉम	-8429
चयन	-8430
चुआ	-8431
जूद	-8432
जोर	-8433
टफ़	-8434
टहल	-8435
टिस	-8436
डेड	-8437
डोक	-8438
दुप	-8439
निध	-8440
नून	-8441
नोप	-8442
फ़ब	-8443
फ़ि	-8444
बेल	-8445
मेड	-8446
मोद	-8447
रणा	-8448
रथी	-8449
रपो	-8450
रोप	-8451
रोब	-8452
लकु	-8453
लमे	-8454
लवि	-8455
लहम	-8456
लिस	-8457
वईं	-8458
विप	-8459
विभ	-8460
विष	-8461
विस	-8462
वेर	-8463
वेल	-8464
वॉश	-8465
षणा	-8466
षधी	-8467
ष्प	-8468
सकु	-8469
सुद	-8470
हतर	-8471
ह्म	-8472
ाइट	-8473
ाठे	-8474
ाहट	-8475
ीएस	-8476
ीजर	-8477
ीजे	-8478
ीडी	-8479
ीणा	-8480
ीपर	-8481
ुंह	-8482
ुआं	-8483
ुग्	-8484
ुब्	-8485
ुलन	-8486
ुलु	-8487
ूको	-8488
ूथब	-8489
ूफी	-8490
ूमध	-8491
ेजर	-8492
ेडफ	-8493
ेबल	-8494
ैथी	-8495
ैनल	-8496
ॉइन	-8497
ॉकच	-8498
ॉफी	-8499
ंकल	-8500
ंपो	-8501
ग्ग	-8502
डिट	-8503
फ़ी	-8504
भाए	-8505
यची	-8506
वसर	-8507
शोर	-8508
संब	-8509
सपो	-8510
ीची	-8511
ूसर	-8512
ॉबी	-8513
ॉयल	-8514
ॉसफ	-8515
ोजे	-8516
ोटब	-8517
ौधा	-8518
ौधे	-8519
्जे	-8520
्तर	-8521
्मश	-8522
्लड	-8523
्लॉ	-8524
▁ओट	-8525
ँदनी	-8526
ंकित	-8527
ंखपु	-8528
ंट्र	-8529
ंत्व	-8530
ंपता	-8531
कलेट	-8532
कुरी	-8533
कोमी	-8534
क्टू	-8535
क्सट	-8536
खदाय	-8537
खाईं	-8538
गुना	-8539
गुने	-8540
गोकर	-8541
गोना	-8542
चोड़	-8543
छाकर	-8544
ज़पो	-8545
जाली	-8546
जाले	-8547
जेंट	-8548
जेशन	-8549
झाना	-8550
झाने	-8551
झाया	-8552
टकाव	-8553
टेंट	-8554
ट्ठे	-8555
ट्री	-8556
ट्रे	-8557
डवर्	-8558
ड़हल	-8559
ड्डा	-8560
ड्रे	-8561
ढकों	-8562
तागो	-8563
तापू	-8564
तिपू	-8565
त्मव	-8566
त्मस	-8567
दतों	-8568
दरान	-8569
दर्श	-8570
द्गु	-8571
द्री	-8572
धरता	-8573
धेरा	-8574
नर्न	-8575
नलाइ	-8576
नवाद	-8577
नादर	-8578
नापन	-8579
नापस	-8580
नाशक	-8581
न्फ़	-8582
पन्न	-8583
पलाइ	-8584
पस्ट	-8585
पातक	-8586
पादन	-8587
पोस्	-8588
प्रस	-8589
प्रि	-8590
फलता	-8591
बसूर	-8592
बूजे	-8593
ब्बे	-8594
ब्रा	-8595
भरता	-8596
भाते	-8597
भाना	-8598
भाने	-8599
ंभव	-8600
इम्	-8601
कुट	-8602
चप्	-8603
ठिन	-8604
णम्	-8605
तप्	-8606
तूर	-8607
प्ल	-8608
फिन	-8609
म्फ	-8610
रम्	-8611
लपी	-8612
सप्	-8613
हौल	-8614
़ोट	-8615
िटल	-8616
िप्	-8617
ुम्	-8618
ूरि	-8619
ूरो	-8620
ृप्	-8621
ैम्	-8622
ॉम्	-8623
्पा	-8624
्पी	-8625
ंसना	-8626
क्यू	-8627
गदर्	-8628
चिंड	-8629
ट्यू	-8630
ड़वे	-8631
नमकी	-8632
पीकर	-8633
पीजी	-8634
पीता	-8635
पीहा	-8636
प्ति	-8637
प्यू	-8638
प्ला	-8639
बाइन	-8640
मवर्	-8641
माणप	-8642
मृति	-8643
म्यू	-8644
म्यो	-8645
याओं	-8646
रंगी	-8647
रतते	-8648
रबत्	-8649
रम्म	-8650
राग्	-8651
रायण	-8652
रिटी	-8653
रिमा	-8654
रिवा	-8655
रीफ़	-8656
र्कल	-8657
र्टक	-8658
र्टू	-8659
र्ड्	-8660
र्नफ	-8661
र्भव	-8662
लर्ट	-8663
लाइज	-8664
लानि	-8665
लापन	-8666
लामु	-8667
लिटी	-8668
लुता	-8669
लेपन	-8670
लेयर	-8671
वतार	-8672
वाजे	-8673
विग्	-8674
विस्	-8675
वेरा	-8676
वेस्	-8677
शकों	-8678
शलाइ	-8679
षधीय	-8680
ष्पी	-8681
सनीय	-8682
सरसा	-8683
सहाय	-8684
स्कु	-8685
स्मय	-8686
हकों	-8687
हलता	-8688
हलने	-8689
हसास	-8690
हस्प	-8691
ह्मी	-8692
़त्म	-8693
़ाली	-8694
़ोटो	-8695
ांचक	-8696
ांजल	-8697
ांसफ	-8698
ाड़ू	-8699
खीं	-8700
जपे	-8701
णभा	-8702
तनप	-8703
तपा	-8704
दवी	-8705
पाप	-8706
पेप	-8707
सपा	-8708
समृ	-8709
ाइल	-8710
ाट्	-8711
ीठी	-8712
ीवी	-8713
ुपा	-8714
ूंज	-8715
ूंथ	-8716
ूशन	-8717
्वी	-8718
्शन	-8719
▁ढफ	-8720
▁ढे	-8721
▁थर	-8722
ंट्स	-8723
क्खी	-8724
क्री	-8725
क्रै	-8726
क्रो	-8727
टीयर	-8728
ड़पा	-8729
नदों	-8730
नुपा	-8731
पाती	-8732
पाया	-8733
पेस्	-8734
प्रा	-8735
र्शन	-8736
लेशन	-8737
वस्थ	-8738
सक्र	-8739
स्वी	-8740
ान्त	-8741
ान्व	-8742
ायपर	-8743
ारंप	-8744
ारपा	-8745
ालीन	-8746
िक्स	-8747
िटिश	-8748
िटीज	-8749
ित्त	-8750
ित्स	-8751
िनते	-8752
ियोथ	-8753
िल्प	-8754
िश्व	-8755
िसवा	-8756
िस्ट	-8757
ीलचे	-8758
ीवरी	-8759
ुक्क	-8760
ुगता	-8761
ुटते	-8762
ुपके	-8763
ुपचा	-8764
ुभती	-8765
ुर्व	-8766
ुलाई	-8767
ुल्ल	-8768
ूंजी	-8769
ूपीआ	-8770
ूमते	-8771
ूर्ण	-8772
ूसता	-8773
ूसरे	-8774
ृतिक	-8775
ृदया	-8776
ेंको	-8777
ेंटब	-8778
ेंसर	-8779
ेजते	-8780
ेड्य	-8781
ेबसा	-8782
ेरणा	-8783
ैंसर	-8784
ैसला	-8785
ैसले	-8786
ॉकेट	-8787
ॉक्स	-8788
ॉनिक	-8789
ॉर्न	-8790
ॉलेट	-8791
ोकाम	-8792
ोचते	-8793
ोटिक	-8794
ोटोक	-8795
ोट्स	-8796
ोतों	-8797
ोरों	-8798
ोर्ट	-8799
ंखे	-8800
ंतज	-8801
ंतर	-8802
कोत	-8803
देन	-8804
धुर	-8805
नुब	-8806
नुम	-8807
नुल	-8808
नुस	-8809
बाइ	-8810
बाश	-8811
मुट	-8812
रुक	-8813
श्क	-8814
ाबा	-8815
ीशम	-8816
ूपब	-8817
ैडर	-8818
्बा	-8819
्वन	-8820
ंतज़	-8821
चक्क	-8822
जियम	-8823
टरबा	-8824
टाइज	-8825
दाश्	-8826
पकता	-8827
पकने	-8828
भूति	-8829
म्बा	-8830
र्जु	-8831
वदार	-8832
वर्ग	-8833
िंदी	-8834
ुनते	-8835
ुनरी	-8836
ेनरे	-8837
ोलिन	-8838
ौकरी	-8839
ौनों	-8840
ौलिए	-8841
्यवन	-8842
्यूस	-8843
्योप	-8844
्योर	-8845
्योह	-8846
्रभा	-8847
्रह्	-8848
्राफ	-8849
्रास	-8850
्रीस	-8851
्रेच	-8852
्रॉक	-8853
्लाइ	-8854
्लैश	-8855
्वेत	-8856
्हील	-8857
▁अखब	-8858
▁अदर	-8859
▁अमे	-8860
▁अश्	-8861
▁आईड	-8862
▁आपक	-8863
▁आयो	-8864
▁आवश	-8865
▁आशी	-8866
▁इंश	-8867
▁इरि	-8868
▁उपय	-8869
▁एग्	-8870
▁एलई	-8871
▁एलो	-8872
▁ओट्	-8873
▁कंब	-8874
▁कचौ	-8875
▁कृप	-8876
▁कॉम	-8877
▁क्व	-8878
▁खतर	-8879
▁गिट	-8880
▁गिफ	-8881
▁गोव	-8882
▁चतु	-8883
▁चबा	-8884
▁चमे	-8885
▁चम्	-8886
▁चश्	-8887
▁चहच	-8888
▁चिं	-8889
▁चिच	-8890
▁चेह	-8891
▁छाप	-8892
▁जलक	-8893
▁जश्	-8894
▁जुड	-8895
▁टाइ	-8896
▁टीच	-8897
▁टेन	-8898
▁टॉय	-8899
ंजे	-8900
टेर	-8901
टेल	-8902
दाश	-8903
मिन	-8904
रदा	-8905
रहर	-8906
वरह	-8907
सलप	-8908
ाटे	-8909
िटे	-8910
िडी	-8911
िदा	-8912
िपी	-8913
िवर	-8914
िसल	-8915
ूदा	-8916
ैसल	-8917
ौटे	-8918
्वर	-8919
▁झी	-8920
झदार	-8921
टिला	-8922
ड़को	-8923
तावर	-8924
द्दा	-8925
पयोग	-8926
पहार	-8927
भिला	-8928
यावर	-8929
रेपी	-8930
वरों	-8931
वहार	-8932
हराई	-8933
ांटे	-8934
ानवर	-8935
ायदा	-8936
िटर्	-8937
िराम	-8938
िलाइ	-8939
िलाओ	-8940
िलाट	-8941
िलाष	-8942
ोहार	-8943
्णली	-8944
▁चीं	-8945
▁टोट	-8946
▁डिग	-8947
▁डिन	-8948
▁डिब	-8949
▁ढक्	-8950
▁ढूँ	-8951
▁तबी	-8952
▁तरो	-8953
▁तीख	-8954
▁त्व	-8955
▁थाल	-8956
▁थिर	-8957
▁दलह	-8958
▁दाँ	-8959
▁दात	-8960
▁दौर	-8961
▁धतू	-8962
▁धरो	-8963
▁निग	-8964
▁निप	-8965
▁निब	-8966
▁निभ	-8967
▁निष	-8968
▁पिज	-8969
▁पैम	-8970
▁पोछ	-8971
▁पोश	-8972
▁फुस	-8973
▁फोट	-8974
▁बचप	-8975
▁बप्	-8976
▁बीप	-8977
▁बीम	-8978
▁बोत	-8979
▁बोर	-8980
▁भरो	-8981
▁भाष	-8982
▁भिग	-8983
▁मछु	-8984
▁मतल	-8985
▁मधु	-8986
▁मशी	-8987
▁महस	-8988
▁महि	-8989
▁मूं	-8990
▁मूस	-8991
▁मौस	-8992
▁यूप	-8993
▁रसग	-8994
▁रुप	-8995
▁रुम	-8996
▁रेस	-8997
▁लपे	-8998
▁लहल	-8999
ँचा	-9000
ंटा	-9001
ंसं	-9002
इवर	-9003
ईश्	-9004
कचा	-9005
कोल	-9006
चाओ	-9007
चाच	-9008
टाख	-9009
टाग	-9010
टाय	-9011
तचा	-9012
न्फ	-9013
पटा	-9014
पन्	-9015
फाय	-9016
बीर	-9017
मकु	-9018
वचा	-9019
ायप	-9020
ायो	-9021
िन्	-9022
ेटा	-9023
ोटा	-9024
ोलर	-9025
ोलह	-9026
गीचा	-9027
चाजी	-9028
चाना	-9029
चाने	-9030
जिंग	-9031
टाकर	-9032
टाता	-9033
तरकर	-9034
द्दे	-9035
नाटा	-9036
न्मा	-9037
मकता	-9038
मकती	-9039
रिंग	-9040
र्टा	-9041
ष्टा	-9042
ष्टी	-9043
ायजा	-9044
ाष्ट	-9045
ुपित	-9046
ृष्ट	-9047
ोलकर	-9048
ोलते	-9049
ोलने	-9050
ौष्ट	-9051
▁अवश	-9052
▁आंत	-9053
▁आश्	-9054
▁ईश्	-9055
▁कटो	-9056
▁कलछ	-9057
▁कलर	-9058
▁गन्	-9059
▁दरब	-9060
▁नीं	-9061
▁पटा	-9062
▁भरप	-9063
▁महफ	-9064
▁लाइ	-9065
▁लोश	-9066
▁वीड	-9067
▁वॉच	-9068
▁शतर	-9069
▁शहत	-9070
▁शिष	-9071
▁शुर	-9072
▁शॉप	-9073
▁शोभ	-9074
▁शोह	-9075
▁श्व	-9076
▁सरग	-9077
▁सोफ	-9078
▁सोम	-9079
▁हड्	-9080
▁हरस	-9081
▁हाइ	-9082
▁हास	-9083
▁हीर	-9084
ंगराज	-9085
ंगाजल	-9086
ंटवार	-9087
ंटेंट	-9088
ंडीशन	-9089
ंत्रम	-9090
ंददाय	-9091
ंपिंग	-9092
इक्रो	-9093
कट्ठा	-9094
कट्ठी	-9095
कानें	-9096
कीदार	-9097
क्टिस	-9098
क्तचा	-9099
ँची	-9100
कुं	-9101
जेद	-9102
टाव	-9103
दाम	-9104
देद	-9105
धाव	-9106
पेय	-9107
मेद	-9108
वेव	-9109
ामि	-9110
ायद	-9111
ायब	-9112
ावल	-9113
ावु	-9114
ीरब	-9115
ेदभ	-9116
ेदा	-9117
ेमव	-9118
ेम्	-9119
ोहक	-9120
्वे	-9121
गस्त	-9122
दार्	-9123
फार्	-9124
लार्	-9125
वगंध	-9126
हासु	-9127
ामाद	-9128
ायिक	-9129
ायित	-9130
ार्ग	-9131
ार्व	-9132
ार्ष	-9133
ालेद	-9134
ावता	-9135
ावना	-9136
ेदना	-9137
्राव	-9138
▁आह्	-9139
▁झार	-9140
▁नेच	-9141
▁पुण	-9142
▁पुर	-9143
▁बैड	-9144
▁बैन	-9145
▁भाइ	-9146
▁मोज	-9147
▁मोन	-9148
▁मोब	-9149
▁मोश	-9150
▁रिद	-9151
▁विट	-9152
▁विध	-9153
▁विन	-9154
▁विप	-9155
▁विभ	-9156
▁विस	-9157
▁सिं	-9158
ंत्रो	-9159
कताओं	-9160
क्तिश	-9161
क्रां	-9162
क्षाब	-9163
ख्वाह	-9164
गड़ता	-9165
गड़ते	-9166
ग्रता	-9167
ग्लाइ	-9168
चानना	-9169
चूंगा	-9170
जनाएं	-9171
जनाओं	-9172
जमेंट	-9173
जरेटर	-9174
जस्था	-9175
जूदगी	-9176
झदारी	-9177
टरक्र	-9178
टवर्क	-9179
टाग्र	-9180
टियों	-9181
टूंगा	-9182
डमिंट	-9183
ड़कते	-9184
ड़किय	-9185
ड़कें	-9186
ड़कों	-9187
ताज़ा	-9188
तारकर	-9189
तारता	-9190
तिहास	-9191
तेदार	-9192
त्मनि	-9193
त्मिक	-9194
त्रीय	-9195
त्वपू	-9196
थानीय	-9197
थापित	-9198
दायिक	-9199
ंचन	-9200
ंचू	-9201
ंजन	-9202
जन्	-9203
ददा	-9204
नपू	-9205
पंच	-9206
पचा	-9207
मसे	-9208
मीद	-9209
मीन	-9210
रजन	-9211
रिस	-9212
लसी	-9213
वमी	-9214
सेल	-9215
ामी	-9216
िंच	-9217
ींच	-9218
ूटू	-9219
ैसे	-9220
ोमी	-9221
ोसी	-9222
▁एग	-9223
▁एर	-9224
▁झर	-9225
ंचते	-9226
ंचना	-9227
ंचनी	-9228
ंचवा	-9229
कड़ा	-9230
कवान	-9231
कारि	-9232
कार्	-9233
जनों	-9234
धकार	-9235
नामी	-9236
नेटे	-9237
पड़ा	-9238
फड़ा	-9239
मीज़	-9240
यरपो	-9241
रकार	-9242
रासे	-9243
र्यक	-9244
र्यच	-9245
र्यट	-9246
र्यप	-9247
र्यो	-9248
र्सी	-9249
लासे	-9250
वासी	-9251
वासे	-9252
सीला	-9253
सीले	-9254
स्से	-9255
हंगा	-9256
हकार	-9257
ादाम	-9258
ालभा	-9259
िल्म	-9260
ुकार	-9261
ूड़ा	-9262
ेंसी	-9263
ैर्य	-9264
ोड़ा	-9265
ौड़ा	-9266
्टमी	-9267
▁उपल	-9268
▁कंच	-9269
▁चंच	-9270
▁पिघ	-9271
▁बैट	-9272
▁रिस	-9273
क्षिण	-9274
ड़ाना	-9275
ड़ाही	-9276
त्कार	-9277
दार्थ	-9278
दूरों	-9279
देदार	-9280
द्भाग	-9281
द्भाव	-9282
धवाओं	-9283
धारती	-9284
धारना	-9285
धारित	-9286
धियों	-9287
नंदित	-9288
नगुना	-9289
नगुने	-9290
नाट्य	-9291
नीगंध	-9292
नुमान	-9293
नूंगा	-9294
नेदार	-9295
न्त्र	-9296
न्नता	-9297
न्वर्	-9298
पलाइन	-9299
ंचग	-9300
कसा	-9301
गरू	-9302
गेश	-9303
जेश	-9304
टेश	-9305
टोग	-9306
बसा	-9307
रसा	-9308
रूक	-9309
शास	-9310
साख	-9311
़रू	-9312
ाबह	-9313
िनो	-9314
िसा	-9315
ीसा	-9316
ुरू	-9317
ेशम	-9318
ैसा	-9319
ोजन	-9320
▁झल	-9321
▁ढू	-9322
चर्य	-9323
टरसा	-9324
ड़ाह	-9325
ढ़ाऊ	-9326
ढ़ाप	-9327
बारे	-9328
ब्बा	-9329
र्वक	-9330
लासा	-9331
लीसा	-9332
वासा	-9333
शांत	-9334
सत्य	-9335
हारे	-9336
िद्ध	-9337
ुहार	-9338
ोगरा	-9339
ोगों	-9340
ोग्र	-9341
ोलाइ	-9342
्रेश	-9343
▁अग्	-9344
▁अन्	-9345
▁एटी	-9346
▁झों	-9347
▁नृत	-9348
▁बेक	-9349
▁बेस	-9350
▁रसा	-9351
▁रेश	-9352
▁संज	-9353
▁संब	-9354
▁संभ	-9355
▁संव	-9356
▁सफे	-9357
ंग्रे	-9358
जीवनी	-9359
ढ़ाता	-9360
ढ़ाती	-9361
ढ़ाते	-9362
ढ़ाने	-9363
द्धता	-9364
द्धां	-9365
पियां	-9366
पुड़ी	-9367
प्लाई	-9368
फकारा	-9369
फार्म	-9370
फॉर्म	-9371
फ्यूम	-9372
फ्रिज	-9373
बलाइट	-9374
बियां	-9375
बियों	-9376
बूज़ा	-9377
भालें	-9378
मकदार	-9379
मवर्क	-9380
माकुल	-9381
मातुर	-9382
मानजन	-9383
मीरों	-9384
मुदित	-9385
म्पार	-9386
म्रता	-9387
योगरा	-9388
रक्षण	-9389
रवाज़	-9390
रवाजा	-9391
रावनी	-9392
रित्र	-9393
रिष्ट	-9394
र्गों	-9395
र्जना	-9396
र्टून	-9397
र्ड्स	-9398
र्नफ्	-9399
कल्	-9400
चहा	-9401
जल्	-9402
टाप	-9403
टीए	-9404
टीज	-9405
टीन	-9406
टीब	-9407
टीय	-9408
टीर	-9409
रंत	-9410
लहा	-9411
ल्च	-9412
ल्ड	-9413
सटी	-9414
सहा	-9415
साउ	-9416
हाँ	-9417
हाआ	-9418
हाज	-9419
हाप	-9420
हाव	-9421
ाइन	-9422
ाटी	-9423
ाहा	-9424
िंक	-9425
ीटी	-9426
ुल्	-9427
ेटी	-9428
ैल्	-9429
ैसी	-9430
ोल्	-9431
ोहा	-9432
ौरव	-9433
▁एय	-9434
अट्ट	-9435
क्रॉ	-9436
गड़ी	-9437
टवार	-9438
ट्टे	-9439
ड़वी	-9440
तिहा	-9441
थहीन	-9442
ल्के	-9443
वारज	-9444
वार्	-9445
हाज़	-9446
हाता	-9447
हाना	-9448
हानी	-9449
हाया	-9450
िंडर	-9451
ुट्ट	-9452
ुवार	-9453
ोड़ी	-9454
▁अखर	-9455
▁अल्	-9456
▁जल्	-9457
▁पल्	-9458
▁पेम	-9459
▁बल्	-9460
▁बिछ	-9461
▁बिह	-9462
▁मल्	-9463
ंतर्म	-9464
ट्टिय	-9465
द्वार	-9466
र्यटक	-9467
र्यवा	-9468
र्वाद	-9469
लाकार	-9470
लासिक	-9471
लीफोन	-9472
ल्लित	-9473
वंतरम	-9474
वसरों	-9475
वस्था	-9476
वस्या	-9477
वाचार	-9478
वारता	-9479
वारिक	-9480
वारें	-9481
वारों	-9482
वाष्ट	-9483
वाहिश	-9484
विग्न	-9485
वित्र	-9486
विवार	-9487
विष्य	-9488
वीरें	-9489
वेंडर	-9490
व्यों	-9491
शबाजी	-9492
शलाइट	-9493
शीनें	-9494
ष्टमी	-9495
ष्ट्र	-9496
सफलता	-9497
सलीला	-9498
साक्ष	-9499
ंचर	-9500
ंडद	-9501
ंडप	-9502
ंबे	-9503
इंड	-9504
खंड	-9505
टरब	-9506
टरस	-9507
ठाए	-9508
ठाओ	-9509
ठाव	-9510
थाप	-9511
द्ग	-9512
द्द	-9513
द्व	-9514
पुष	-9515
फ़ॉ	-9516
बिट	-9517
माक	-9518
वलं	-9519
विग	-9520
िठा	-9521
िद्	-9522
ीटर	-9523
ीठा	-9524
ीहा	-9525
ूटर	-9526
ूथु	-9527
ैठा	-9528
ोटर	-9529
्ठा	-9530
▁ईम	-9531
ंगीत	-9532
ंडक्	-9533
ंडता	-9534
ंडरा	-9535
ंडली	-9536
ंडार	-9537
क्सच	-9538
जोरी	-9539
टरने	-9540
टाना	-9541
ट्ठा	-9542
ठाकर	-9543
ठाती	-9544
ठाते	-9545
ठाने	-9546
ठाया	-9547
पाना	-9548
फनने	-9549
मागी	-9550
रजकर	-9551
र्टर	-9552
लेटर	-9553
वांड	-9554
वाटर	-9555
हकना	-9556
ेंटर	-9557
्रद्	-9558
▁कद्	-9559
▁कपू	-9560
▁डंड	-9561
▁डॉल	-9562
▁दीव	-9563
▁पीछ	-9564
▁पैन	-9565
▁बाउ	-9566
▁बाथ	-9567
▁बाध	-9568
▁बाब	-9569
▁बाव	-9570
▁बाह	-9571
▁लाव	-9572
▁सूच	-9573
▁सूर	-9574
त्वों	-9575
भावित	-9576
सुदर्	-9577
स्ट्र	-9578
स्पता	-9579
स्मया	-9580
स्में	-9581
स्वती	-9582
हराने	-9583
हलाना	-9584
हल्ला	-9585
हाड़ा	-9586
हायोग	-9587
हारें	-9588
हारों	-9589
हावनी	-9590
हीनों	-9591
ांजों	-9592
ाऊंगा	-9593
ागर्म	-9594
ाट्सए	-9595
ाड़ों	-9596
ात्रा	-9597
ादकता	-9598
ादग्र	-9599
तह	-9600
यि	-9601
लश	-9602
ैट	-9603
आने	-9604
गाओ	-9605
घनी	-9606
जमा	-9607
झड़	-9608
ट्र	-9609
ड़प	-9610
ड़ह	-9611
डिय	-9612
ढोल	-9613
दया	-9614
ननी	-9615
नाय	-9616
नीग	-9617
भड़	-9618
भया	-9619
मस्	-9620
माग	-9621
माट	-9622
माय	-9623
याग	-9624
यात	-9625
याह	-9626
रबा	-9627
रया	-9628
लगा	-9629
लाट	-9630
वड़	-9631
वाय	-9632
हड़	-9633
िट्	-9634
ुमा	-9635
ुला	-9636
ूमा	-9637
ेड़	-9638
ैया	-9639
ॉसव	-9640
ोगा	-9641
ोट्	-9642
ोड़	-9643
ौड़	-9644
्मा	-9645
▁कढ	-9646
▁त्	-9647
ंदनी	-9648
गाना	-9649
ट्सए	-9650
त्रण	-9651
त्रम	-9652
बड्ड	-9653
बूदा	-9654
माकर	-9655
माजी	-9656
यात्	-9657
सलने	-9658
स्के	-9659
स्तव	-9660
ांठे	-9661
िर्म	-9662
िलते	-9663
ूतों	-9664
ृत्र	-9665
ैत्र	-9666
्त्र	-9667
▁केव	-9668
▁जगा	-9669
▁टमा	-9670
▁नर्	-9671
▁नीच	-9672
▁नेब	-9673
▁बड़	-9674
▁मजद	-9675
▁सहा	-9676
▁हैप	-9677
ड़कना	-9678
त्रता	-9679
त्रस्	-9680
त्रित	-9681
त्रों	-9682
न्याय	-9683
मकीली	-9684
यात्र	-9685
रात्र	-9686
लेंडर	-9687
स्वाद	-9688
ादाजी	-9689
ारंगी	-9690
ार्के	-9691
ार्टफ	-9692
ार्डन	-9693
िंगार	-9694
िंग्स	-9695
िकनिक	-9696
िकाना	-9697
िक्री	-9698
िक्षण	-9699
झे	-9700
ठं	-9701
णन	-9702
नन	-9703
नॉ	-9704
शख	-9705
षो	-9706
िछ	-9707
ुद	-9708
ंतु	-9709
कले	-9710
खने	-9711
खाह	-9712
गते	-9713
झते	-9714
ठते	-9715
तता	-9716
तने	-9717
ताइ	-9718
तेज	-9719
तेम	-9720
थने	-9721
दवा	-9722
धने	-9723
नते	-9724
नने	-9725
नीं	-9726
नीम	-9727
नेम	-9728
पने	-9729
पीड	-9730
प्य	-9731
भूष	-9732
याओ	-9733
याण	-9734
याब	-9735
लें	-9736
वली	-9737
षाद	-9738
सूर	-9739
हते	-9740
ाति	-9741
ाभी	-9742
िसम	-9743
ीजन	-9744
ीते	-9745
ीनी	-9746
ीशा	-9747
ुद्	-9748
ुसा	-9749
ेजो	-9750
ेते	-9751
ेनी	-9752
ेमा	-9753
ेरी	-9754
्नी	-9755
्रध	-9756
▁जर	-9757
▁वस	-9758
गेशन	-9759
चाकर	-9760
चाते	-9761
ज़ने	-9762
ट्टम	-9763
पाच्	-9764
र्वज	-9765
हलना	-9766
ोजना	-9767
▁किस	-9768
▁केब	-9769
▁गाँ	-9770
▁दाद	-9771
▁दोन	-9772
▁पनी	-9773
▁पैद	-9774
▁मौज	-9775
▁लहस	-9776
ंद्रह	-9777
च्चाई	-9778
ड़कता	-9779
निवार	-9780
मकीला	-9781
र्टकट	-9782
िटर्ज	-9783
िटर्न	-9784
िटायर	-9785
िटिशन	-9786
िड़की	-9787
ितरों	-9788
ित्रण	-9789
िद्धि	-9790
ियानो	-9791
िरंगा	-9792
िरंगी	-9793
िरंगे	-9794
िरणों	-9795
िलाओं	-9796
िलाटे	-9797
िलाता	-9798
िलाती	-9799
ंय	-9800
इब	-9801
और	-9802
कन	-9803
डा	-9804
धव	-9805
पछ	-9806
मभ	-9807
मव	-9808
ाह	-9809
ॉज	-9810
ंग्	-9811
ंघा	-9812
इबल	-9813
एटी	-9814
चती	-9815
जकु	-9816
जया	-9817
डार	-9818
नाग	-9819
नेर	-9820
पास	-9821
बें	-9822
यरी	-9823
रार	-9824
शर्	-9825
ारं	-9826
ारन	-9827
ीका	-9828
ीतक	-9829
ुरी	-9830
ूरी	-9831
ैफ़	-9832
ैले	-9833
ौकर	-9834
्यव	-9835
्रण	-9836
्हा	-9837
▁अद	-9838
▁खड	-9839
▁खब	-9840
▁खू	-9841
▁गज	-9842
▁गत	-9843
▁गप	-9844
▁गय	-9845
▁गव	-9846
▁गृ	-9847
▁चप	-9848
▁चब	-9849
▁चय	-9850
▁चश	-9851
▁चॉ	-9852
▁चो	-9853
▁दब	-9854
▁पछ	-9855
▁भं	-9856
▁भक	-9857
▁लस	-9858
ंखें	-9859
टाइल	-9860
ताने	-9861
फ्यू	-9862
यनिक	-9863
र्सि	-9864
वच्छ	-9865
व्या	-9866
सलों	-9867
हीना	-9868
ारंग	-9869
ारना	-9870
ारिक	-9871
ारें	-9872
ालनी	-9873
ेंशन	-9874
▁ऊर्	-9875
▁करू	-9876
▁करे	-9877
▁गप्	-9878
▁गार	-9879
▁गैल	-9880
▁चां	-9881
▁जता	-9882
▁पंछ	-9883
▁मसी	-9884
▁शब्	-9885
▁सुक	-9886
ंबाइन	-9887
ढ़ावा	-9888
िलाते	-9889
िलाना	-9890
िलाया	-9891
िलाषा	-9892
िलाषी	-9893
िलिंग	-9894
िल्टर	-9895
िल्ला	-9896
िश्ते	-9897
िस्ता	-9898
ीक्षण	-9899
अज	-9900
झड	-9901
डत	-9902
पि	-9903
मछ	-9904
वं	-9905
शप	-9906
सच	-9907
़र	-9908
़व	-9909
ोस	-9910
अना	-9911
इना	-9912
ओवर	-9913
कूट	-9914
गना	-9915
गीच	-9916
घना	-9917
चें	-9918
छें	-9919
झना	-9920
ड़ि	-9921
द्र	-9922
नना	-9923
नाज	-9924
नाफ	-9925
नाश	-9926
पके	-9927
पना	-9928
माम	-9929
याव	-9930
रें	-9931
वसा	-9932
वें	-9933
सते	-9934
सें	-9935
▁	-9936
ा	-9937
ह	-9938
े	-9939
र	-9940
क	-9941
ी	-9942
ं	-9943
म	-9944
न	-9945
त	-9946
स	-9947
ै	-9948
्	-9949
ल	-9950
ि	-9951
प	-9952
ब	-9953
ो	-9954
द	-9955
ु	-9956
ग	-9957
च	-9958
ज	-9959
य	-9960
ू	-9961
व	-9962
ख	-9963
श	-9964
ट	-9965
़	-9966
ड	-9967
अ	-9968
आ	-9969
।	-9970
ए	-9971
फ	-9972
ँ	-9973
ध	-9974
भ	-9975
ई	-9976
छ	-9977
उ	-9978
थ	-9979
ठ	-9980
ष	-9981
घ	-9982
झ	-9983
इ	-9984
ढ	-9985
ृ	-9986
ण	-9987
ओ	-9988
ौ	-9989
-	-9990
ॉ	-9991
औ	-9992
ऊ	-9993
